#version: 0.2
Ġ t
Ġ a
i n
h e
r e
o n
e r
Ġt he
a t
Ġ s
Ġ c
o r
e s
e n
i t
Ġ o
i s
e d
Ġ p
Ġ w
i on
a l
in g
Ġa n
Ġ f
Ġ in
Ġ b
a n
Ġ d
Ġt o
i c
Ġ m
Ġo f
r o
e c
a r
Ġan d
l e
a c
u s
Ġt h
a s
e t
Ġ re
en t
Ġ e
Ġ n
o m
at ion
o u
Ġ h
i l
Ġ is
s t
Ġ T
l o
u t
l y
v e
i m
- -
u r
i d
v er
Ġ I
Ġth at
Ġp ro
ec t
Ġ on
o t
Ġ A
Ġ S
Ġf or
Ġb e
i g
u n
a m
ac k
u l
Ġc on
Ġ (
e l
Ġ l
Ġ us
i f
it y
c e
a b
Ġa t
Ġ g
Ġa s
o d
e m
o l
it h
Ġs t
es s
Ġ C
Ġe x
Ġ v
Ġc om
o w
c t
Ġa l
ĠT he
er s
at e
a d
Ġw ith
Ġ R
Ġw e
a in
c h
Ġa re
s e
t er
u re
a g
Ġ it
p p
i r
Ġat t
Ġ or
a y
r i
-- --
Ġd e
q u
Ġw h
Ġb y
he r
p t
Ġatt ack
Ġc an
Ġ F
u m
Ġ P
Ġ W
is t
Ġ M
i es
o re
Ġ r
Ġs u
f or
Ġcom p
Ġa d
Ġ D
ĠI n
i ve
ro m
Ġt r
Ġ y
or k
es t
Ġn ot
m ent
k e
re s
Ġth is
n t
i al
i z
for m
Ġ 1
il l
an d
= =
a re
Ġ 2
c c
Ġf rom
y st
l d
p er
Ġy ou
Ġ lo
yst em
Ġ en
Ġ B
or t
Ġd at
ac t
ion s
Ġa pp
Ġcon t
ab le
Ġ H
o s
et w
ec ur
an t
e re
Ġn e
E F
ecur ity
p le
Ġs h
Ġ im
at ed
ic h
Ġ un
Ġh a
ar t
i v
Ġ E
ic ation
ag e
Ġ le
Ġs ystem
ic al
Ġin t
Ġ O
us t
al l
Ġwh ich
Ġ N
Ġre s
ĠR EF
ou ld
ac h
lo w
f f
Ġc h
u p
Ġm od
en d
ul t
o c
t her
in e
0 0
i re
Ġha ve
Ġ L
â Ģ
u d
Ġdat a
Ġs p
Ġw he
a p
ver s
o st
ig h
i le
o us
b er
as s
Ġa cc
---- ----
Ġs e
ig n
a il
v ic
b le
ar d
ect ion
p l
Ġp er
ĠT h
ab il
etw ork
Ġc l
Ġ U
w are
u ct
am e
Ġw as
g e
Ġw ill
Ġin c
Ġs c
Ġ G
ation s
Ġs er
s o
0 1
Ġ he
Ġh as
an s
Ġs ecurity
Ġn etwork
' s
Ġ k
f ere
g r
as e
ou r
n er
ar y
Ġd et
id e
om e
form ation
d er
im e
ou t
en s
Ġus e
an ce
Ġmod el
ec h
Ġp re
Ġad d
in d
u al
Ġcom m
u g
ĠW e
a k
Ġus ed
Ġal l
u e
Ġd o
Ġm an
t h
Ġd is
âĢ Ļ
Ġthe ir
Ġe v
Ġo ther
Ġ "
as ed
Ġa b
or d
Ġs o
r y
ent s
ĠTh is
c id
Ġin formation
) .
p lo
it ion
f t
Ġal so
Ġm ore
igh t
od e
y s
Ġd if
or s
c k
Ġde f
i ous
Ġ up
n d
res s
e p
Ġo ut
Ġthe y
o p
el l
Ġattack s
Ġ V
ow n
Ġo ur
en ce
Ġa ct
i p
abil ity
ul ner
Ġsu ch
c ess
Ġon e
u b
st r
i e
at es
Ġb ut
Ġd es
as t
Ġp art
ro l
or y
en er
Ġre qu
Ġs et
p ort
Ġo b
Ġpro v
Ġin ter
ri b
ac e
p ut
Ġit s
Ġp l
Ġre c
it ies
i a
g et
Ġa g
it e
Ġas s
Ġus ing
y p
Ġ ro
Ġt ime
in t
Ġ if
Ġw ork
ect ed
Ġm e
e x
Ġthe se
Ġapp l
Ġf un
a us
Ġa r
Ġm et
o k
Ġv ulner
Ġst r
Ġ ke
Ġdif fere
Ġo ver
Ġcon s
Ġan y
a v
ic t
== ==
Ġex am
) ,
ech n
Ġv al
Ġ 3
on g
Ġa ut
Ġf e
Ġwhe n
Ġn um
Ġin d
a ke
vic e
on e
Ġm ay
Ġg ener
Ġon ly
at ing
Ġpro cess
Ġ qu
id ent
Ġpro t
n ing
t t
Ġe m
Ġl i
l ud
Ġs ome
c es
m s
Ġs im
ure s
Ġus er
_ _
o se
i ed
Ġacc ess
ri v
an g
Ġint o
ut ion
ou nt
Ġg o
re d
ver y
Ġfun ct
Ġ J
Ġt w
Ġm al
Ġ2 01
Ġbe en
Ġe ach
Ġ j
Ġcomp ut
Ġtr ans
Ġdiffere nt
c om
Ġsp ec
on d
Ġt echn
j ect
i ent
Ġcont rol
Ġan al
if ic
Ġres ult
Ġk n
er t
Ġp h
pt ion
Ġyou r
ir st
ĠF or
al ly
i ble
Ġth an
ar ch
Ġthe re
Ġne ed
Ġinc lud
ar get
ter n
vic es
ag es
Ġin st
ar i
Ġh ow
Ġne w
Ġtw o
h od
Ġper form
is e
re e
Ġp r
Ġf ol
p os
ve l
Ġsystem s
ou nd
Ġw ould
Ġdis c
Ġnum ber
Ġp os
ff ic
aus e
Ġappl ication
gr am
Ġre l
iz e
lo g
Ġb ec
Ġs ec
Ġp o
Ġcl ass
Ġo per
-------- --------
ug h
Ġn o
Ġt yp
ĠI t
Ġs ign
Ġwe re
s er
Ġapp ro
Ġsu b
. ,
Ġ K
Ġmet hod
Ġd ec
Ġ 4
re at
Ġc ode
Ġad vers
Ġwhe re
e ver
Ġc y
Ġfol low
Ġt arget
Ġc ould
Ġc r
iz ation
c ed
e en
Ġab out
Ġc or
Ġre m
s s
ment s
if y
Ġun der
d u
Ġattack er
Ġf irst
Ġ ident
etw een
Ġd ist
ical ly
ro ugh
Ġthe n
Ġwe b
ain ing
ig ure
Ġp at
ire ct
Ġb etween
Ġfunct ion
d uct
Ġ 5
Ġre g
Ġpro gram
ĠS t
Ġres p
res ent
Ġex ec
f ore
at ive
Ġm ost
o g
Ġadd ress
Ġal low
Ġli ke
if ication
/ /
ul ar
Ġin v
Ġthe m
g or
ve lo
Ġexam ple
Ġ 0
ft ware
o ve
i b
Ġim p
n ce
plo it
Ġb ot
tt p
ic s
Ġt est
Ġc all
ff ect
he s
Ġ ent
: //
Ġke y
Ġprov id
l ed
Ġus ers
Ġsh ould
e ar
n el
iz ed
ow s
er m
ub l
Ġr un
Ġa v
Ġcon f
he d
i x
o log
Ġg r
Ġth rough
Ġlo c
g an
k s
Ġs ame
ic e
) (
f ul
Ġag ain
i qu
ing s
ex t
Ġp ass
8 6
Ġfor m
Ġex t
velo p
Ġm em
Ġen c
ĠA l
un d
en c
Ġp riv
ac y
Ġf ile
a w
f ter
ay s
g h
o b
Ġf il
Ġ [
Ġh ttp
Ġcomm un
t e
d e
et s
Ġin f
6 4
Ġc re
ou gh
Ġb ased
Ġsu pp
ent ial
ĠA n
Ġc ol
u es
ĠP ro
abil ities
Ġs m
Ġof f
Ġrequ ire
v ed
ot e
Ġex ploit
is h
ĠA s
Ġde velop
ĠI f
gor ith
V E
on s
if ied
ry pt
ys is
at ure
Ġso ftware
oc ol
l es
Ġc o
Ġpre v
Ġcon n
Ġpos s
ic k
Ġle ar
Ġdes ign
ĠT o
Ġadvers ar
ie w
in al
Ġre p
Ġdo es
an ge
Ġb u
lo ck
Ġto ol
Ġf r
Ġh igh
ap h
our ce
Ġwh o
Ġlo g
is s
Ġp ack
Ġagain st
ple ment
Ġpro ble
Ġp ubl
Ġm ess
em ent
1 0
Ġex p
Ġd irect
Ġs ol
Ġw ell
Ġcons id
ur ing
b ers
Ġman y
Ġser ver
Ġor gan
Ġ i
ro w
ar k
Ġcomp le
pl es
Ġm ult
Ġwh at
he n
Ġ Y
str uct
2 01
ic ious
Ġin put
ĠH ow
it s
Ġ vers
Ġh ad
in k
b ased
Ġb ack
Ġbot h
Ġim plement
Ġe ffect
Ġbec ause
w ord
ce pt
Ġ 6
Ġ âĢ
ĠC om
Ġal gorith
Ġkn ow
Ġpo int
Ġre al
ain ed
as es
Ġex per
t en
Ġl ar
Ġre port
iv en
Ġp ar
ere d
ĠF igure
Ġcy ber
plo y
p en
Ġanal ysis
Ġadversar ial
en se
i er
Ġs a
in ce
he ck
lo ad
in es
b o
ĠU n
ad e
on t
Ġprot ocol
Ġav ail
ual ly
ur re
ation al
Ġa m
v is
Ġv ari
Ġc ase
ut e
p h
il ity
ain s
in u
Ġp ol
Ġde vices
v ing
Ġf ind
Ġfollow ing
Ġse e
Ġev en
u ch
Ġst ate
Ġre se
p m
Ġresult s
__ __
Ġ 7
Ġpart ic
ĠO n
ĠHow ever
Ġin s
Ġm ake
o f
cc ess
Ġm ain
Ġvulner ability
Ġa c
in ed
Ġc ert
ĠC h
Ġp e
p r
Ġbe h
Ġtechn iqu
Ġst ud
Ġup d
Ġp ers
Ġtr a
Ġbe ing
Ġm a
Ġdes c
n ess
t ing
Ġm at
Ġh is
Ġinc re
Ġis s
Ġ 8
==== ====
t s
Ġwh ile
Ġp a
Ġmal icious
r pm
r act
ow er
Ġw ay
Ġh and
Ġ2 00
t ur
Ġl ist
Ġw r
Ġm ach
Ġcomp an
Ġval ue
Ġme as
i an
2 0
Ġle vel
Ġmal ware
Ġser vice
at or
Ġmult i
Ġavail able
Ġtr aining
I S
il ar
e f
Ġc heck
Ġsupp ort
ĠA d
ro up
Ġor der
Ġth reat
or m
Ġg et
Ġr is
Ġmem ory
it ive
pos ed
er r
Ġ et
re ad
Ġ X
Ġs ens
Ġex ist
l ine
Ġvulner abilities
ot her
y n
Ġim port
olog y
Ġm on
S S
Ġm in
Ġf ound
at ures
ĠE x
Ġa fter
enc y
us s
Ġappro ach
Ġmodel s
Ġposs ible
Ġo pt
ĠS ecurity
Ġdet ection
ĠR e
Ġsh ow
Ġman ag
Ġpro per
l ect
Ġd own
Ġpass word
g er
Ġadd ition
Ġst at
Ġp resent
ro und
urre nt
Ġs el
ate g
w ard
Ġl at
l p
il d
Ġre ad
Ġdist rib
Ġde vice
Ġb lock
ĠThe re
ri pt
al s
Ġd om
Ġre ce
and om
Ġth ose
Ġh ard
Ġg u
T he
it ed
ur ther
Ġproble m
Ġm ust
Ġe very
al u
Ġst art
Ġdet ect
y m
Ġwith out
o ple
E R
f er
v ir
are d
Ġpro duct
1 1
Ġs end
Ġacc ount
Ġwith in
a pt
Ġs am
Ġ ==
Ġre le
Ġn on
il y
Ġfil es
Ġprov ide
n s
ol d
Ġlo ok
Ġhe lp
iv es
Ġb o
ust om
Ġ est
Ġbe fore
Ġrequ est
Ġf act
Ġch ar
Ġde p
he nt
uct ure
Ġ1 9
Ġnetwork s
Ġcomm and
Ġ 9
am et
Ġcommun ication
Ġen d
Ġ very
ail s
ent ion
ĠIn tern
w w
v es
Ġj ust
ak ing
Ġo w
Ġ1 0
Ġcomput er
Ġa ble
Ġlo w
Ġ |
Ġ ver
Ġob ject
Ġpol ic
Ġpe ople
Ġact iv
ĠI P
i el
Ġst and
Ġlar ge
Ġpubl ic
Ġob ser
Ġcon c
Ġinst all
ind ows
l l
or ld
Ġev alu
Ġapplication s
Ġlear ning
Ġsu ccess
en g
c o
Ġpro posed
av i
Ġtra ffic
Ġg roup
Ġinclud ing
1 2
Ġ x
he m
Ġe as
s c
b r
as h
vir on
ĠW h
Ġh ost
ĠC VE
Ġpro b
Ġperform ance
Ġtyp e
Ġsim ilar
l ess
od es
Ġmethod s
Ġp ower
Ġspec ific
Ġ .
Ġo pen
Ġcomp on
Ġpre d
t r
A C
Ġr andom
ic ro
Ġmach ine
Ġcor re
n ot
Ġh ack
Ġdesc rib
Ġaut h
Ġl im
iel d
ro ss
Ġg iven
Ġth ree
ec un
ecun ia
inu x
Ġl ay
n et
er ing
ive ly
Ġch ang
Ġst ep
Ġc urrent
in ess
Ġalgorith m
iv id
Ġfe atures
Ġs ection
fere nce
ĠW hen
Ġe qu
Ġt e
Ġen viron
Ġf l
Ġvers ion
A T
Ġaut om
ak es
Ġbeh avi
ĠE n
Ġse ver
Ġ *
Ġpers on
Ġb r
im ate
Ġass um
Ġc ap
Ġp ort
Ġsm all
Ġs oc
Ġpar amet
Ġen g
it or
p ec
Ġsec ure
Ġimp ro
p o
Ġris k
Ġout put
t ed
al ity
Ġy ear
Ġsec ond
om et
Ġpr act
p ro
Ġpartic ular
Ġimport ant
Ġsh own
ĠThe se
Ġb us
Ġ err
im es
Ġser vices
Ġdisc uss
is ion
Ġl ong
Ġm ight
r ic
Ġcomm on
Ġt ake
Ġdet erm
Ġdat as
it ical
Ġn ame
our ces
ys ical
Ġor ig
Ġle ad
m in
Ġaut hent
er nel
ech an
---------------- ----------------
Ġexec ut
ot ential
v iew
Ġtool s
Ġs ource
ĠS er
Ġtechniqu es
t he
Ġd uring
Ġl ine
ĠH e
n ed
ing le
Ġs ur
Ġrese arch
ĠW indows
Ġacc ur
r a
b it
ial ly
Ġval ues
Ġmess age
um ent
it es
o ver
Ġs ince
Ġstand ard
Ġint e
ĠIntern et
Ġrep resent
Ġopt im
Ġmeas ure
ĠS ection
Ġin it
Ġst ill
Ġp otential
Ġm uch
st and
oc us
m it
Ġad v
it ect
Ġkn own
w ork
Ġmulti ple
Ġst ore
Ġc ustom
ur al
A N
Ġstr ateg
at a
m iss
Ġweb s
Ġc ost
Ġd em
Ġm echan
1 5
an nel
Ġw ant
ĠA pp
p or
p ect
ict im
Ġloc al
ab les
Ġar ch
Ġanal y
Ġprev ious
ent ly
ou n
00 0
Ġpa per
T P
Ġof ten
Ġan other
Ġs ingle
t o
Ġv ia
Ġrem ote
r ast
Ġsever al
I N
Ġus es
o v
l i
Ġv ar
a ult
Ġb as
du ce
p ar
ul ation
u le
A R
Ġfr ame
Ġv ictim
am es
Ġim age
Ġp ur
Ġow n
ou d
Ġob t
Ġro b
Ġcall ed
Ġt as
Ġallow s
Ġen s
Ġdep end
de b
Ġpred ict
ere st
Ġ ed
Ġd el
Ġident ify
Ġf ul
Ġf ocus
Ġb re
i ence
led ge
Ġl ab
O N
Ġint ro
ut ions
Ġp ay
Ġinv est
Ġto p
Ġcol l
ir d
it ions
Ġconsid er
Ġpriv acy
ord ing
ĠA nd
end ed
e e
l ing
Ġmechan is
ĠS o
om m
ĠT r
ul es
Ġn ow
Ġem ploy
Ġc le
Ġinclud e
on se
Ġd oc
Ġind ivid
ist ic
ffic ient
ir t
it her
Ġconn ect
Ġex pl
ro p
Ġgener al
Ġval id
Ġk ernel
ver age
an c
Ġin struct
el f
w it
e ad
is ed
Ġexec ution
Ġcompan y
x t
et y
Ġimp act
Ġsh ows
at her
Ġprovid es
a x
I T
ĠI D
Ġcomp rom
Ġd ue
Ġexam ples
ĠA P
Ġs ize
at form
Ġb l
ch ie
Ġle g
Ġn odes
ig ur
Ġenviron ment
act ion
1 6
Ġindivid ual
Ġgr aph
Ġm ed
Ġdef ense
Ġorgan ization
an k
Ġ ,
Ġexper im
Ġ Z
Ġpro f
Ġcan not
at ors
Ġ /
Ġsign ific
O S
ĠL inux
Ġbus iness
oc i
Ġch ange
Ġrun ning
it al
re t
Ġa chie
Ġproper t
Ġsc en
O R
res p
Ġtyp es
Ġcom b
Ġcert ain
Ġm ade
ang u
Ġme ans
ĠM an
1 4
ry ption
ess ion
Ġvar ious
Ġint erest
Ġunder stand
gr aph
Ġarch itect
S A
iz ations
E C
ĠâĢ ĵ
i res
Ġinte gr
Ġcon d
Ġo cc
Ġ z
Ġd id
Ġr ate
in ation
Ġp age
Ġre as
Ġdat ab
Ġch annel
Ġdom ain
r u
or ies
Ġb et
Ġattack ers
h ip
E S
or g
Ġph ysical
c l
Ġc lo
Ġ Q
Ġmanag ement
Ġv is
Ġcl ient
ac hes
Ġl ess
Ġre tur
Ġbu ild
Ġf ix
Ġs he
yn am
Ġcre ate
em pt
Ġb row
ect or
ĠC on
Ġcorre ct
Ġwhe ther
Ġp res
I D
ĠY ou
Ġsc hem
Ġcomple x
1 9
Ġ '
ĠG o
Ġresp ect
Ġsignific ant
3 2
Ġknow ledge
g est
ac ter
Ġr ight
Ġsoc ial
Ġm ark
Ġse arch
v en
Ġ== =
Ġtr ust
ĠS c
ĠT able
Ġind ic
ĠR es
h ing
Ġb en
ĠD e
Ġn ode
Ġadvers ary
i vers
Ġsp ace
Ġpat h
l er
Ġinv ol
p ose
ĠH T
Ġh um
i o
bers ecurity
ant s
Ġ2 0
Ġstud y
is hed
Ġgo od
Ġupd ate
un t
Ġfunct ions
Ġab ove
Ġch o
Ġch all
ob ile
Ġc ount
Ġd en
Ġsa id
Ġrequire d
Ġeng ine
Ġfe ature
ac he
it ing
Ġc ar
Ġc ases
ar c
r on
Ġfe w
Ġn orm
ist r
Ġqu er
ĠS ystem
Ġ ut
ri or
m ed
Ġf urther
Ġw orld
e w
Ġcont ent
1 3
g ed
s h
Ġframe work
ord s
Ġf ield
Ġf in
Ġl ink
Ġpolic y
Ġanaly z
Ġ1 2
Ġrel ated
ĠWe b
Ġb est
Ġscen ari
resp ond
Ġbehavi or
iv ed
Ġbet ter
t ic
ĠI m
ec ess
Ġro ut
I n
Ġh ig
Ġp op
C P
s ecurity
Ġe ither
Ġ es
ac es
Ġf low
ĠC P
____ ____
Ġf re
Ġdif f
Ġne xt
Ġcons ist
Ġe ar
ish ing
a ve
irt ual
Ġprot ect
du ced
og n
o graph
Ġp ost
Ġchar acter
Ġem ail
Ġconf igur
Ġrob ust
Ġl angu
ate ly
Ġte am
Ġcor respond
Ġgo ver
Ġpl atform
ĠD N
pl ay
E E
Ġim ages
ove red
Ġmess ages
f ace
Ġdatas et
us ion
Ġv iew
th ough
Ġsa f
in s
Ġlo ad
o T
Ġatt empt
ri es
Ġs ent
f o
Ġre f
is on
b ed
1 8
Ġc ent
Ġmon itor
Ġaccur acy
Ġc rypt
in c
ell ig
Ġbe l
Ġorig inal
Ġon line
Ġf ail
1 7
Ġd ynam
am p
Ġerr or
Ġe l
t ime
Ġsuccess ful
Ġt erm
at ch
Ġauthent ication
m er
Ġ $
x im
c on
Ġsm art
Ġauth or
s ecunia
Ġqu est
og le
Ġde ploy
pp ing
Ġev ent
an ces
ib ility
Ġlab el
so ft
Ġcont ext
ĠM icro
Ġvulner able
C S
Ġd ig
Ġ ide
ĠC ont
Ġgover n
ĠOn e
Ġc ause
bo x
Ġcr itical
ĠC l
Ġrec omm
Ġc red
Ġpro ject
Ġs omet
Ġass oci
Ġlo ss
Ġinvest ig
her s
Ġprovid ed
Ġtechn ology
Ġsc ript
Ġp rior
Ġexist ing
ĠThe y
Ġinter n
rast r
Ġb ound
al e
2 5
Ġlat er
ĠO ur
Ġmin im
Ġe le
g es
if ier
Ġoper ating
av a
Ġresp onse
w ays
ir c
2 00
Ġc al
ic ult
Ġaddition al
Ġse qu
Ġres ources
Ġcomple te
Ġdatab ase
2 4
e ed
Ġchang es
Ġn ecess
R L
R EF
Ġdistrib ution
he re
j or
Ġdet ails
Ġiss ue
Ġdown load
Ġhard ware
Ġstr ucture
ut ed
Ġcompon ents
is co
Ġsim ple
Ġimplement ation
Ġke ep
Ġcl oud
Ġprev ent
ĠWh ile
Ġc op
Ġl it
Ġt er
Ġs ite
Ġenc rypt
o id
Ġt ext
Ġgener ated
Ġg reat
ly ing
Ġpat tern
Ġm y
unt u
c hes
o S
Ġoper ations
Ġalgorith ms
A P
Ġsc an
Ġsam ples
Ġyear s
m an
s ing
I P
Ġper tur
Ġorgan izations
ep end
Ġsol ution
Ġpack et
ĠA tt
ĠR ed
er g
Ġconsid ered
Ġenc ryption
read y
m e
Ġc aus
ut ure
ĠW ith
Ġind ust
u c
miss ion
Ġneed s
Ġhum an
Ġimpro ve
Ġm obile
Ġpriv ate
Ġle ast
Ġiss ues
w ay
Ġtr y
al th
Ġdiff icult
ab ly
Ġlay er
ĠU S
ĠC y
ire d
Ġma jor
on str
ĠGo ogle
Ġreas on
Ġl ast
r al
5 0
Ġal ready
in ary
Ġparamet ers
Ġre pl
Ġam ount
Ġc apt
Ġdef in
Ġf ree
Ġac ross
Ġrequ ires
ĠA fter
Ġtest ing
Ġser vers
Ġcont ains
Ġad min
ĠI oT
ut h
ain t
Ġcy bersecurity
ic es
======== ========
Ġdem onstr
Ġinit ial
Ġpl ay
ab l
I C
Ġter ms
ĠIn t
r ary
Ġd ri
ĠN etwork
Ġwebs ite
Ġme an
Ġresp ons
Ġdevelop ment
Ġdoc ument
ill ion
Ġa round
Ġarchitect ure
I ON
9 0
Ġhe ad
lo c
ack ing
Ġth ough
i ver
ĠB y
Ġinst ance
Ġa ff
Ġcompan ies
Ġth us
pr ise
8 0
Ġfre qu
Ġext ract
M L
at t
it ig
Ġinf rastr
Ġass ess
Ġloc ation
Ġaddress es
ĠB ut
Ġ =
Ġpl an
Ġl a
Ġprot ection
Ġdesign ed
Ġcon struct
Ġdef ined
Ġth ird
Ġlike ly
id d
ens ive
Ġl aw
Ġocc ur
Ġprogram s
Ġeffect ive
Ġ <
Ġal ways
ol ution
Ġhig her
E T
Ġdirect ly
ellig ence
oun ter
Ġt ur
as ing
Ġf uture
Ġhe re
Ġdescrib ed
iz ing
d o
Ġcont ain
Ġens ure
Ġre t
Ġm aking
n ces
ĠMicro soft
Ġcal c
Ġpl ace
ĠS ince
ver t
M D
Ġprocess es
i ents
Ġsc ore
ition al
Ġpertur b
m ing
lo b
id ence
Ġconfigur ation
Ġcre ated
Ġclass ification
Ġrese arc
al se
Ġt imes
u pp
o ot
Ġ her
Ġm akes
Ġful l
on om
le vel
Ġv irtual
ap ter
Ġhow ever
3 0
Ġthreat s
a f
Ġst re
Ġs k
Ġwork s
er o
Ġd r
bo ok
ĠA r
E D
Ġf our
E N
er n
pp ed
Ġf ac
Ġg ame
Ġpriv ile
o od
Ġreport ed
Ġprotocol s
Ġb it
c ent
A S
Ġstr ong
ul ated
Ġpack ets
ar ing
Ġrec ogn
Ġapp ear
Ġc ard
Ġlangu age
Ġnorm al
se qu
Ġdeterm ine
p ly
ap s
Ġprob ability
e es
Ġb ug
en ces
d ay
Ġr ules
vis ories
. "
Ġam ong
f low
ĠM ore
Ġgener ate
Ġh im
Ġdef end
um p
Ġest abl
Ġvers ions
ĠA t
Ġar bit
4 8
Ġb ro
Ġ &
g in
Ġcon str
ir m
Ġd one
Ġtechniqu e
Ġdevelop ed
Ġtas k
Ġev ents
Ġcons um
Ġits elf
ens ion
Ġautom at
Ġincre ase
Ġbrow ser
ĠF urther
ĠâĢ Ķ
Ġm itig
ff er
A A
h old
ut es
Ġre view
Ġstrateg y
ro id
h at
v ant
is ing
ack s
Ġcon duct
Ġsens itive
Ġs at
Ġstr ing
Ġcheck s
Ġr ange
f for
l u
Ġconn ection
ĠS ec
em ber
ĠAl l
Ġproble ms
ĠN ote
ĠS h
( )
end s
4 0
i od
Ġgovern ment
Ġass ign
ic ated
c hed
Ġest im
Ġact ion
le t
Ġoper ation
Ġperson al
us e
iqu e
A D
Ġcon cept
Ġpoint s
Ġun t
ub untu
Ġassoci ated
Ġinst ead
* *
Ġe lect
Ġ #
ĠO S
Ġar g
Ġro ot
7 0
l ight
Ġs it
olog ies
an ced
Ġsh ort
2 2
b y
Ġf ore
Ġre d
Ġpr im
Ġus ually
Ġli br
ĠD es
Ġa verage
ĠU RL
Ġpresent ed
Ġf ire
Ġc our
s ide
Ġappl ied
in ally
Ġcle ar
ul ate
Ġdec ision
Ġm is
n e
Ġint r
Ġke ys
ĠB e
Ġma xim
for ce
Ġproduct s
Ġc irc
Ġse en
Ġinfrastr ucture
eng th
Ġsim ply
A L
Ġav oid
Ġmain t
IS T
Ġacc ording
ĠD ata
Ġtr ig
Q L
Ġexec ute
Ġatt rib
Ġt em
Ġmechanis m
ĠCom m
Ġth ink
str ict
Ġact ions
ĠHT TP
h ic
Ġdef ault
s et
Ġut il
Ġtarget ed
ce ed
Ġrequire ments
Ġse par
ĠD ef
Ġre st
Ġst e
Ġin j
ww w
Ġto t
Ġsu g
a ir
Ġcorrespond ing
ĠJ ava
Ġinclud es
Ġc ache
A M
Ġent ire
Ġbl ack
ĠO pen
Ġactiv ity
9 6
Ġpro ced
Ġreg ard
m ail
Ġbec ome
as ter
Ġadmin istr
p ri
Ġschem e
Ġappro aches
Ġcompon ent
Ġneed ed
act ions
Ġa ud
8 8
Ġconn ected
Ġf alse
s p
Ġt able
Ġdisc overed
Ġsug gest
Ġdig ital
c ing
Ġper iod
Ġsel ect
Ġen ough
Ġs em
r ation
Ġmark et
C VE
Ġab ility
Ġdet ail
Ġbe low
Ġla un
ist ics
Ġcert ific
Ġw ar
ir us
Ġk ind
Ġv end
ĠI T
Ġsol utions
Ġst ates
Ġto o
Ġaff ected
R O
Ġbel ie
oc k
Ġarbit rary
Ġident ified
Ġchall eng
Ġs ide
ĠThere fore
ĠO r
Ġqu ant
ivers ity
Ġnecess ary
w all
Ġstore d
ri ption
v al
Ġha ving
L E
Ġlim ited
Ġpartic ip
Ġha pp
o ol
Ġuse ful
Ġs us
il t
Ġ )
re en
Ġtrans fer
M S
ĠH at
Ġspec ial
Ġst or
Ġgr ad
Ġpassword s
er c
ĠH P
p art
Ġgo al
Ġg ive
Ġlim it
k n
Ġeas ily
ru pt
2 3
Ġs um
Ġexperim ent
Ġcont ract
ĠA cc
ĠS ome
Ġv ector
Ġm iss
6 0
t le
Ġpop ular
Ġv ol
al k
at h
ar ies
um ents
ĠAP I
Ġet c
ĠIn st
Ġc ounter
Ġ ve
Ġe ffor
Ġpropert ies
in ter
Ġ1 5
Ġset ting
he ad
Ġd est
Ġcon st
ĠS im
Ġb ase
Ġpro of
Ġintern al
Ġle t
a im
Ġle ak
Ġrequest s
Ġcomprom ised
Ġs wit
g ing
Ġpro m
V SS
tern al
S T
Ġs ym
Ġinter face
Ġwork ing
Ġr ather
im inal
iz es
Ġv ide
lob al
Ġsign al
Ġhttp s
ĠP l
Ġre strict
Ġne g
, "
Ġac cept
f act
if ically
Ġal ong
Ġfix ed
Ġcont inu
ĠM od
Ġf am
if i
Ġs ay
ort h
Ġw ide
ans om
Ġse em
Ġsec ret
ĠP h
yp e
Ġsit u
ĠAd d
Ġperform ed
N N
b ack
it imate
Ġactiv ities
Ġt im
Ġtr ad
Ġrel ations
Ġnum bers
i um
Ġgo ing
R E
Ġobt ain
Ġo pp
ĠTh us
Ġunt il
Ġh y
Ġprocess ing
Ġtot al
w ise
Ġexp ress
Ġother s
p ass
Ġquer y
i ate
en et
ch ing
ative ly
Ġimplement ed
Ġph one
i k
Ġpolic ies
ak en
I F
Ġsomet hing
re g
s w
l ib
Ġdistrib uted
Ġparamet er
on ym
Ġun ique
Ġwr ite
b e
Ġas k
ĠS S
ĠI I
Ġapp s
pec ially
Ġdynam ic
Ġachie ve
) :
Ġare a
ic ate
a z
Ġent er
Ġ1 00
Ġth ings
" ,
Ġc are
Ġstep s
T h
c r
M P
Ġwr it
po int
ire less
Ġw ords
Ġve hic
iv ing
Ġcomp ared
Ġ ill
Ġa im
Ġmed ia
Ġact ually
id es
Ġcustom ers
Ġp ut
m ost
Ġclass ifier
Ġcol lect
Ġcl ick
Ġencrypt ed
ĠS e
t es
Ġrespect ively
Ġcapt ure
Ġa ware
N et
ĠSer ver
ĠV ulner
Ġb inary
Ġresearc hers
S P
Ġinstruct ions
ward s
Ġsam ple
Ġsub ject
p d
ens es
Ġretur n
th ing
Ġe fficient
Ġph ase
Ġv i
vis ory
Ġlear n
Ġeas y
3 5
o pt
Ġd er
Ġ :
" .
Ġt re
Ġrece ived
Ġfollow s
2 6
Ġadv ant
Ġbas ic
ĠO nce
ic it
op e
Ġcomput ers
ĠN ot
Ġpr inc
Ġleg itimate
Ġm illion
ĠAnd roid
Ġqu ick
bed d
ĠCom put
Ġmechanis ms
9 9
Ġf ar
Ġmod e
Ġbo ok
ĠT echn
w e
Ġlow er
Ġcrypt ograph
iv ity
u z
enc ies
Ġcop y
Ġw ays
ĠDN S
Ġd ay
Ġl if
Ġscenari o
ĠAl though
Ġrec ord
Ġs ession
Ġst ack
Ġre ve
Ġvari ables
li ke
Ġa ffect
Ġadd ed
get her
ĠF irst
ĠS ecunia
il it
Ġrec ent
ĠR ec
Ġinput s
Ġ1 6
Ġmem bers
A B
in ks
ĠS ize
Ġtas ks
Ġre fer
ĠIn formation
po ol
Ġben ef
Ġevalu ate
Ġt akes
Ġauth ors
ĠThe n
Ġde ep
ĠPro t
ĠC isco
Ġl ength
Ġcall s
at er
Ġapp ly
Ġcomput ing
ag ing
Ġm ot
2 8
Ġn ames
ar ant
Ġcont in
Ġm ove
Ġaccount s
Ġh old
in ing
ication s
Ġmonitor ing
Ġtyp ically
ist s
ip her
Ġon ce
Ġdiscuss ed
Ġmeas ures
Ġo ption
Ġph ishing
Ġpre c
Ġne ver
Ġevalu ation
Ġcl aim
2 7
a pp
Ġset s
Ġform at
D P
Ġassum e
ate gor
Ġper cent
p re
Ġsur ve
n g
Ġim pl
Ġincre asing
ore d
se e
one y
Ġvari able
Ġclo se
Ġit er
an e
is es
Ġver ify
Ġs ites
Ġsh ared
ĠC VSS
Ġan t
Ġide a
Ġexploit ed
y th
I G
Ġappro pri
Ġno ise
Ġr ansom
Ġg row
Ġg ain
Ġb ig
Ġ201 8
kn own
al y
ĠIn d
Ġne ural
l ation
Ġsequ ence
Ġlo t
ĠF ace
ĠN ew
Ġact ive
Ġ201 7
Ġs ure
ĠA ss
Ġinstruct ion
Ġreg ular
Ġtr ained
Ġexp ected
Ġes pecially
por ate
and s
Ġquest ion
Ġexperim ents
Ġ ec
Ġwe ak
Ġobser v
ĠCy ber
Ġfunction ality
od y
ĠL e
ar m
s ec
Ġpropert y
id er
Ġcred ential
Ġtechn ical
iven ess
3 4
Ġstor age
ĠEn ter
ĠT CP
Ġm ention
ab led
m ain
od ing
Ġsh are
ar ily
5 5
Ġre duce
Ġinc or
Ġcont act
Ġpa ir
Ġs y
Ġ1 4
Ġcomp ar
Ġbre ak
Ġex ternal
is f
Ġrobust ness
em b
Ġbu ffer
at ic
m l
Ġact ual
S M
Ġ1 1
Ġmod ule
ac hed
Ġgener ation
Ġb i
Ġintro duced
Ġrele ase
Ġobser ved
ĠTh at
Ġfire wall
2 1
i ation
Ġfl aw
Ġcont rib
Ġcommand s
ĠSo ftware
Ġem bedd
Ġobt ained
Ġinclud ed
ĠA ct
in fo
Ġautomat ically
al ing
ĠA ut
A V
c y
Ġbec om
Ġcommun ity
Ġgu arant
I M
w h
Ġcond itions
Ġindust ry
Ġres ource
epend ent
Ġan n
ĠF ig
ĠUn ited
Ġtr ue
ĠAtt ack
m ore
Ġthere fore
ĠM et
c ript
Ġfil ter
if ies
ĠF inally
yth on
Ġz ero
Ġinstall ed
Ġh ome
Ġar tic
m et
Ġwebs ites
Ġgroup s
Ġ {
Ġc ategor
Ġpract ice
Ġcon v
Ġengine ering
Ġc ore
ĠA C
on es
Ġg lobal
Ġman ip
Ġcap abilities
n ame
Ġt ri
Ġad apt
Ġdef ine
t ings
o int
a ft
Ġ201 6
Ġreg ist
Ġt aken
Ġbro ad
lo s
Ġw ind
l ier
Ġrele vant
ac ed
Ġbu ilt
fere nces
Ġen erg
Ġto gether
Ġint elligence
3 6
pr int
Ġc ross
Ġro le
ĠS QL
ĠCont rol
Ġident ity
uz z
Ġsens or
ĠE ach
L S
Ġsaf ety
ĠMan ag
Ġmon th
Ġsaf e
g ress
Ġsat isf
Ġag ent
Ġhack ers
y le
Ġrel i
Ġlar ger
Ġh ist
Ġdirect ory
Ġpur pose
ĠFace book
ab or
Ġdom ains
Ġle ft
Ġupd ates
Ġconc er
ver se
Ġfun d
Ġtechn ologies
ĠCP U
Ġex act
m d
Ġbe gin
Ġenerg y
Ġc amp
Ġw ireless
Ġhas h
us ter
8 4
Ġdet ected
Ġexecut ed
Ġstrateg ies
ol ic
Ġinj ection
Ġdiffere nce
ri x
Ġre ach
Ġwh y
Ġm o
Ġrele ased
Ġcr aft
Ġpro pose
ust r
Ġ1 3
Ġrelations hip
res hold
Ġlevel s
Ġsk ill
ĠA S
Ġm icro
Ġappropri ate
Ġpay load
Ġdist ance
N D
m od
de f
Ġd am
mit ted
am ed
Ġp ages
up d
ĠF r
Ġscenari os
Ġpattern s
Ġw or
ification s
ĠD et
Ġdis play
7 4
ĠEn g
g o
Ġre ally
are nt
ce ption
pos es
ect ors
am s
l ated
Ġcomput ation
is m
Ġsem ant
Ġne ar
L L
Ġvide o
Ġins ide
Ġcom e
Ġpotential ly
Ġan sw
Ġpart y
u fact
b ug
Ġmach ines
Ġcontrol s
ĠN ow
8 5
r ics
deb ug
o very
Ġsel f
is ter
) ;
Ġsign ature
Ġrece ive
Ġun s
anc ial
O M
Ġcond ition
Ġfor ward
ain ts
Ġsy nt
ĠA D
Ġcour se
Ġvi ol
0 4
g round
ĠEnter prise
ch ange
w r
7 5
Ġele ments
Ġprevious ly
Ġresult ing
# #
ĠS p
2 9
Ġas pect
Ġcomplex ity
Ġf inal
en ge
ĠP C
a h
Ġback do
Ġl ight
m ar
Ġs ources
Ġlit tle
Ġo ld
a ud
le x
Ġclass es
Ġallow ed
ĠG r
Ġp ast
Ġinf lu
Ġ ess
Ġshe ll
Ġfe ed
Ġdef enses
Ġobject s
o ok
Ġresp ond
Ġris ks
ĠAn other
c ont
le ase
o ff
Ġemploy ees
Ġbeh ind
Ġchalleng es
Ġpract ices
Ġpat ch
Ġwrit ten
Ġcommunication s
Ġth reshold
P N
Ġwe ight
Ġoptim ization
Ġhe alth
Ġlibr ary
Ġoff ic
ify ing
Ġw ord
Ġ201 9
________ ________
ing u
a ign
Ġde g
Ġform al
Ġf irm
Ġs n
Ġconnect ions
ous ly
Ġver ification
im in
Ġcomp il
un ct
Ġrem o
Ġex plo
Ġsim pl
ad visories
Ġj ob
ĠH ere
Ġon es
or ing
Ġan om
Ġen able
Ġb ank
ĠSystem s
ĠS P
Ġr ule
ĠSer vice
Ġl inks
ĠU sing
Ġoptim al
Ġsp eed
Ġintegr ity
ul l
el ine
D oS
du ces
Ġ u
a a
Ġm oney
Ġstat ic
Ġt ag
Ġexploit s
uth or
ĠUn iversity
Ġpos itive
Ġdatas ets
ap e
Ġtr ack
ĠV M
u ary
Ġal ert
c ode
Ġlay ers
5 86
Ġdefin ition
Ġill ustr
Ġb its
Ġadvant age
Ġear ly
Ġd on
ĠF rom
7 9
Ġsu per
Ġsub st
c ert
ĠCom p
Ġcomprom ise
Ġal most
ĠSt ates
Ġc ur
Ġbuild ing
Ġline ar
ĠG P
Ġanalyz e
n a
ec ause
x y
Ġset tings
Ġr ad
Ġser ies
Ġlong er
Ġcredential s
Ġal loc
ot s
t op
iv al
Ġupd ated
Ġto k
Ġar t
Ġassess ment
U T
ĠA g
ar s
Ġlog ic
el s
-------------------------------- --------------------------------
Ġsignificant ly
Ġ201 5
Ġsens ors
in a
Ġwind ow
ident ial
ĠK e
Ġde le
Ġdevelop ers
Ġhigh ly
ing er
Ġdescrib e
Ġnot e
Ġsp o
Ġtarget s
Ġpredict ion
Ġent ry
Ġpubl ished
O C
Ġcho ose
Ġunderstand ing
red hat
Ġt ell
Ġinter act
Ġcl ients
ĠS pec
Ġquer ies
ĠI CS
Ġinvol ved
Ġp enet
Ġexper ience
ch ain
Ġcomp et
Ġup on
Ġf ive
el ves
av es
Ġcamp aign
Ġlook ing
Ġransom ware
d is
ĠAcc ording
Ġover all
ect ions
s ers
3 3
un e
ol l
Ġd i
7 6
ĠN o
em ents
Ġn at
t on
Ġsel ected
ĠO ther
ifi ers
Ġo p
Ġad opt
idd en
Ġchannel s
ĠA m
Ġrec on
Ġcle an
Ġful ly
Ġreport s
Ġconf igure
Ġsend s
ĠMore over
il i
âĢ Ķ
duct ion
Ġstud ies
ro j
Ġtrig ger
r c
Ġmaxim um
Ġ2 5
W e
V M
Ġsuccessful ly
ĠR ep
ĠS C
Ġac qu
il es
Ġ201 4
Ġprovid ing
Ġ1 8
at ory
Ġby tes
Ġtrad itional
n ow
Ġsu fficient
wit ter
Ġquest ions
Ġl ines
U S
Ġev idence
ed er
Th is
um e
Ġinterest ing
Ġ3 0
ĠE u
Ġlo ck
as k
o per
Ġtrust ed
o le
ib ly
ri al
Ġchall enge
Ġsus p
ĠâĢ ĺ
Ġexp ect
c le
o ber
Ġen force
Ġh our
Ġproper ly
Ġy et
I L
ud e
7 8
Ġcontrol ler
ers on
Ġden ial
Ġdo ing
Ġout side
ĠD ec
it er
Ġbo x
er ial
Ġqu ality
ous e
ĠB r
ĠAl so
Ġconstr aints
Ġf ault
end ing
Ġmention ed
Ġse g
ĠC ent
O P
ĠL i
Ġup gr
Ġconst ant
C C
Ġfrequ ency
ĠI N
Ġtr ain
00 00
ex e
Ġcom es
l ack
Ġsym b
Ġrec ords
Ġfin ancial
Ġit em
Ġlit er
Ġare as
Ġcertific ate
Ġear lier
v ious
Ġprivile ges
mer ic
Ġd ate
Ġsp e
Ġman ufact
Ġpos ition
ĠWh at
Ġd ays
6 6
Ġ201 3
ul ations
Ġwho le
Ġcustom er
Ġc ell
res ents
Ġp i
9 5
Ġcre ating
Ġallow ing
Ġprof ession
Ġen h
Ġreve al
4 4
Ġl ack
Ġf ace
Ġquick ly
miss ions
Ġconsist s
Ġmat rix
Ġspo of
Ġthe ore
Ġ5 0
Ġtur n
Ġhapp en
Ġess ential
ĠL et
Ġlo op
Ġf ake
d d
Ġag ents
Ġgr id
al f
du cing
d own
Ġcomp os
Ġstr uct
Ġg ives
Ġrep resents
Ġinter net
Ġpo ison
Ġal tern
ĠB ecause
is ions
Ġsend ing
Ġtrans form
Ġcont aining
art ment
ĠF ire
Ġgener ally
Ġstart ed
Ġpr int
Ġinc ident
Ġwe e
i i
Ġn ature
ubl ic
---------------------------------------------------------------- ----
Ġcoll ected
ard s
ĠApp le
Ġdetail ed
Ġprot ected
os en
ort un
Ġvend or
ag ed
ri e
Ġcr iminal
Ġplatform s
ĠTr ans
ĠFurther more
n o
Ġ201 0
Ġperturb ation
Ġim med
c ast
ĠA meric
ĠA T
Ġerr ors
u ed
cl ass
n ers
r ay
Ġover head
Ġwh ose
ĠM ost
Ġindividual s
Ġc ipher
Ġeffect iveness
Ġatt ention
e an
Ġpack age
Ġgrad ient
ĠP re
ĠP riv
Ġcent ral
Ġcl uster
Ġtrans action
Ġch ain
Ġlif e
Ġgu id
7 7
Ġsome one
. )
u it
ĠR em
Ġvari ety
Ġsc reen
ĠG ener
Ġsign als
ĠMan y
av ing
er ous
am er
ĠCh apter
Ġautom ated
ĠO b
ĠC r
Ġcurrent ly
Ġb ad
Ġintro duce
ph p
a ff
Ġover flow
Ġhand le
Ġblock s
Ġthe ms
i ency
ĠA I
Ġpract ical
Ġ8 0
Ġthems elves
Ġdoc uments
9 8
Ġprogram ming
Ġsh aring
il ities
ion al
yn ch
Ġm ag
Ġpat ches
Ġby pass
Ġhack ing
Ġdec re
Ġassign ed
T S
Ġme et
ĠS M
Ġt aking
S t
r ight
Ġpres ence
Ġan onym
e arch
v ent
ĠS ub
Ġthe ory
Ġchecks um
Ġinf ected
Ġoff er
g reg
I A
Ġd riv
Ġde v
Ġcryptograph ic
Ġint ended
Ġschem es
ip s
3 8
Ġrecomm end
Ġde al
Ġ201 2
Ġre ference
Ġcount ries
o h
Ġmet rics
ĠCP S
Ġbecom es
Ġincre ases
Ġdel ay
Ġbre ach
p s
ĠP art
t ext
t y
Ġcon sequ
Ġf igure
Ġth ing
Ġcol um
igh b
od ed
h t
re me
ffic e
Ġcaus ed
Ġst op
Ġdeploy ed
Ġmean ing
ĠN ational
ot h
EE E
G P
Ġph ot
ĠT witter
u x
3 86
Ġspec ified
Ġsc ale
Ġpro duce
p ag
ĠSt r
Ġnew s
ĠE ven
ĠEu rop
Ġclo s
Ġ ====
u ck
debug info
Ġeffor t
im ension
Ġpart ies
Ġopt ions
Ġ >
R P
Ġpart s
Ġs ense
Ġhack er
Ġfact ors
ynch ron
Ġmeasure ments
Ġpack ages
Ġ q
Ġ201 1
ĠSim ilar
Ġstandard s
Ġvalid ation
Ġwr iting
Ġun a
ĠF e
S cript
Ġro und
Ġcoll ection
Ġ1 7
Ġattempt s
Ġadd ing
Ġfollow ed
Ġad vert
ac le
deb ian
Ġsupport ed
Ġcontin ue
if f
Ġcomm it
A s
act ers
Ġbackdo or
Ġpenet ration
Ġbelie ve
Ġartic le
ĠU pd
Ġcon ver
Ġhost s
Ġco ver
Ġus age
Ġsp am
Ġlat est
Ġspec ifically
Ġdemonstr ate
Ġpi ec
Ġvis ual
4 5
p ack
Ġsepar ate
ĠApp l
Ġe ffic
ill a
or n
Ġinst ances
ER T
Ġec onom
ress ion
Ġsp read
Ġdeg ree
Ġ200 9
E M
Ġwh ite
Ġli b
ĠComput er
L C
Ġequ ival
Ġab str
os s
Ġcr ash
ay er
Ġqu ite
Ġparticip ants
Ġtrans actions
Ġobser ve
Ġdri ver
Ġind ex
Ġs low
ĠS m
Ġexpl icit
Ġtry ing
Ġexist s
Ġst age
ust ed
Ġincre ased
it ute
Ġloc ations
Ġsmall er
id th
Ġprinc i
ĠN e
Ġproced ure
Ġcorrect ly
Ġin ference
Ġ200 8
Ġexploit ation
ist ing
Ġcraft ed
Ġw ww
Ġto day
Ġs l
sc rib
Ġintr usion
I I
Ġperturb ations
w orld
Ġind ependent
Ġf lo
re ct
Ġrespons ible
Ġfr aud
k y
Ġchar acters
ĠI EEE
R C
Ġhy per
ĠP er
ĠM L
a res
Ġmod ified
Ġtrans mission
ĠI C
ĠHT ML
ĠD is
ition ally
part y
ĠR uss
Ġv irus
ad d
Ġsitu ation
Ġre ly
Ġprim ary
Ġin ject
g u
olog ical
le ar
Ġt ree
Ġcompar ison
Ġcomplete ly
ur ance
Ġcont rast
Ġh idden
t ical
Ġis ol
3 7
ict ion
Ġf inger
Ġw a
Ġcomb ination
ph one
Ġrep e
Ġadv anced
for t
m a
imate ly
Ġch osen
Ġcharacter istics
Ġal though
Ġ +
ĠC ustom
6 5
Ġfind ing
Ġd rop
vis ed
Ġcho ice
an y
ac ing
Ġdri ve
Ġfail ure
con f
ĠM al
ĠRe g
ĠS uch
Ġa ir
Ġother wise
al ysis
6 8
ĠT e
Ġmat erial
as p
Ġrun s
3 1
Ġeffect ively
Ġel se
Ġbo ot
Ġr ates
re n
Ġem ails
re te
D F
Ġb and
O T
Ġn amed
ĠC S
Ġf ri
ĠS u
ĠI S
Ġsim ulation
Ġb al
Ġm ail
ĠW ork
Ġvictim s
Ġ20 20
Ġbas is
ĠVulner ability
ĠRes earch
Ġsub sequ
i j
Ġperform ing
fo x
Ġchang ed
Ġres ol
Ġp ress
Ġs ound
ĠF l
upd ates
ens ions
Ġcomp are
ent al
Ġag greg
p ir
in ct
p c
Ġch apter
Ġdisc los
Ġab s
Ġmeasure ment
Ġex c
3 9
Ġmod ify
Ġmaint ain
id ents
Ġpur poses
u ly
Ġsurve y
al le
Ġleg al
pect ive
ĠD DoS
Ġlog s
us c
us h
ke y
if t
Ġcomput e
ĠP a
Ġdefend er
Ġnat ural
Ġun d
Ġhead er
Ġestabl ished
Ġeffect s
bo ard
Ġtr ace
Ġa way
Ġg ot
roj an
h ttp
ĠD o
us ed
Ġrem ain
Ġdist ingu
Ġele ment
Ġun known
Ġret rie
Ġcost s
Ġwide ly
Ġmod ern
ag r
Ġindic ates
ĠC ons
Ġ3 2
Ġcomm erc
Ġlog in
Ġen ables
Ġeas ier
Ġut ility
Ġin form
p act
Ġopp ortun
ron ic
Ġstart ing
Ġne ighb
idd le
ol s
ĠB ob
Ġcategor ies
Ġstat us
Ġenviron ments
it ors
Ġdr aw
Ġth read
H E
h ib
Ġliter ature
Ġt alk
re lated
Ġproced ures
y ond
Ġcomput ational
Ġembedd ed
Ġstre am
Ġcap ability
Ġf ast
1 00
Ġreg ister
ĠT or
upp ort
k top
Ġswit ch
Ġto wards
Ġaspect s
Ġco ord
ateg ory
re am
Ġobject ive
ĠA ccess
Ġneg ative
Ġcommon ly
el i
Ġd ed
Ġdepend s
Ġdam age
P ro
P R
Ġrepresent ation
Ġhigh light
Ġlead ing
AT ION
Ġgreat er
ĠV PN
Ġsomet imes
Ġregard ing
id ed
Ġman ner
** **
Ġunder lying
Ġs ort
Ġc ou
Ġes c
Ġprob ably
Ġm ap
w here
yp ot
Ġcomp l
Ġpath s
Ġvehic le
Ġspec ification
ĠO ver
Ġext reme
Ġtest s
Ġtem por
Ġprovid er
on est
s elf
Ġmot iv
6 9
Ġattrib utes
ĠQ u
Ġto ok
it ude
Ġdest ination
i or
Ġfact or
Ġtr acking
Ġdis k
it able
Ġrec ently
Ġed ge
Ġad j
Ġex change
ĠInt el
Ġed uc
Ġpo inter
Ġf all
Ġext ension
p ite
ĠM ay
Ġins ert
Ġaware ness
Ġfor ce
ĠD ep
Ġcor porate
Ġinter action
Ġm ind
Ġexper ts
Ġrecomm ended
Ġpl ug
O L
ir ing
Ġpro ve
Ġrel atively
md v
en e
f usc
me as
pro cess
ĠO per
Ġrecogn ition
ĠIn c
ra ft
Ġsub s
ĠN IST
Ġget ting
ĠManag ement
Ġg e
Ġfl ag
Ġex cept
Ġd ou
Ġsc al
an ch
Ġport s
ĠC or
ĠJava Script
Ġrout ing
l ist
le g
Ġass ets
ĠIn ter
Ġi P
Ġfield s
Ġ2 4
br id
Ġr a
Ġconf idential
s ive
Ġcar ri
E P
ĠG u
pt h
Ġl ic
Ġag re
Ġmodel ing
d om
Ġdepend ing
m p
ĠSec ond
Ġch ild
Ġparticular ly
Ġsc hed
ĠN ext
Ġinc om
he st
Ġv ectors
Ġpro pag
ĠB it
a i
Ġde bug
ĠS A
Ġc amer
ilit ary
ĠAP T
s ource
Ġcred it
Ġminim um
Ġrem ove
Ġdetect ing
Ġinvestig ation
Ġblock chain
c ome
ĠM ult
t ers
ĠD oS
Ġprovid ers
ĠS T
o y
Ġexecut able
Ġlabel s
s pec
Ġper mission
Ġup load
Ġreg ion
Ġant i
ĠDN N
ĠS D
Ġmod ules
Ġfinger print
Ġs ays
ht ml
Ġfore ns
Ġrandom ly
eder al
Ġassum ption
Ġcommerc ial
ful ly
Ġident ification
Ġhist ory
ĠM S
l and
m ark
Ġsol ve
Ġco ok
c ription
Ġlist ed
Ġhour s
ĠProt ocol
Ġconduct ed
Ġposs ibly
N IST
Ġeffic iency
Ġ rol
OR Y
lo t
Ġidentify ing
Ġstat ement
Ġsign atures
ĠComm un
al i
st yle
m ap
Ġdec isions
ch ool
ĠIm pact
Ġno vel
ĠH ence
d b
Ġbel ong
Ġorig in
Ġachie ved
Ġfam ily
o ice
ĠEx am
Ġchang ing
U N
o z
Ġlaun ch
Ġloc ated
f ect
Ġv ary
Ġshow ed
ure r
pt ions
Ġass ist
Ġman age
Ġprof ile
Ġpass ed
Ġen abled
Ġun it
Ġ 64
3 90
Ġstre ng
Ġback ground
Ġb an
Ġact ors
ot es
Ġbug s
Ġcont ents
Ġm ass
Ġfocus ed
Ġreas ons
ĠJ an
Ġskill s
Ġread ing
ĠP r
ĠAl gorith
Ġansw er
Ġs ix
Ġdec rypt
d f
9 4
et ch
Ġeffor ts
Ġset up
ĠC O
Ġcont ained
Ġcoll abor
Ġhand ling
Ġtim ing
ĠCh ina
Ġf uzz
Ġdirect ion
Ġper missions
Ġinflu ence
Ġmat ch
H A
Ġem erg
Ġcount ry
Ġany thing
Ġben ign
Ġh alf
Ġappear s
Ġappro x
ĠL ab
ĠA v
ĠP ython
Ġs al
Ġconf idence
ĠE d
Ġte le
Ġoutput s
Ġres il
201 4
Ġoper ator
================ ================
uthor ized
Ġso ph
Ġe ver
ĠIntern ational
Ġpur ch
Ġimpro ved
er y
Ġpro xy
i ately
Ġinvol ves
ul let
R e
ers ion
Ġtest ed
Ġexact ly
m on
Ġcar ry
ĠD irect
ĠA re
Ġser ious
he ll
Ġsc ope
Ġestabl ish
ĠC o
Ġseg ment
Ġn ational
ot ed
Ġoff ers
Ġm ut
Ġmajor ity
ĠO ct
Ġex pos
8 3
Ġequ al
IN G
Ġapp lying
Ġdesc ription
Ġvend ors
Ġmanag er
ĠEng ine
Ġcan d
ac cess
Ġperform s
Ġfirm ware
Ġdist inct
Ġgu ess
ĠN et
Ġadversar ies
ĠB ased
ĠSt ep
ĠID S
scrib e
act ive
ri ef
Ġg round
ĠI s
w idth
Ġsel ection
Ġro w
7 2
201 7
b a
Ġm ix
co in
unct ion
Ġconfigure d
Ġcheck ing
Ġexper t
Ġavail ability
f aces
Ġent ities
Ġstat ist
F or
Ġappl ic
pl ing
Ġenter prise
Ġwr ong
Ġoffic ial
Ġpublic ly
ip ment
ad ing
at ives
VE R
Ġanalyz ed
Ġcalc ulated
0 5
B M
f ile
Ġtrans mit
Ġimmed iately
Ġretur ns
m ary
Ġoper ational
our n
T ION
ĠCon f
Ġsupport s
c all
b ound
G D
Ġst o
Ġtr aces
ru ption
Ġcomp li
id ing
Ġmet ric
Ġtrig g
ĠD uring
h ood
Ġmonth s
n cy
7 3
4 6
Ġl ed
F F
ĠI d
pp c
Ġinstall ation
Ġdem and
Ġcand id
ĠM ark
s rc
Ġclass ified
Ġpers pective
Ġcommun icate
Ġhelp s
C R
ĠA ND
f ree
Ġdel i
Ġenforce ment
ĠG iven
Ġdisc over
Ġcomb ined
Ġdec l
Ġbe yond
Ġtok en
ĠR F
ĠS EC
Ġp ix
o o
Ġlear ned
Ġ %
Ġext ended
l ers
Ġcontrol led
Ġindic ate
Ġlangu ages
ĠC IF
ul ating
Ġtyp ical
Ġcertific ates
B S
Ġcap ac
Ġr ank
Ġrecomm ends
Ġmitig ation
Ġsched ul
ĠE X
Ġlist s
Ġb ody
Ġfunction al
Ġclass ifiers
AC K
ĠUpd ate
Ġwee k
V IS
ĠTechn ology
Ġnot ice
ĠMod el
Ġre verse
ĠI V
Ġf it
I t
ĠS y
q l
ĠM arch
l it
Ġtr ade
oun ced
ĠAl ice
ĠC IS
Ġcyber cr
emb ly
Ġgo als
ĠAdd itionally
Ġs light
âĢ ĵ
ĠInst ead
Ġg ate
Ġma pping
it ives
p age
Ġd ro
Ġm ilitary
Ġestim ation
Ġaddress ed
ĠAlgorith m
alle l
Ġor d
Ġanal yst
Ġprocess or
w ide
Ġdeploy ment
y ing
y e
Ġoper ators
ĠM ed
ad es
l ict
Ġfind ings
ic ity
ĠDep artment
Ġle ver
Ġest imate
ĠB ack
H P
Ġ4 0
Ġright s
8 9
Ġdemonstr ated
Ġcap able
Ġtre nd
Ġfr ont
Ġmem ber
Ġoccur s
Ġrepresent ed
Ġconsid ering
ĠE C
Ġemploy ee
AB LE
ĠII I
ĠW i
Ġlead s
Ġconc lud
ĠAD VIS
or der
Ġanom aly
el ines
O D
Ġaccur ate
h a
ĠS ym
Ġimport ance
I R
Ġdeterm ined
ĠO ut
A G
Ġl and
Ġinc idents
Ġpower ful
wh ich
ĠA b
Ġmed ical
Ġmitig ate
Ġincor rect
Ġw orth
ĠADVIS ORY
Ġg ames
is ation
Ġprec ise
Ġinter p
Ġgener ating
ĠA pr
Ġg ets
o x
Ġconcer ns
Ġhe nce
Ġg ather
Ġpres er
Ġin n
ĠM AC
Ġb ar
Ġdiffere nces
ist rib
ĠDes cription
ĠM ac
Ġteam s
Ġspec ify
Ġfeed back
Ġattack ing
Ġgr ant
Ġindust rial
Ġvehic les
Ġ{ \
Ġdef ensive
Ġh onest
um er
Ġp ict
istic ated
Ġf air
Ġstruct ures
om en
Ġaccess ible
Ġsemant ics
Ġstud ents
Ġaccess ed
ĠL og
Ġseem s
Ġinit i
Ġ200 7
Ġevalu ated
ĠCIF AR
Ġwhere as
Ġc ategory
Ġob vious
Ġremo ved
en u
ĠUn der
Ġob fusc
ĠSpec ifically
is k
ĠA ug
att ack
d ata
ĠA V
Ġscan ning
Ġreport ing
Ġmat ter
u ge
Ġcomp re
ach ine
Ġst aff
F i
Ġfor ms
Ġask ed
un g
Ġevery thing
Ġthough t
Ġpres ents
Ġcounter meas
Ġd ang
Ġcorre lation
Ġstud ied
Ġman ually
r ing
Ġfe el
os ed
Ġbegin ning
Ġad visory
pos s
Ġdevelop ing
Ġintegr ated
Ġitem s
Ġpay ment
ĠM in
Ġmin utes
Ġre n
ĠPro cess
Ġrout er
Ġform er
B I
U I
Ġdes ired
Ġpre p
ĠOct ober
Ġsign ed
Ġvol ume
201 5
201 9
T C
E x
Ġoper ate
Ġimplement ations
ab ling
Ġbec ame
en ing
ĠC an
Ġbr ing
ĠP o
Ġdiscuss ion
Ġproduct ion
Ġlibr aries
ĠCl oud
ĠE m
Ġbr anch
Ġc ame
Ġattrib ute
ĠCent er
201 6
Ġflow s
Ġattack ed
Ġpro duced
-------- ----
Ġadministr ator
def ined
201 8
ĠC R
Ġ ign
ĠC W
ĠT est
Ġcre ates
Ġpoison ing
Ġth ous
T L
u ff
Ġrec over
Ġr at
Ġbenef it
Ġband width
Ġcolum n
Ġbehavi our
Ġb rief
Ġpo ly
al id
Ġrespons es
E L
0 6
l a
201 3
Ġfac ilit
ĠPro gram
Ġn et
Ġref lect
Ġnot ed
dis play
ure d
Ġarg ument
Ġequival ent
ap id
p ace
ĠU ser
Ġexplo re
re ens
P C
Ġrun time
Ġhig hest
Ġaltern ative
Ġow ner
Ġany one
ĠL oc
Ġent ries
Ġrece iver
ĠApr il
Ġuna uthorized
Ġrec overy
Ġs ell
Ġs ynchron
Ġext ra
Ġrem ains
c f
ĠP ack
ul ator
Ġins ight
Ġclos ed
Ġcoord in
ĠC ol
ch ang
Ġinvol ve
Ġfrequ ently
g i
Ġanalyz ing
Ġf lex
vis ion
Ġent ity
Ġform ul
Ġsecond s
oot h
Ġsoph isticated
Ġf aster
p at
Ġkeep ing
ĠP ower
Ġcent er
Ġproject s
ourn al
ĠS ever
ĠS et
Ġcon vers
em ic
Ġex ception
Ġro om
Ġtrans ition
velo per
Ġlaw s
ĠDef ense
ĠSS L
Ġequ ipment
Ġconcept s
5 6
Ġrequire ment
ĠM on
ĠE v
s uch
Ġcontinu ous
Ġtarget ing
ĠJan uary
Ġn or
Ġdescrib es
end ix
Ġprinc ip
Ġpar allel
pos ition
Ġred irect
ol en
ĠCy bersecurity
Ġgraph s
Ġf ine
en ced
Ġscript s
s ite
9 7
Ġt ax
Ġcompre hen
Ġcr iter
Ġacc om
Ġthrough out
6 86
cont rol
ar ge
Ġmethod ology
con n
ĠV irtual
Ġ 00
ĠJ uly
Ġassum ptions
h ost
a ut
ĠRep ort
Ġben ch
ĠAn alysis
4 3
ĠKe y
ser ver
ĠJ une
Ġstatist ical
0 8
Ġbe gan
ud get
E G
Ġcirc uit
Ġst ated
ĠG roup
Ġar ray
Ġfund am
Ġ upp
Ġstr ings
ĠSe pt
ĠTh reat
rop y
w ith
ention al
ast ic
k it
ĠJ oh
e qu
Ġb log
Ġm ar
C ERT
Ġtr ick
Ġcaus es
Ġt end
ĠSec ure
w o
Ġm om
fort un
Ġre v
Ġmeasure d
Ġsupp ly
Ġco verage
Ġsc ience
Ġsc ient
Ġtrans port
b in
ĠBe fore
Ġbenef its
ĠAd vers
Ġiss ued
f ix
p e
Ġlaun ched
Ġstart s
Ġaut onom
ĠO R
Ġper fect
ĠM y
ĠAd visory
ign ed
ist ent
Ġsub set
Ġfe as
el er
Ġsum mar
ĠO f
Ġinterest ed
Ġarchitect ures
Ġann ounced
Ġguarant ee
g ov
AA AA
Ġstore s
Ġre duced
Ġst ory
Ġph ys
Ġs ector
Ġexpl ained
e v
Ġon to
ĠDe ep
T r
Ġbusiness es
ĠB oth
ĠH ack
ier arch
Ġbehavi ors
ĠAn y
0 2
Ġl ive
Ġev ol
ĠC ode
Ġman ual
Ġel imin
Ġterm in
Ġinst ant
Ġenh ance
at s
el t
Ġval u
Ġrel ation
Ġy ield
B C
as ion
at ter
ĠL ear
Ġsitu ations
Ġdatab ases
Ġj ump
5 4
Ġsend er
-- -
ceed ings
Ġ ult
hes is
5 3
T R
us iness
Ġd iver
ot ing
Ġconf ir
Ġj o
G SM
ult ane
f e
ĠC ar
M I
ĠId ent
U C
m ers
Ġt reat
Ġupgr ade
Ġmanag ed
af e
Ġst olen
ĠE lect
Ġcirc um
met ric
ĠSept ember
L O
on y
Ġpl aced
Ġemploy ed
Ġmain ly
f r
Ġcapac ity
## ##
ĠAug ust
op s
Ġins p
Ġexecut ing
Ġsubsequ ent
em ble
Ġinvestig ate
Ġsp lit
ap ers
Ġnot hing
ar ial
display style
Ġder ived
l s
Ġelect ronic
Ġso on
Ġsur face
hem at
Ġminim ize
Ġextract ed
f il
ĠC al
ĠR SA
Ġextreme ly
und red
Ġload ed
h aps
Ġown ers
Ġdec e
l im
go ing
p y
Ġobserv ation
Ġs qu
b ody
Ġsec re
Ġby te
Ġto ld
ĠW orld
Ġpro gress
Ġle ave
ĠM c
Ġun cert
ĠT rojan
Ġrel ative
Ġb in
ĠD ig
Ġcre ation
Ġrem aining
ĠThe ore
7 1
Ġsc reens
as on
Ġgener ates
U D
Ġretur ned
Ġs ections
t om
R F
Ġquant um
Ġlimit ations
ĠAre a
Ġconf lict
pro duct
ĠIm age
ĠW here
Ġs w
op en
ur s
Ġinst it
Ġ â
ĠMult i
ĠB u
Ġexpl ain
m y
Ġc odes
U L
Ġw ater
Ġweak ness
P A
Ġinterp ret
ĠNetwork s
Ġcomput ed
Ġb udget
Ġrec ip
Ġsu itable
ĠSimilar ly
Ġrefer red
Ġlar gest
Ġcor rupt
x x
fortun ately
Ġhe av
Ġprivile ge
Ġlat ter
ĠC rypt
se ud
Ġt un
Ġnot ion
Ġli k
D e
Ġle verage
% )
Ġatt ach
ĠEurop ean
b re
Ġdistingu ish
ive red
Ġposs ibility
c or
ĠD ES
anc y
ĠCon ference
Ġback up
Ġupp er
Ġ ]
Ġrece iving
ĠM NIST
Ġexper i
Ġ ir
Ġgo es
Ġoff ice
Ġcompli ance
Ġp ip
oz illa
Ġ2 1
Ġc ult
Ġrel ies
Ġinter faces
Ġinter actions
Ġh it
Ġclear ly
Ġspoof ing
8 7
Ġgener ator
ec ure
ĠCustom er
Ġrece ives
Ġscore s
Ġlook s
Ġp ick
Ġsim ultane
Ġshow ing
Ġbre aches
5 1
Ġconsist ent
od er
ĠO ffice
ĠF ile
ĠSt and
9 3
Ġsp ect
ĠEx ploit
Ġd imension
ser vice
ĠD ue
ĠA R
Ġed ges
Ġh ypot
Ġrecon struct
ĠT LS
Ġprom pt
Ġpiec e
de vel
Ġr apid
Ġd ivid
Ġdetect or
Ġenc our
Ġstreng th
Ġbrow sers
Ġh undred
l ig
ĠB lack
if orm
ĠAd v
Ġex erc
Ġun its
ĠD r
n y
Ġp arent
IT Y
Ġintern ational
Ġassum ed
ĠOr gan
201 0
Ġdel ivered
Ġbas eline
Ġlo st
Ġpart ition
Ġslight ly
in st
g y
Ġde veloper
Ġag encies
Ġreveal ed
ac ement
ĠS ch
h ot
C E
Ġdisclos ure
lud ing
ĠInd ust
20 20
spec ific
Ġcho os
Ġh arm
Ġcontract s
U s
att acks
4 2
Ġlog ical
Ġexperiment al
ĠPriv acy
Ġsusp icious
Ġ ur
Ġmo ving
Ġex posed
Ġinf er
ail y
F S
Ġremote ly
Ġhy brid
8 1
poss ible
Ġun ivers
Ġmanufact urer
Ġvari ants
Ġtrans formation
n orm
Ġwork ed
ĠDef in
201 1
b u
Ġabstr act
Ġwar ning
re qu
Ġconsum ption
Ġkn ows
ĠP ar
ĠDet ection
Ġste al
C l
ĠC NN
ad ow
Ġt act
Ġconstruct ion
' ,
Ġcol or
ĠS ource
Ġc he
Ġet h
Ġs chool
Ġm ill
ex p
Ġapp e
ĠG erm
Ġconfigur ations
Ġplan ning
ĠAppl ication
ĠDec ember
Ġflaw s
Ġinter cept
ĠPro duct
Ġhapp ens
m al
c a
s ub
Ġsh all
Ġlink ed
d ll
Ġr ang
0 3
Ġnear ly
Ġbot net
Ġaim s
Ġun tr
Ġfilter ing
Ġrepe ated
ĠD LL
t ics
Ġcard s
Ġexp and
Ġevent ually
ĠS ol
ĠU N
Ġdel iver
Ġ id
Ġnetwork ing
Ġmin ing
Ġreli able
Ġv oice
ĠSer vices
9 2
ĠP e
Ġbroad cast
av ig
Ġpr ice
Ġmat ching
m ber
Ġc lock
ĠS Y
ck now
Ġuser name
Ġkind s
Ġc ut
here nt
br uary
Ġw on
ĠM achine
Ġm er
ĠP RO
Ġrad io
oc ial
ĠComm on
Ġun like
c are
Ġdownload ed
Ġhold s
i pped
Ġlat ency
ĠU se
ic ks
Ġexplicit ly
Ġexploit ing
Ġad visories
re c
Ġ2 2
ĠAmeric an
ĠC A
ĠO F
ĠSever al
Ġestim ated
5 8
out h
ĠP ort
ĠK ali
end er
AD A
ĠW ar
Ġh ierarch
Ġcomprehen sive
v est
Ġmiss ing
j ection
Ġser ve
Ġf ill
Ġco oper
im al
Ġconf irm
Ġdisc overy
Ġre duction
ove mber
op h
urre ncy
ific ial
Ġtur ned
Ġbut ton
Ġtw e
ĠV ersion
ĠU p
201 2
et er
ĠE qu
aint ext
U R
Ġcarri ed
Ġt it
ĠFire fox
Ġconstr aint
d it
ĠS he
Ġsa ve
Ġt en
Ġintegr ation
S N
Ġref ers
Ġstat istics
us er
r ate
Ġg iving
ou nce
Ġrat io
Ġguarant ees
ill ance
ĠUS B
Ġre put
ĠPro ceedings
Ġ200 0
Ġsequ ences
Ġem pir
ol low
Ġt err
p ower
az on
re r
Ġatt ached
9 1
Ġpro pos
Ġded icated
Ġch ance
Ġim possible
ĠM IT
ĠAut hent
Ġobserv ations
ĠAtt acks
Ġpop ulation
Ġreli ability
um b
Ġcaus ing
ĠV er
I X
Ġanom al
Ġthe ft
Ġ il
d a
Ġb illion
Ġnecess arily
ĠA nt
ĠM e
Ġsemant ic
Ġconc ern
Ġnum erous
4 7
Ġcapture d
it ative
ĠN ovember
Ġvalu able
Ġatt ract
ple te
Ġfin ite
Ġexist ence
ĠC D
Ġ2 6
Ġvari ant
ĠTheore m
Ġprofession als
ines e
Ġ2 3
Ġp seud
Ġexpos ure
Ġgener ic
ĠD at
Ġcomp at
Ġrelationship s
ĠB l
Ġimplement ing
Ġs aw
Ġres ist
fere nt
Ġmost ly
Ġdynam ics
Ġfail ed
ĠCl ass
Ġb ur
ĠJ ust
Ġdis s
Ġm ac
wr ite
c s
Ġarg uments
Ġpre fer
Ġh ij
Ġdes ktop
Ġadopt ed
Ġh uge
le y
ĠB o
Ġinte ger
Ġapplic able
Ġf av
Ġaud it
Ġ200 6
pp er
Ġeconom ic
Ġsimilar ity
ens ity
Ġrecogn ize
om b
Ġcom ing
iv irus
v ulner
agr am
ĠApp endix
ph ysical
ĠEn c
ter m
t p
A l
ail able
Ġplay ers
es ides
Ġm aster
ĠFe bruary
Ġchalleng ing
Ġb ind
Ġdou ble
Ġmat hemat
Ġdeli very
vis or
Ġstr a
Ġexam ine
% .
Ġleak age
an n
asp ers
ĠLear ning
ĠBit coin
ĠN orth
C h
Ġsc am
Ġk ill
ĠSc ience
ĠD en
istr ation
ĠSm art
aspers ky
Ġvalid ate
Ġfirewall s
Ġcamer a
word s
Ġname ly
ing ly
Ġenc l
pl ed
Ġcr ime
is hes
ĠU b
over n
Ġpl ant
F igure
Ġterm inal
ĠG e
Ġsc r
fere d
d en
S C
Ġdoes n
Ġconsum er
ĠCh inese
Ġprot ot
Ġext end
Ġro ute
am ing
l ied
Ġlook ed
________________ ________________
Ġcy cle
g ener
Ġf ool
no arch
ĠAdvers arial
6 7
Ġmiss ion
ĠIn it
Ġstra ight
ĠEngine ering
ĠX ML
Ġs an
Ġadministr ators
4 1
Ġtra vel
Ġconc l
Ġbr ute
Ġthous ands
sc ale
Ġd iv
Ġh om
olic y
. ;
Ġprofession al
Ġinter med
Ġaccess ing
Ġconsum ers
Ġpo ol
4 9
Ġfri ends
Ġpol itical
Ġsuggest ed
ĠEx ec
Ġinn ov
Ġdec ide
um ber
200 9
ĠRe qu
Ġconfidential ity
Ġdistrib utions
so le
Ġtop ic
Ġincor por
ĠI BM
Ġtop ology
b b
Ġp en
Ġst ation
Ġalert s
ĠSt ate
Ġsuggest s
a e
5 2
Ġcryptograph y
ur y
ĠB ay
omet ric
Ġwor st
d oc
ĠIn f
Ġd ial
Ġresil ience
Ġ }
Ġcall ing
16 8
Ġprotect ing
M A
S I
Ġ er
on ent
Ġauthor ization
c at
ess ions
Ġrob ot
ĠJoh n
Ġpair s
Ġdesc ript
Ġdo or
Ġinf ection
Ġf ails
V ID
aw n
EC T
Ġminim al
Ġaud io
E O
Ġe p
Ġtem pl
Ġbu y
as ploit
Ġt ables
Ġenc oding
Ġm ask
Ġw alk
Ġm ov
un k
Ġdis rupt
Ġrout ers
ad get
ic ed
Ġinter pre
Ġdec ided
Ġcalc ulate
f l
it iz
Ġst ay
Ġre ducing
Ġh ar
ag n
ten ance
Ġgrow th
Ġstat ements
b ian
Ġin str
ĠC T
Ġpercent age
Ġpl aintext
ĠO N
H T
% ,
Ġ6 0
Ġw in
Ġfundam ental
Ġtrans mitted
ĠSt at
Ġhe ld
s ystem
S er
Ġver ified
Ġdef ines
Ġvol t
os p
Ġfr ag
ĠT ime
Ġregist ers
pack et
Ġend point
i et
st ream
8 2
arget ed
Ġinter val
he l
ili ar
ĠP DF
Ġsee k
ĠF ore
ĠU K
Ġuncert aint
ĠTe am
f s
Ġc overed
Ġev olution
ĠH igh
ĠL isting
Ġinter view
Ġpl ans
Ġconsequ ences
op y
line ar
Ġil leg
ĠRes p
ĠLe vel
Ġwant ed
Ġesc al
ĠS ign
0 7
Ġcompil er
ĠAm azon
Ġrele ases
Ġdefin itions
Ġexp ensive
Ġweight s
Ġre pos
Ġste alth
Ġsymb olic
Ġof fered
ĠInt elligence
Ġide al
ĠM em
ur ation
Ġ \
Ġext ent
ĠC F
Ġclick ing
Ġfin ally
z e
Ġpo or
Ġimprove ment
lo ok
s es
ĠS n
Ġm ist
Ġacc eler
Ġint ent
Ġpa id
Ġincreasing ly
Ġim m
Ġind irect
Ġspe ak
Ġlabel ed
ve re
Ġro ad
per form
Ġl apt
b il
Ġreal istic
Ġnum er
ic ating
Ġbound s
Ġg re
Ġcriter ia
ĠP at
Ġm ount
Ġautonom ous
r or
Ġs izes
Ġmom ent
Ġst able
Ġinter rupt
u itive
un der
T ER
Ġa ge
Ġens ures
Ġa cknow
Ġsam pling
Ġh ide
ĠA p
ĠC ert
Ġutil ize
Ġmembers hip
ĠP HP
et ary
Ġhum ans
Ġide as
Ġstr ict
Ġbo ard
ĠUb untu
Ġqu al
ĠUn fortunately
ĠF ound
Ġw ent
ĠD istrib
ĠP GP
s u
Ġconnect ivity
Ġal le
Ġprim arily
Ġrepl ace
Ġover view
Ġcr ack
us ions
Ġr ating
ĠS IG
Ġmag n
ĠP ass
I f
Ġimpl ies
U RE
6 2
Ġmanip ulate
Ġtem per
T o
Ġmod ification
ĠC re
Ġopportun ity
ĠManag er
st ation
Ġun less
Ġrol es
ĠEx plo
Ġi OS
Ġevery one
Ġgrow ing
ĠiP h
ĠInst itute
Ġc at
Ġprec ision
r um
Ġpict ure
ut ing
Ġopen ed
Ġeduc ation
ĠPro ject
Ġs av
ic ates
i em
Ġaccom pl
c p
Ġj oint
ĠEx t
Ġw at
Ġ2 7
ĠP ublic
id s
Ġpart ial
Ġappro xim
ĠRuss ian
ĠY ork
Ġsurve illance
Ġ2 8
Ġcampaign s
A n
Ġre duces
a ugh
anc ing
Ġobject ives
Ġtok ens
Ġreason able
Ġf oot
ie f
aus s
ĠA c
ĠMal ware
Ġh ot
0 9
in ations
om ial
Ġpredict ions
Ġnorm ally
Ġm iddle
Ġcl ust
ĠH y
ĠT wo
Ġcriminal s
Ġ ;
ĠAPI s
Ġrepl aced
Ġsu c
ĠGener al
Ġiter ation
Ġdocument ation
ĠAut om
Ġdep ict
Ġsever ity
Ġauthor ity
ĠSt e
Ġintr ud
200 8
on ly
r an
Ġrestrict ed
g le
l ab
A pp
em on
Ġbound ary
Ġauthent icated
Ġautomat ic
it ic
Ġautom ation
ĠG N
ĠM D
Ġr aw
ĠPa ul
Ġfail ures
Ġext ensions
Ġl ate
Ġspec ially
l inux
Ġprinci ple
Ġbro k
rom e
ub e
Ġre ached
ph as
Ġforens ic
Ġregist ry
Ġn avig
Ġdriv ing
Ġprinci ples
Ġcountermeas ures
Ġr are
ed ia
Ġrestrict ions
Ġuntr usted
Ġp apers
F T
ĠF ree
Ġapprox imately
ĠDe velop
Ġclaim s
Ġprof iles
Ġreg ions
Ġwant s
ĠSS H
ĠU AV
Ġre ward
Ġc ity
ĠProt ection
c isco
Ġlead ers
res h
ellig ent
Ġfocus es
if ferent
ĠIn te
Ġadj ust
ĠC ore
Ġun iform
ĠA ust
Ġaccept ed
ĠE very
ac c
Ġm s
Ġme ant
ro te
Ġrecord ed
Ġplay er
iminal s
Ġshell code
Ġanal ys
ĠLi ke
Ġsuc ceed
Ġsum mary
Ġal one
Ġincom ing
Ġprocess ed
Ġrequ iring
Ġmulti pl
Ġsimultane ously
Ġ9 0
if e
ĠM obile
Ġsubst ant
Ġtheore tical
ĠStr ateg
5 7
ĠF BI
Ġen for
Ġind epend
Ġlay out
s y
in ite
Ġal ter
iction ary
Ġinv alid
ĠN on
un ch
ens or
ion ed
ĠU sers
Ġhe ap
us ing
du c
D K
it ory
d et
Ġcipher text
st ep
ĠX SS
Ġsh ut
Ġj ud
os ystem
ĠB usiness
âĢ ¦
Ġh ol
ullet in
Ġst ri
Ġcr uc
Ġcons ult
Ġse ed
Ġb ill
Ġanonym ous
a u
an ning
ĠM ess
gr ade
Ġvis ible
Ġactiv ation
Ġ200 3
EN T
ĠP ost
Ġoff line
Ġread er
6 3
Ġexpress ion
Ġf ederal
ĠS ocial
as c
ame work
ĠEx per
Ġpart ners
Ġappl ies
Ġauthor ized
ĠCIS A
for ward
Ġoff set
Ġprincip al
Ġco vert
Ġn ation
Ġp ush
Ġc reat
Ġpos itives
am b
The re
Ġtrans l
Ġefficient ly
D B
ch annel
ĠSt ud
Ġst ake
ĠA ir
Ġent ropy
l ish
Ġcandid ate
Ġass et
ĠB as
Ġden ote
et c
Ġw atch
Ġlog ging
Ġadd s
com p
U X
Ġtop ics
Ġident ical
Ġs essions
ĠM at
ad ed
ĠP LC
ĠR ob
p riv
t est
l ink
fere n
Ġtri ed
P S
cept ible
m ax
ĠMet asploit
ĠIP v
ĠW ord
Ġh or
Ġp ul
Ġg l
el low
Ġdivid ed
6 1
C H
Ġdec om
o ption
c ore
Ġdepend ent
ĠT re
Ġen abling
b s
ĠL ast
Ġvis it
ĠP lease
ograph ic
Ġcorrespond s
uct ion
Ġt ab
Ġj ava
Ġfil ters
Ġact u
Ġiter ations
Ġmain tenance
is c
ĠP GD
Ġgu est
om s
ĠDig ital
Ġsoc k
eli hood
A d
u k
Ġind eed
ĠY our
Ġant ivirus
P M
Ġelect ric
Ġprior ity
h p
D A
ĠE S
Ġw rote
Ġse arc
Ġdec ryption
r ical
ĠS HA
ĠRe ferences
Ġopen ing
ens us
ĠAuthent ication
d r
Ġfol der
ĠD R
E s
pro t
Ġinit ially
ĠS G
or ph
ograph y
Ġreput ation
ob e
Ġlic ense
K E
i os
Ġoccur red
vulner ability
Ġex hib
ro s
Ġconfir med
Ġdisc r
Ġrepresent ing
ĠU s
ĠExplo rer
re st
Ġa ug
Ġadv ance
f it
Ġvolt age
Ġw orm
Ġrel ay
Ġar riv
Ġins urance
Ġpl aces
U M
Ġm aps
i ant
Ġg adget
ĠA ES
ĠS N
Ġbot tom
ar b
Ġread y
Ġcop ies
port s
Ġt ries
Ġpredict ed
Ġdisplay ed
ĠP R
Ġessential ly
Ġconcer ned
Ġne ur
Ġimpro ving
iem ens
Ġmove ment
ĠFl ash
Ġcruc ial
SS L
Ġbe g
ĠT ype
ĠL o
Ġguid elines
Ġregard less
Ġrequest ed
Ġd aily
" )
ĠiPh one
ĠAd min
Ġdisc rete
g ence
Ġcare fully
in istic
ĠMet hod
Ġbecom ing
le ment
Ġpol ice
Ġcou ple
Ġop ens
ĠURL s
Ġmarket ing
ĠRem ote
t ion
Ġresearc her
Ġextract ion
Ġperson nel
e y
S ection
Ġcomple ted
Ġadapt ive
ĠT HE
de v
Ġdom in
Ġdes pite
5 9
Ġfor um
Ġpe er
Ġmis class
Ġp an
ad ata
Ġg ap
Ġscript ing
ĠM ar
Ġt ick
Ġcheck ed
l en
Ġprocess ors
al t
Ġmed ium
V D
Ġke pt
auss ian
Ġext ensive
f c
Ġins ecure
ĠF in
Ġsynt ax
Ġdang erous
O n
Ġrem ember
ĠS upport
Ġhand led
ĠCh ar
ĠH is
j ected
Ġpropag ation
ĠF ollow
ĠB lock
ĠThe ir
om ic
ĠM a
Ġex chang
Ġport ion
l in
Ġachie ves
Ġrec all
Ġprivile ged
10 7
Ġqu e
ĠF ix
Ġtempor al
Ġcook ies
Ġto uch
Ġinvol ving
Ġdri vers
IS C
Ġd ump
Ġregist ered
Ġfam iliar
Ġens uring
ĠCh r
Ġaccess es
/ ?
ĠT yp
Ġcor ruption
ĠD om
T D
Ġin herent
Ġper haps
Ġfix es
Ġfeas ible
] ,
Ġ @
og ene
ĠS am
Ġdifferent ial
Ġem phas
Ġdecre ase
ĠC C
ad a
ient ed
abil istic
Ġph ones
ĠIn tr
Ġv s
ult s
Ġalloc ation
Ġhealth care
d es
Ġadvert is
us ive
ĠP res
S h
Ġf tp
Ġdynam ically
ĠU DP
Ġdele te
Ġsatisf y
ol ute
ĠE r
ĠG overn
Ġsol ving
Ġillustr ate
in y
Ġlim its
Ġtrans p
est amp
ĠT ABLE
Ġtrigg ered
Ġsp at
ib ilities
ĠR ober
Ġintermed iate
D N
H z
Ġclust ers
ĠAr ch
n omial
Ġcon ference
Ġsay ing
Ġfr ames
Ġle tt
Ġun able
n c
tr ans
Ġadministr ative
d riv
S ec
Ġguid ance
at ically
ĠB ug
h and
Ġ200 5
ress ed
ĠSy bil
Ġrecommend ations
S QL
d ro
Ġident ifier
ib ri
Ġexpl an
Ġreal ity
on n
Ġbank ing
Ġg as
Ġaug ment
Ġident ifies
Ġlog ged
Ġtre es
Ġt ro
es ter
Ġmanufact uring
Ġj am
Ġpro ceed
Ġuncertaint y
Ġconv olution
Ġinstall ing
ĠN SA
Ġcom ment
Ġcommun ities
Ġvide os
ub y
Ġinter v
D I
Ġm ig
g ers
Ġtag s
OS T
er v
N ET
ĠO T
Ġsupp lied
ĠOr acle
p ost
Ġfri end
Ġinstr ument
hold ers
ĠE mail
H ow
Ġprov en
Ġadvert ising
ĠD av
ĠCW E
Ġtr uth
Ġt el
Ġclass ify
Ġsh ift
st ate
ch astic
t ered
Ġh one
ĠCon n
Ġcomp r
ash ing
Ġrep ro
D R
Ġover l
Ġac ad
Ġthere by
ĠS w
Ġpro port
Ġevalu ating
ant ec
Ġdeterm ining
Ġconc rete
Ġr an
ĠIm pro
il ibri
Ġass embly
par amet
Ġinvestig ated
Ġaffect s
ĠS um
Ġenc oded
Ġact or
Ġd ictionary
ĠW in
ne y
e b
Ġformul a
Ġbench mark
Ġhard er
Ġst yle
n ets
G A
Ġclose ly
Ġun re
Ġcon ven
ĠTh ird
Ġentire ly
up s
ĠS W
ĠI SP
tt y
ri ve
ĠA lex
Ġpost ed
Ġaut o
1 01
ĠDes pite
ul ative
Ġexpress ed
Ġutil ized
Ġg ave
ĠBay es
Ġc itiz
ĠR T
Ġreg ression
Ġstrong er
Ġas ym
Ġar r
p ath
Ġfacilit ate
Ġconstruct ed
Ġprotot ype
Ġremo ving
ĠPl atform
ash ion
p ub
O W
ĠFr amework
uct ures
Ġsequ ential
Ġp p
uc lear
Ġembedd ing
ĠK aspersky
Ġcol le
Ġagre ement
Ġch ip
ft p
vers ion
Ġcon ve
Ġfr action
Ġframework s
Ġres olution
ĠC heck
L P
Ġred und
Ġhand s
Ġencl ave
Ġtemper ature
Ġde pth
ach ing
Ġbot s
Ġspec ifications
Ġsc ans
ĠSC ADA
Ġlik elihood
and box
Ġ19 2
s l
err ing
Ġsp ot
Ġex ceed
ul ates
Ġswit ches
Ġh ope
Ġhas hes
Ġle aving
Ġold er
ĠN ame
r ant
Ġwe ap
im age
Ġgovern ments
Ġindic ated
Ġsh ares
Ġcomp aring
Ġbal ance
lo se
ĠComm and
pl ace
ph ones
Ġbr id
C B
Ġb atch
ĠD H
Ġa x
Ġind u
ĠRe ad
ĠGP U
ĠT arget
Ġproof s
it ivity
Ġp lot
ĠE l
+ +
Ġpoly nomial
Ġanaly tics
Ġinv ok
Ġ5 00
Ġto ward
i ans
et ooth
Ġdec ent
Ġh ook
r d
Ġthink ing
Ġhundred s
Ġper ce
Ġz one
Ġlet ter
Ġhist or
ic on
ur n
Ġwhen ever
Ġsp y
Ġs ys
Ġmo ved
Ġadvant ages
c ase
ot al
ĠUn like
Ġper m
Ġcluster ing
Ġn one
Ġfav or
on al
ber g
Ġpost s
c d
Ġinv ari
ĠF GSM
} }
ĠR el
Ġscreens hot
D S
ĠP age
Ġcontrol lers
ect ing
] .
up l
Ġclaim ed
ĠR andom
ĠEng lish
ĠREF REF
Ġsupport ing
L R
Ġconv entional
Ġ _
Ġst ages
Ġretrie ve
ĠB esides
Ġhe ur
Ġrout ine
Ġv ision
Ġprev ention
ĠCal if
ĠIn s
**** ****
Ġpro duces
Ġprob abilities
we b
process ing
Ġbin aries
Ġreview s
ĠS O
Ġrespons ibility
Ġsur pr
Ġcompos ed
d s
ĠF TP
Ġde ad
B A
Ġsmart phone
ĠCh rome
Ġcompl icated
Ġde b
Ġdepend encies
Ġartic les
Ġfore ign
ĠD C
Ġmanip ulation
Ġdiver se
Ġpre fix
Ġins ider
ĠEurop e
Ġde aling
ĠG aussian
Ġpubl ication
Ġens emble
C om
Ġexerc ise
Ġre play
Ġpat ient
Ġmaint aining
ĠAct ive
it ation
Ġspe ech
5 00
l ayer
it ored
Ġdis able
UT ION
ĠS E
ĠCommun ications
Ġauthor ities
Ġcentral ized
Ġem er
s use
ĠTechn ical
iss ance
i ety
Ġillustr ated
ens itive
Ġyour self
Ġb atter
Ġre ven
ĠR ES
Ġkn ew
Ġpix el
E X
Ġanal og
ĠS olution
h ol
he red
Ġmet adata
Ġbl ue
Ġchild ren
Ġfew er
Ġinj ected
com put
Ġsubject s
Ġad option
Ġcopy right
ux net
ĠZ h
ĠB lu
ĠExam ple
Ġmill ions
Ġpre m
Ġre ferences
ĠP ay
ĠB ase
Ġexecut es
Ġs il
Ġto ler
Ġdis pl
inc luding
p atch
Ġempir ical
Ġload s
Ġpat ched
ĠM UD
ĠP E
Ġp ython
Ġabs olute
Ġdocument ed
Ġvary ing
Ġestim ates
ur b
u its
Ġam pl
Ġhost ing
Ġex cl
Ġfac ilities
Ġgu ide
Ġcom ments
inst all
Ġfil m
ig u
Ġmod ifications
Ġdifficult y
Ġinstit utions
Ġag o
Ġcompil ed
f b
ĠVulner abilities
Ġmaint ained
Ġorig inally
Ġe ight
ĠAp ache
ĠAmeric a
ĠRober t
ĠG et
Ġneighb or
Ġprevent ing
iv il
ĠInte gr
Ġfre ed
Ġrest art
ag er
upd ate
Ġequ ilibri
Ġbr and
ĠAT T
Ġloss es
en ed
Ġout come
Ġindic ating
ĠT R
Ġsupp osed
Ġop in
Ġtheore m
Ġst ability
der ing
Ġintro duces
Ġconnect ing
sp ace
ad v
ĠSt art
S E
Ġconclud e
Ġilleg al
ĠGP S
Ġweakness es
Ġprob abilistic
Ġmathemat ical
: :
norm al
Ġcontin ues
Ġan not
Ġcons ensus
Ġel ection
c b
ĠNot ice
r un
na issance
Ġph ases
Ġdis ass
ĠV ol
Ġim ag
Ġart ificial
onse qu
Ġtrans f
Ġcompos ition
Ġdiscr imin
ĠR E
Ġex it
Ġ9 9
Ġint ention
Ġmanag ing
o ke
ĠCalif orn
Ġimpact s
UN IA
ĠSEC UNIA
rough t
Ġspect rum
Ġder ive
i ated
Ġorgan ized
pt y
ĠRuss ia
Ġmass ive
ĠTr ust
ĠA ff
ĠV is
IN T
Ġhost ed
ĠSym antec
Ġpass ive
Ġimpl icit
exp ected
Ġt ail
am per
ĠP olicy
Ġterr or
C r
Ġdest ro
Ġinterest s
ĠBr it
Ġed itor
am a
ĠResp onse
Ġmagn itude
Ġprev ents
ment ioned
b and
call ed
Ġd im
Ġen umer
Ġacknow led
Ġtim estamp
Ġbi as
ĠX P
Ġblock ed
um an
Ġdesign ing
Ġclass ical
augh t
Ġc ogn
c heck
ĠT op
ĠK ore
Ġconsider ation
ĠS upp
Ġse vere
Ġrem ov
riv ial
Ġsp end
Ġag ency
oc ation
Ġsub sc
Ġ2 9
the re
Ġdif fer
ĠCl ient
g ent
ecur ing
U P
Ġden otes
l ines
ul n
the less
ĠR isk
ĠCaliforn ia
s on
he tic
= "
Ġorganization al
ion age
Ġser ial
Ġsym metric
Ġ ),
M C
Ġappe ared
Ġes p
Ġstrateg ic
Ġsol d
Ġstrong ly
ĠIn put
Ġex port
Ġrespect ive
Ġd uration
k r
Ġamount s
Ġtrans lation
Ġsearch ing
ĠDe bian
ĠTh rough
Ġpiec es
A X
Ġcomb ine
a round
ĠT V
Ġw ild
Ġcell s
ĠS ur
Ġequ ation
w hat
imension al
ĠSt uxnet
Ġlarge ly
Ġalloc ated
D D
Ġder iv
ĠDes ign
lo ts
Ġdis abled
Ġpre tty
Ġh op
ĠMulti ple
Ġh ouse
Ġwa it
ĠAust ral
H ER
Ġro t
Ġimprove ments
gr ad
Ġsto chastic
Ġn ative
ĠAd obe
OL UTION
ĠBlu etooth
ĠM o
Ġexp on
ap an
Ġgate way
val ue
Ġblock ing
Ġout perform
Ġhim self
Ġanalyst s
Ġe aves
y ear
Ġknow ing
Ġcult ure
ĠSu ccess
c he
Ġimp erson
Ġne ither
Ġask ing
Ġcrypt oc
Ġass ert
re w
ĠVulner able
Ġworld wide
Ġchoos ing
Ġindepend ently
Ġsal es
ĠN E
Ġstud ent
Ġcert ification
ort ion
i pping
Ġdirect ed
Ġcook ie
ĠL ink
Ġon going
igur ation
Ġreason ing
Ġdro pped
Ġeng ines
Ġintrud er
Ġopportun ities
ĠC AN
e fficient
Ġact s
ur ally
f ire
Ġpurch ase
Ġgrad ients
if act
Ġmin or
i pl
Ġdeploy ing
ies t
po ch
Ġcontinu ously
Ġsp ent
Ġnew ly
Ġp lease
ĠC urrent
ĠFollow ing
Ġdefin ing
Ġengine ers
mar ks
Ġpix els
Ġp ure
L A
ĠF ederal
ate ver
ĠC H
Ġb rought
Ġhelp ful
Ġmat ches
or ation
ĠP awn
ĠImage Net
Ġsu ff
Ġcontrib utions
s upport
Ġbound ed
ĠS outh
t xt
Ġsens ing
Ġinteract ive
row ser
Ġinc l
ifi able
Ġp hen
ĠS af
Ġcontain er
t ype
ĠOn ly
Ġbrok en
Ġupd ating
Ġcertain ly
Ġwee ks
wh ile
ĠE U
Ġapp arent
is ition
Ġfor ces
it ution
Ġprov ed
ĠT ra
Ġf ood
Ġcur ve
Ġlapt op
Ġcour t
ĠS iemens
ro g
Ġrem ed
Ġn ull
Ġview s
Ġcontinu ed
ĠM ozilla
int elligence
Ġacqu ired
ab out
el ess
F A
angu age
stand ing
Ġexpert ise
ID S
ĠC EO
Ġint elligent
we ight
Ġreg ulations
Ġim per
Ġc oding
ul us
Ġex ha
AB IL
g roup
ĠIndust rial
tr ained
Ġobser ving
f rom
ĠHTTP S
ĠE ther
Ġaccur ately
ount y
Ġcrypt o
Ġmanufacturer s
Ġthrough put
e ffect
ĠD epend
Ġmon itored
Ġkey board
de ed
Ġswit ching
Ġdev iation
Ġr ise
Ġpress ure
Ġanonym ity
Ġ200 4
Ġfuzz ing
Ġobfusc ation
Ġe ye
ĠExam ples
ĠAn aly
Ġdetect ors
Ġem pty
ĠCr itical
te e
Ġhypot hesis
Ġmodel ed
z er
Ġm and
Ġprep ared
Ġ3 1
ĠR et
Ġab use
EN D
Ġprior it
Ġmon itors
Ġcybercr iminals
Ġgu ard
Ġm id
Ġsan it
Ġdesign s
c il
Ġref l
pri etary
Ġs ectors
Ġleak ed
Ġsh ape
ĠI MP
y es
Ġintro duction
Ġ( "
Ġphot os
ĠP ol
Ġcircum st
ag ement
Ġselect ing
Ġforens ics
Ġad equ
i ke
CR IP
Ġresol ve
Ġg en
Ġview ed
ĠB ur
Ġsim ulated
Ġocc urre
Ġmot ion
Ġcorre l
Ġis n
ĠH ost
n ames
own load
c les
Ġhack ed
ĠH ard
Ġcond itional
ĠI ran
por ation
ĠCons ider
Ġdirect ions
Ġrepresent ative
Ġcolum ns
> <
X X
Ġinfrastr uctures
Ġpar ad
Ġprecise ly
w ar
Ġtrigg ers
Ġdetect s
Ġcorrect ness
Ġphys ically
ĠG AN
Ġwor se
Ġmod es
Ġe poch
irc raft
ĠPl ay
Ġdeterm ines
Ġd a
Ġact ively
ĠHe alth
Ġflex ible
st er
Ġ1 000
ĠIn deed
+ ----------------
Ġdele g
ĠD ifferent
Ġse ven
Ġal arm
Ġinvest ment
k ernel
U n
en ior
ĠFound ation
W S
Ġpre ced
Ġso ft
ĠS an
ĠN umber
ĠStand ard
Ġspat ial
Ġd iversity
ig m
ĠS el
Ġconc ent
Ġreg ul
Ġp us
Ġw indows
ĠS k
Ġf i
s g
c ons
Ġviol ation
c gi
down load
AR E
Ġd oll
Ġtact ics
ĠC onsequ
Ġisol ation
Ġconsid ers
G AN
ĠJ apan
ĠV I
mod ule
im ent
Ġor acle
Ġser ves
Ġrepos itory
Ġhappen ed
Ġd ark
f d
Ġ7 0
ular ity
or iented
Ġ12 8
arch itect
ĠRF C
ĠA N
v ari
ner gy
Ġcollabor ation
Ġmanag ers
Ġg ained
T E
Ġconsist ing
dom ain
du le
ĠRes Net
Ġillustr ates
Ġm us
Ġcar s
f are
il ies
Ġman if
ĠT im
ĠOb ject
b ird
Ġloc ally
le vant
ral ized
ST M
AT E
Ġro ugh
G B
I s
Ġsh adow
Ġphen omen
ĠR AM
art h
Ġmeet ing
M M
S c
rypt ed
ĠM ich
Ġoff ering
a per
lud e
ĠDefin ition
Ġmod ifying
Ġdriv es
Ġinc ent
Ġdemonstr ates
Ġpart ially
in it
Ġult imately
ĠB Y
ĠAdv anced
Ġinv ent
iz er
am ple
ar r
m at
Ġc e
Ġm ere
ĠAv ailable
L e
in f
Ġunivers al
ĠIt s
Ġdim ensions
Ġre feren
Ġs andbox
Ġun expected
Ġemerg ing
Ġmark ed
Ġpos itions
Ġdepend ency
Ġstraight forward
Ġv ast
sy ch
h ark
Ġdef e
ĠV ER
ec k
Ġfind s
ĠAdd itional
fil tr
re p
ABIL ITY
Ġobt aining
Ġengine er
Ġsecre ts
Ġpass ing
Ġchar ge
ĠN S
ĠE st
Ġvari ation
ĠN ever
Ġw ish
Ġwork flow
Ġread ers
Ġexam ined
Ġban ks
Ġbatter y
== =
Ġexpon ential
Ġacqu ire
ĠI R
ell ing
Ġgrant ed
a el
com m
Ġsub mit
ĠAss oci
in o
ĠO ption
Ġansw ers
ĠOrgan izations
Ġsav ed
CRIP TION
ir th
Ġad s
Ġbrief ly
Ġinsight s
Ġh osp
Ġsymb ol
Ġforward ing
ĠIS O
ut ive
s m
ĠS un
Ġcomb inations
ro k
ĠL em
Ġdele ted
Ġschedul ing
Ġstake holders
Ġover come
ĠL ist
he dule
How ever
Ġn uclear
Ġrecogn ized
Ġhe ter
Ġag ree
Ġdece ption
Ġgreat ly
C ont
ĠLoc al
Ġf resh
ires hark
ĠGovern ment
ĠS IM
Ġthread s
L AN
ĠAg ain
Ġaccept able
per vised
Ġregular ly
http s
Ġdid n
Ġanomal ies
Ġsoc iety
ro ok
Ġacc ident
ĠU SA
ĠSc ript
Ġdeterm inistic
Ġimpro ves
Ġdou b
ĠM P
Ġarg ue
driv en
u ing
onym ous
Ġident ities
ĠS pect
ĠC ross
b al
G u
Ġtrend s
Ġdep artment
ist ry
w orth
ar se
it ten
Ġim ple
ĠDES CRIPTION
Ġtit le
ĠPro v
Ġvari ations
Ġrecip ient
qu e
ĠS ee
ĠP IN
ĠID s
ĠPro f
b d
Ġvari ance
Ġm enu
Ġreal ized
Ġhead ers
Ġassum es
ak ers
Ġsecond ary
n etwork
Ġsim ulations
Ġpro prietary
book s
Ġres et
u el
Ġwork ers
Ġins pect
Ġfam ilies
Ġret ail
Ġequilibri um
a pping
Ġsens itivity
ĠP M
Ġre act
ĠR ef
re es
pr ises
Ġlett ers
d imensional
ĠC ON
A I
Ġa ircraft
Ġapprox imate
Ġdispl ays
com mon
Ġw omen
Ġsh if
_ {
sc ape
ĠZ ero
Ġj ournal
ĠJ ournal
Ġso le
il ing
Ġlimit ation
Ġenvironment al
conn ected
ĠSY N
i pt
i us
ĠN T
ĠConsequ ently
ĠM ean
ĠPer form
Ġun us
ĠL ine
Ġcho ices
Ġa pt
I E
Ġ3 5
Ġbig gest
Ġfocus ing
Ġre bo
Ġmaterial s
Ġtell s
ĠID A
le ep
b ase
Ġimple ments
Ġ9 5
Ġma pped
Ġmet a
Ġbrow sing
Ġpers istent
Ġincre ment
or ter
B R
ĠTh ings
Ġcollect ing
Ġresult ed
Ġpresent ation
Ġcontrib ution
ĠF P
Ġassign ment
Ġf ashion
Ġhand sh
Ġrapid ly
ĠH ome
ĠL ow
Ġattempt ing
Ġtun nel
Ġinter ference
Ġcontrol ling
Ġev asion
Ġcitiz ens
k i
ĠA RP
Ġfac ility
Ġtransfer red
Ġnot es
Ġsign ing
ĠD an
ogene ous
ĠI OS
icro soft
ĠDet ails
ĠS MS
Ġconsequ ence
Ġcamer as
Ġmaxim ize
ĠK now
Ġd upl
Ġhand ler
Ġbl ind
h ole
Ġa fore
Ġseem ed
ĠRe lease
Ġdest r
Ġposs ess
ĠS OLUTION
a ware
Ġstor ing
r ad
Ġimmed iate
Ġwill ing
Ġelimin ate
Ġfrag ment
b ot
D E
Ġspec ifies
Ġcr itic
Ġr ace
Ġma x
Ġround s
Ġabstr action
Ġneighb ors
ic a
Ġsubs ystem
Ġreal ize
A tt
Ġfair ly
Ġres id
Ġann ounce
A r
en ame
power pc
Ġent ered
al ent
Ġgather ing
ĠE ve
ĠWith out
ple x
ro ot
ec omm
Ġconstant ly
G G
al ert
Ġthan k
: \
Ġign ore
ĠTre nd
com es
Ġopp os
Ġload ing
Ġaggreg ation
200 7
oun cil
Ġre in
Ġsub mitted
ĠIntr usion
Ġart ifact
ĠB i
Ġintro ducing
Ġp ow
ĠS VM
um ing
Ġreve als
J DK
Ġm ob
anc hes
ĠInst all
Ġstructure d
Ġnot ification
att le
ĠR un
ĠAm ong
F C
Ġaddress ing
ĠL ib
ĠC opy
Ġn ight
Ġsatisf ies
ĠB en
f a
Ġun n
Ġsub red
IP S
ĠM and
ĠW r
omet imes
Ġcapt ures
ĠI M
Ġrepresent ations
Ġexha ust
i pp
as er
Ġsufficient ly
Ġa part
Ġform ally
Ġtempl ate
or age
ĠDen ial
Ġtalk ing
Ġden oted
Ġbeg ins
ĠCom par
Ġcon j
Ġcan c
Ġabs ence
v uln
ĠA uthor
Ġt ech
net ic
ĠSD N
Ġlead er
em por
Ġheav ily
Ġuns u
cor porate
d ec
Ġmix ed
Ġnot iced
Ġbook s
Ġafore mentioned
ĠMon itor
ar ter
ĠM ax
Ġvirus es
ir able
ynam ic
Ġsus ceptible
Ġwa iting
F ile
ĠK ing
red ict
Ġcomb ining
ak er
Ġdescrib ing
Ġa head
ĠB ulletin
Ġc ash
ĠUn ix
Ġsc hedule
ĠAr t
Ġint ers
em ail
st e
Ġdebug ger
Ġtele phone
Ġimpl ications
ĠNe ural
ĠE vent
Ġinsp ection
f ill
Ġke yst
Ġl inux
Ġclo ser
Ġpayload s
ĠB re
Ġinf inite
i ations
Ġsur round
ĠRe al
W OR
Ġrecon naissance
Ġhighlight ed
Ġexplo red
Ġrepl acement
ĠM E
ĠApp ro
ĠIC MP
ri ver
Ġcy cles
Ġsatisf ied
ĠSIG N
Ġspoof ed
Ġsn iff
s ize
or ough
Ġauthent icate
Ġcircumst ances
or ms
ĠAdd ress
b lock
Ġdirect ories
ĠB ig
K S
Ġinf ect
Ġemerg ency
Ġcompat ible
Ġassum ing
Ġindust ries
Ġalle ged
Ġcogn itive
AAAA AAAA
ĠN OT
Ġexperi enced
Ġsat ell
Ġindic ators
force ment
ĠTr aining
ĠEx p
Ġreg istration
U LL
Ġch at
Ġst ress
A E
at hered
Ġmeaning ful
Ġtra ject
p read
Ġocc up
ri er
Ġeth ical
ĠMem ory
Ġachie ving
Ġcomple ment
W h
st ood
Ġcirc uits
Ġt amper
Ġpro hib
Ġv ot
ough t
Ġsymb ols
R es
ĠW ill
Ġsub t
Ġbr anches
) -
Ġdownload ing
Ġneur ons
ĠDom ain
Ġsus pect
Ġvers us
onom y
Ġ ).
form ed
ock er
Ġtransfer ability
i ance
li ers
Ġfl ight
Ġm es
D C
Ġde ath
ĠN AT
Ġsol ved
Ġfor ced
loc ation
ĠCont ent
ĠSG X
Ġwh atever
Ġnumer ical
ĠGN U
ĠUn ion
Ġmeas uring
Ġg lob
Ġpoint ers
Ġdi agn
Ġsee ing
ĠLem ma
Ġc ivil
Ġtest bed
out put
A b
25 6
ĠAR M
Ġflex ibility
Ġexplan ation
Ġperce ived
ides pread
s yn
Ġiter ative
ent y
ĠA f
Ġsock et
is her
Ġsim ulate
IC AL
a fter
Ġdig it
Ġm en
Ġspecial ized
Ġdel ays
AC T
od ay
o ffice
ĠD ISC
Ġpoint ed
Ġexecut ive
Ġsusp ected
Ġ ========
Ġco vers
ĠAppl ications
N s
Ġcomp ression
Ġcandid ates
Ġcons ent
ĠN orm
ĠM ag
Ġattempt ed
Ġsearc hes
ic ing
ĠS I
ĠF ind
os h
Ġstealth y
ĠS R
ĠL AN
ĠGerm any
w s
ĠSe arch
vir t
Ġacqu isition
o om
Ġinterpret ation
B P
erson al
ĠE there
Ġexploit able
Ġsp aces
Ġm ys
sh ot
h am
ut or
Ġcompet ition
Ġplan e
Ġacad emic
ĠGr aph
ĠStrateg ies
Ġw ire
Ġtempor ary
Ġenh anced
I O
r ase
iss ion
Ġar rest
g ment
ĠPres ident
ĠSc ore
Ġf elt
Ġr ig
Ġintegr ate
Ġreferen ced
ĠE nt
Ġb ul
ĠO P
Ġec osystem
Ġdial og
Ġl ives
ĠP atch
c ve
Ġlever aging
Ġg athered
Ġal ign
Ġph p
c ol
ĠD P
Ġconc urrent
Ġsu ite
Ġconsist ency
ole an
Ġanalys es
#### ####
ĠNew s
S hell
Ġreven ue
al og
Ġv oting
Ġbelie ved
Ġtransform ations
Ġeaves dro
Ġbehavior al
ak s
S o
ĠIn vest
Ġaim ed
ĠAg ency
Ġtur ns
ist ence
Ġoptim ize
ĠP S
Ġpr ime
Ġoper ates
L Y
Ġfrequ ent
Ġjo in
ĠCom mission
Ġdecre ases
as hes
ĠGo od
Ġdestro y
all s
Ġst uff
Ġcap ital
ĠE nd
ĠDis c
Ġesp ionage
m em
H e
g a
add ing
Ġconver gence
Ġex filtr
Ġw idespread
Ġste aling
re nt
Ġent ering
Ġfl ash
Ġconvolution al
ĠL ayer
L U
ak ed
W indows
Ġpl ain
ĠD L
s arge
Ġc atch
Ġscient ific
Ġsem i
Ġjob s
ĠOpen JDK
Ġd ensity
Ġresil ient
Ġopp osed
ĠG lobal
ĠX OR
Ġbound aries
Ġsynt hetic
Ġleak s
d k
Ġsecre cy
Ġse x
Ġm or
c ap
ock et
Ġsh o
Ġf ight
Ġconduct ing
ir ms
ĠNever theless
Ġprom ising
ĠComput ing
ĠEX P
Ġbreak point
Ġexpress ions
Ġlab or
A IL
Ġcontrib ute
Ġconf ig
ro ad
b ut
ĠEthere um
Ġhor iz
Ġmotiv ation
Ġsubst itute
b l
Ġcr aw
Ġwar rant
Ġele v
ĠOper ating
N ER
Ġam b
ble m
BS D
Ġun p
Ġseg ments
b c
T A
Ġfreed om
IN D
ĠP oint
Ġread s
Ġfault s
Ġscan ner
Ġmaint ains
ĠDav id
Ġapproxim ation
Ġev ade
ĠD oc
oc r
ens ors
bers pace
Ġsafe gu
Ġ3 3
wr itten
Ġspec ies
ĠV al
Ġunlike ly
ĠA ud
ĠPe ople
Ġleg is
product s
Ġ ================================
ĠK n
do or
Ġenc ount
Ġle aves
aa S
Ġpar sing
Ġaffect ing
Ġutil izing
Ġa id
om an
Ġsmart phones
Ġenter prises
Ġth orough
Ġ80 2
sh op
Ġadministr ation
d ependent
Ġsynchron ization
Ġsign s
ut s
ĠTh ose
Ġsur v
Ġsubsequ ently
ĠDNN s
ent er
Ġreview ed
Ġw ave
ell ect
Ġ ip
ĠES X
Ġident ifiers
rastr ucture
Ġsn ap
ĠPriv ate
ab ase
ag s
Ġloc ate
Ġisol ated
Ġmark ets
Ġoptim ized
ĠBrit ish
C on
Ġsecure ly
Ġpip eline
Ġpat ients
re m
ĠF OR
conf ig
Ġp il
ph a
Ġm im
ĠC ong
ĠHack er
th at
ĠBu ild
e per
Ġp sych
Ġus ability
Ġan tic
Ġstre ams
cl ient
Ġbr ain
ĠPro of
w n
ĠDevelop ment
h ow
Ġsent ence
B y
F I
Ġinterv als
n ew
ĠP i
- >
ĠO pt
ĠG DP
lab el
d c
Ġs ust
Ġsepar ately
cr itical
ĠAd visories
ĠL aw
Ġhandsh ake
Ġfund s
ĠOpen SSL
Ġorgan is
g s
Ġmo ves
Ġst ick
Ġf ig
ĠE nergy
Ġm ouse
Ġass urance
Ġhyper visor
w ell
Ġus ual
b f
O ne
ar row
Ġformat s
Ġcon sole
Ġdefend ers
ĠRes ults
Ġrang es
ĠAC M
ĠBayes ian
ĠH ist
Ġtra vers
Ġd ual
Ġre lying
Ġvalid ity
ĠB ank
Ġphot o
ĠSt ore
uitive ly
a o
D ata
Ġout comes
Ġmotiv ated
d at
ĠW ireshark
Ġwr ites
Ġan ten
Ġp in
Ġe ase
sec ure
Ġtwe ets
Ġcommun icating
Ġequ ipped
ĠC ase
ĠW ik
Ġinc ons
Ġrandom ized
Ġth row
g n
Ġsome what
Ġ4 5
4 01
Ġelect rical
am d
ĠD ownload
is a
Ġlock ed
Ġque ue
t echn
Ġc row
or a
Ġrec ording
ĠWh ite
l ined
Ġ ing
Ġequ ations
ant ed
Ġguarant eed
ĠMark ov
Ġconcl usion
ip hers
Ġsol id
ashing ton
ĠAl tern
Ġres er
ĠC our
ĠC hen
Ġaud ience
Ġin ner
ĠCre ate
Ġhij ack
Ġtyp ing
ĠL a
Ġcare ful
Ġdisclos ed
C A
3 00
er ate
ĠArch itect
est ed
ĠOption al
ĠAff ected
Ġkey words
Ġp pc
Ġsim ulator
f ield
e ffic
ĠRe ference
Ġcontext s
em y
ĠIm plement
Ġun w
Ġplay ing
Ġinitial ization
Ġse ason
ĠTh ough
Ġscal ability
ĠD B
Ġsegment ation
Ġflag s
U ND
Ġform ed
ĠJ S
ĠT el
ar a
Ġper mit
Ġg reen
ĠM ail
Ġthe r
Ġkeep s
00 1
Ġrough ly
Ġdi agram
ĠSub scribe
ĠVM ware
Ġour s
Ġpopular ity
P h
ĠCan ada
Ġpl us
Ġescal ation
Ġe yes
ĠL ook
ĠH uman
ab y
Ġbelong ing
ĠRed dit
Ġviol ations
ic ial
Ġdep art
Ġdr ug
id ers
Ġf irms
Ġhe art
al es
Ġpertur bed
op ens
Ġst ories
Ġs yn
air s
en ger
ĠC AP
Ġbot nets
Ġper man
p k
ĠEv alu
Ġexp ose
ess us
ed u
Ġexpl ains
Ġdebug ging
Ġcomputation ally
Ġjam ming
S ecurity
al ty
est s
ĠE N
R I
x ml
Ġch ose
Ġhelp ed
Ġre aches
Ġcon ce
ĠInd ia
Ġadv ise
Ġantic ip
Ġsimpl icity
Ġcybercr ime
Ġunder stood
Ġdefend ing
Ġser ved
Ġprogram mer
ĠW ashington
AG E
ĠChr ist
Ġrel ax
Ġbi ometric
Ġheav y
l ists
Ġsubstant ial
plo ys
B Z
pec ified
Ġmus ic
' )
Ġrepl acing
Ġs ecuring
en abled
s um
ĠV e
ĠDistrib ution
ĠRe view
ric es
ĠEther net
c ond
Ġperiod s
Ġincor porate
Ġinform ed
Ġcorrupt ed
Ġhistor ical
Ġend s
ro b
ĠGerm an
ĠCO VID
ĠC ap
pre ter
Ġremov al
L og
s ys
A F
Ġlist ing
b ar
as hed
lack ware
ellect ual
il s
is y
Ġun lock
ĠG it
Ġtrans itions
Ġcon vert
ĠR O
Ġper mitted
Ġdist urb
Ġbre aking
Ġra ise
ĠS wit
ith met
Ġc aught
um es
S D
Ġun int
Ġdecent ralized
M an
Ġpass es
Ġyou ng
ad min
Ġresist ance
ĠDepend ing
Ġarch ive
Ġsc ams
ĠSpect re
erm ark
ĠN one
ĠW ireless
Ġ !
Ġpre par
rol l
RP MS
Ġlow est
Ġconvers ation
Ġp ose
ĠA M
Ġtre ated
Ġ Ġ
Ġtw ice
Ġtreat ment
Ġ3 6
Ġfor th
UL NER
enc rypted
c her
Ġcryptoc urrency
Ġs ke
ĠStat us
ĠRec all
Ġra ised
ri an
for d
ĠAn g
Ġco in
Ġsurpr ising
Ġweb page
ech o
Ġquant itative
ĠDe vice
Ġv irt
i as
Ġaggreg ate
' .
priv ile
an ks
ĠC a
Ġmere ly
g res
Ġt ack
Ġr ational
Ġad vice
s im
Ġord ers
Ġland scape
Ġlear ns
Ġpat ching
ĠR ad
ul ent
Ġlo se
ĠDes ktop
ĠSum mary
Ġconnect s
ot t
Ġisol ate
ĠH aving
Ġcl ar
Ġver t
Ġem ot
Ġt rojan
t hen
Ġhand les
Ġab normal
Ġrep ly
Ġob lig
Ġcomput es
Ġparticip ant
in der
n v
lo od
Ġnew er
Ġund et
Ġsecure d
Ġan gle
Ġestabl ishing
ig en
Ġdoll ars
Ġdisc lose
ĠM ir
Ġhierarch y
Ġassist ance
ĠEqu ation
ĠDirect ory
Ġinnov ation
ĠEnc ryption
dis c
effect ive
Ġinsert ed
em pl
iz able
ĠP en
Ġr ing
Ġincorrect ly
U ST
Ġ8 00
ĠPa per
ĠJ B
10 5
---- ---
Ġv ital
ullet ins
Ġow ned
ĠC ity
Ġv ote
C s
H S
Ġcare er
Ġp and
ĠC oll
ĠP rior
Ġpro x
Ġconstr ained
Ġrow s
c hers
Ġinterpre ted
Ġnon linear
Ġcent ers
ĠAn onymous
Ġrandom ization
Ġrespond ents
Ġsimpl er
Ġ200 1
A u
T ube
tr aining
Ġlist ening
Ġpe ers
Ġ9 8
Ġpro min
ĠB I
ĠOn line
Ġdesign ers
ist ingu
Ġupgr ades
ĠL abor
/ --------------------------------------------------------------------
ĠV ULNER
ĠUN IX
Ġch ains
hem ical
Ġh ab
Ġvis ibility
Ġstruct ural
Ġenc ounter
ĠS il
Ġgadget s
am ent
Ġroot kit
Ġ7 5
Ġe vic
d i
Ġcomprom ising
under bird
v ention
Ġany where
Ġgraph ical
Ġins u
st able
r ated
Ġupload ed
Ġscen e
Ġeconom y
AR T
Ã ©
Ġpay ing
G S
Ġlic ens
Ġh iding
ithmet ic
Ġprof it
orph ic
Ġoffic er
Ġrem ind
ĠFire wall
v ar
df sg
b g
Ġrandom ness
ar ms
p ublic
Ġâ Ī
Ġexist ed
ĠM ad
b us
Ġs enior
ĠTest ing
Ġcontact s
br a
D ef
Ġhe x
ĠL anguage
ĠPC I
ĠU P
fact or
I m
Ġmess aging
Ġconst it
ist ance
Ġcop ied
Ġsqu are
Ġg aining
Ġinit iate
F inal
B e
prot ected
Ġregul atory
Ġf em
ah oo
Ġuns pecified
Ġfunctional ities
ĠS oph
ĠV II
Ġexc ell
ĠGr ad
ber t
V PN
Ġdownload s
10 4
ĠN ode
un ing
ĠCustom ers
Ġcoll ision
Ġadj ac
Ġmult ip
ĠMess age
s he
Ġlat ent
Ġ25 6
ĠComp any
ĠD em
Ġflo od
Ġlim iting
Ġsp ear
Ġre use
Ġdefin ite
ĠL STM
P T
R ep
Ġc iphers
Ġdeg rees
ĠMich ael
Ġreconstruct ion
roj ans
Ġar ise
Ġvisual ization
Ġcomput ations
Ab out
Ġv an
Ġofficial s
ĠYou Tube
Y ou
Ġar m
et ing
sc ript
ig er
IF Y
ĠPh ysical
ĠMed ia
e a
ĠT ur
ĠSec ret
Ġsynt hes
m ode
Ġutil ities
Ġp ull
Ġrepe at
Ġcore s
ĠS ometimes
loc al
Ġyield s
Ġun f
Ġaccompl ish
4 00
Ġcompar able
ĠPart y
ĠAC K
ĠInt erest
Ġext ens
ili ary
ĠHy per
Ġneg lig
com ing
Ġt ight
le ts
Ġrest ore
Ġrang ing
ĠK er
de pth
Ġverify ing
Ġcyber attacks
ĠV end
enu ine
ĠCong ress
m es
Ġen j
Ġsepar ation
Ġmat rices
Ġhierarch ical
Ġunn ecess
ĠSc an
Ġcomp ens
M AC
Ġtri al
Ġdisc ard
ĠIm port
ft en
ĠJ o
The se
Ġmut ual
Ġinsu fficient
Ġsuper vised
Ġsimilar ly
Ġprob e
Ġcalc ulation
ux iliary
ĠS V
ĠAcc ount
rook s
ĠB ar
Ġ200 2
Ġpredict ive
Ġaccording ly
ex ec
Ġnat urally
Ġ //
Ġhij acking
ser v
Ġpubl ish
K ey
Ġdescript ions
Ġleg acy
ĠD S
vious ly
ĠG ET
Ġmay be
Ġvis ited
Ġper ception
Ġ4 8
Ġ19 90
Ġl ies
Ġadapt ed
by te
Ġplay ed
Ġcon gest
an alysis
ĠAut o
Ġrare ly
ĠN map
ecomm un
Ġconcer ning
Ġprov ision
R T
Ġinc ur
Ġmis le
art ic
Ġs ink
ĠTo ol
Ġdr one
ĠM TD
ĠH acking
Ġb ounty
ĠTra ffic
Ġob st
Ġresid ual
C L
Ġcapt uring
Ġoccurre nce
Ġpart ner
Ġparad igm
Ġscan ners
is p
Ġwh om
Ġw it
ĠKore a
Ġcharacter istic
us r
Ġgr an
Ġbas ically
Ġbelong s
ag on
Ġsu ffer
u ition
Ġpreser ve
Ġmet er
ĠDefin itions
gr ained
ĠM or
ii i
Ġconsider able
ĠSuccess ful
p et
r andom
Ġpay ments
c oded
Ġdem ands
Ġcur ves
W hen
Ġsystem atic
Ġdiss em
Ġcert ified
D M
ĠF IG
z ero
wr iting
ĠL ight
aa aa
Ġcooper ation
Ġpoison ed
T LS
Ġr ich
ĠPass word
Ġdr am
ne g
C N
kn ow
le ft
Ġfore cast
Ġfact s
I nt
Ġtechn ological
A dd
Ġperiod ically
Ġplan ned
m aking
I d
Ġfound ation
ĠD i
Ġsubred dit
Ġbelie f
ĠSu per
m its
F low
Ġrank ing
Ġprefer red
Ġhelp ing
Ġtransf ers
ĠR L
Ġcomp ile
Ġrel ays
se en
Ġpan el
ĠAttack ers
Ġc aches
U RL
j s
re l
Ġkey word
( ),
Ġdisc onn
Ġscient ists
h ard
Ġpro ducing
Ġconven ient
ĠC all
ĠT imes
Ġtransport ation
g l
ĠM itig
ĠInf rastructure
ĠVULNER ABILITY
Ġover write
ĠS oci
Ġm as
Ġtr ap
Ġspe aking
uct ive
Ġdepict ed
ĠK ernel
ĠTr ue
Ġnot ation
Ġcy berspace
Ġwork load
Ġcr acking
Ġex cess
ĠTo ols
ĠAf ric
ĠL im
ĠP OST
ĠIN F
Ġdriv en
Ġequival ence
ar ious
Ġgraph ics
Ġdist ances
ĠR S
u lo
Ġstrict ly
ĠB el
fire fox
Ġpro active
Ġplug in
Ġmob ility
ĠCommun ication
ĠI ss
Ġorgan isation
Ġforum s
az ine
ail ed
Ġexperi ences
Ġdiscuss ions
Ġsam pled
Ġgeneral ization
ĠPower Shell
Ġfin ished
iqu es
Ġinf o
ĠEx change
Ġdrop s
Ġrec ru
ĠN at
ĠN ULL
Ġattach ments
ĠProcess ing
Ġopin ion
ĠL ater
IT LE
Ġnavig ation
Ġunus ual
Ġrepeated ly
Ġrec overed
Ġcollabor ative
k ing
Ġcall er
w in
ans ion
Ġfrequ encies
un ting
Ġa ver
ĠV iew
Ġconstruct s
vir us
ant ic
ok en
T able
C D
Ġcountermeas ure
Ġfingerprint ing
Ġsole ly
ĠCopy right
Ġ3 00
H ub
Ġdirect or
I oT
Ġput ting
Ġf aces
Ġprim itives
Ġv ice
m iddle
Ġproport ion
ĠD on
Ġful fill
Gu ard
Ġbench marks
g en
el and
ĠâĢ ¦
ĠAV AIL
Ġflo oding
Cr itical
ĠS AP
Ġpropos al
Ġg enuine
ag ue
sub scribe
. --------------------------------------------------------------------
Ġg arb
Ġde eper
ĠE M
ĠF unction
im eter
Ġann ual
eng ine
ĠGDP R
Ġlever aged
Ġn arrow
ĠStand ards
c al
i ences
Ġqu ad
ĠT oday
ub scribe
Ġa p
Ġ3 4
Ġfraud ulent
ĠWork station
n b
enet ic
ĠRes ear
ĠPerform ance
Ġinject ing
Ġagre ed
ĠT erm
Ġcharacter ize
Ġre ject
( "
inter ference
AN D
Ġtransp arent
Ġcompat ibility
Ġfund ing
Ġpro s
Ġhe l
ĠOver all
Ġwork around
st orms
Ġtransform ed
Ġdraw n
ell ed
val id
Ġdistrib ute
y cle
ĠCor poration
l t
ost ic
Ġlist en
mod ules
ĠD ynamic
ĠN essus
Ġhe ight
ĠH u
Ġincl usion
ĠSp ace
s ign
h ouse
tr a
m ozilla
Ġmed ian
200 6
Ġk it
Ġthan ks
Ġc ities
Ġmalicious ly
U ns
Ġ( )
ĠLe g
ĠAVAIL ABLE
ĠD iff
The y
ur acy
ĠT L
Ġcorre lated
ĠH el
' ll
Ġcon form
Ġreach ing
p res
Ġmov ie
Ġar ithmetic
Ġassess ments
ĠAustral ia
Ġb irth
at en
Ġprotect ions
Ġconcl usions
il ed
in et
bu ild
Ġdig its
Ġ( @
an a
es e
ĠA F
ĠVER IFY
Ġconj unction
ĠM ake
v m
Ġprep are
Ġtr uly
a id
cl ick
Ġeng age
Ġneg ot
Ġmet ers
Ġconsist ently
Ġwat ermark
ess or
Ġre nd
Ġ echo
Ġform ulation
Ġl iving
Ġdiscuss es
Ġch art
N G
Ġutil izes
Ġst ations
gres ql
ĠWith in
ĠExec ution
Ġn om
Ġt aint
p ers
Ġc ast
lear ning
j a
Ġsepar ated
ĠAnt i
istingu ish
Ġdeli ber
w d
Ġg aps
Ġlo ve
ĠM I
Ġuser names
P oint
Ġbuild s
Ġopt ical
il tr
T ech
t yp
ĠCrypt o
ĠP ubl
ĠR C
d irect
Ġquant ify
Ġgeneral ized
a it
enc ing
ĠBur p
Ġheur istic
Ġ ================
Ġrec ur
Ġp le
Ġ6 5
ĠCom mit
Ġchoos es
mit re
ĠU I
U B
) )
ĠSpec ial
storms ecurity
Ġindic ator
Ġg ains
ĠAT M
Ġpl ays
ĠAss ess
Ġprim itive
Ġbrid ge
F rom
Ġint ellectual
ot ic
d em
riv a
Ġartifact s
ĠEx c
Ġcircum vent
los ure
ch ar
ge bra
Ġcoord ination
CP S
Ġdifferent ly
ĠPro blem
Ġreg ulation
ĠW ell
as ure
packet stormsecurity
Ġoccur ring
Ġp uzz
Ġexhib it
s ensitive
Ġencour age
p an
Ġavoid ing
Ġne ut
Ġtrust worth
Ġ3 7
Ġfac ial
Ġbu ff
Ġactu ators
P s
Ġcent r
Ġout s
et ime
v i
ĠFor ce
al low
t arget
Ġg ates
Ġinvestig ations
Ġincom plete
Ġinf iltr
Ġequ ally
ĠTr ump
ĠL ic
le an
Ġt rivial
lim inary
ĠDirect or
Ġpro poses
Ġlaun ching
Ġh ub
Ġadequ ate
Ġa uxiliary
Ġsto pped
ac on
ĠSol ar
z illa
Ġscal able
Ġcompet itive
ad vant
ĠD ay
ĠAdmin istr
Ġc asc
Ġvirtual ization
IN AL
e books
B ox
ĠTyp ically
Ġp adding
Ġs leep
Ġf ather
Ġattach ment
25 5
e ff
i h
Ġanomal ous
Ġrestrict ion
viron ment
Ġfe ar
ĠBl ue
ĠT H
Ġbu ck
Ġbr ings
Ġcharacter ized
ĠT om
ĠL ive
Ġag gress
ĠF il
ĠDat abase
Ġinsp ired
Ġspy ware
h avi
paramet ers
Ser vice
Ġcomb ines
requ ency
t a
t ically
Ġ 01
ĠC ouncil
Ġcommit ment
ĠM ot
Ġdis ruption
Ġsummar ized
I CS
E A
ĠD u
Ġhone ypot
ail ability
w art
Ġdecrypt ed
Ġendpoint s
se arch
Ġep is
ĠAg ent
EG IN
Ġmer ch
Ġdisc ipl
re f
k a
ĠH and
O s
ĠSoph os
em s
re et
Ġsell ing
lib c
S ystem
ĠArchitect ure
ĠC red
Ġord ered
< /
Ġvert ex
AS E
Ġoff ensive
Ġr h
Ġoper ated
Ġwar fare
Ġbig ger
ĠB ot
v in
Ġenfor ced
Ġper cept
ind ex
Ġrout es
Ġphenomen on
Ġ Â
control led
Ġst ock
Q u
Ġfac ing
Ġsp ending
AN ET
N ame
Ġrem ark
Ġhappen ing
Ġ4 1
ĠS at
ĠL LC
Ġexcell ent
ĠC ost
Ġvalid ated
ron ics
Ġm ir
Ġare n
al so
Ġhe at
o ad
Ġde let
Ġem ploys
Ġun av
ĠAn n
IM E
Ġgener ative
Ġn ice
Ġint uition
tic es
Ġgr ab
Ġpres ident
ur ch
Ġb und
Ġper t
ri end
ur pose
I V
ĠInit ial
are st
Ġda emon
d ate
Ġh ur
ĠTe le
ĠR ight
ĠCl ick
Ġacc ord
Ġfour th
Ġdam ages
US E
it ud
Ġmanip ulated
Ġw al
ynchron ous
Ġexcept ions
Ġno arch
RO M
B EGIN
ĠNE VER
C K
ĠR ich
Ġparent s
Ġc a
ĠIn jection
Ġtax onomy
Ġaud iting
Ġencount ered
12 9
Ġout lined
th is
Ġhe ard
ut ation
Ġprom ote
Ġactiv ated
P ress
Ġobvious ly
un subscribe
ĠT O
ĠG B
Ġfol d
Ġign ored
un c
Ġdo ct
Ġclass ic
ĠH om
ĠZ e
Ġelectric ity
Ġbo ost
ust ration
Ġtick et
ĠR ather
Ġweap ons
IS A
ren ch
K I
Critical ity
Uns ubscribe
IC E
on ents
Ġback ward
Ġle ts
Ġno isy
Ġco ol
ĠE ar
ĠVM s
Ġc um
Ġmin ers
Ġconf usion
Ġan im
Ġvar ies
Ġweight ed
Ġneighbor hood
ĠNot es
Ġevery body
er ving
Ġrespons ibilities
ĠH ar
Ġd ut
Ġdist ortion
in i
Ġfil ename
ist ant
Ġmethod ologies
i ary
oun der
Ġon t
Ġbroad er
v ol
n on
Ġcons ec
Ġgood s
ĠF ast
Ġcons erv
H N
Ġsatell ite
Ġmultipl ication
nv d
E ye
Ġprogram mers
Ġfac ed
ĠFr anc
Ġpre defined
T ype
Ġspec ifying
ĠCPU s
Ġact ing
Ġd raft
Ġappro ved
Ġcount s
ap es
W ARE
omm od
al one
Ġparticip ate
ĠV ector
ĠGu ard
ĠUAV s
fr ame
Ġat omic
Ġpreced ing
ab et
c rib
c ious
Ġdis e
ent est
c isa
1 10
C VSS
Ġpur s
ĠSM TP
Ġautom ate
Ġbeh alf
ĠA B
ĠR est
Ġexpl oration
lib s
Ġcounter part
Ġp ump
j dk
Ġst ead
ĠComp ared
p ython
Ġenj oy
mod el
ĠTrans port
Ġoutperform s
Ġfingerprint s
Ġun iversity
k its
R A
Ġsummar ize
Ġcomp ares
Ġunnecess ary
Ġatt est
ĠKing dom
Ġp ain
r ich
Ġsynt hesis
Ġminim izing
Ġsubsc ription
ac les
Q U
L ab
ĠV ari
Ġmist akes
Ġdis app
ĠCR IT
Ġfiles ystem
ĠSt ack
Ġheter ogeneous
Ġwor ry
ri ber
Ġdiff ers
ĠCF I
Ġwit ness
Ġext ends
Ġprint ed
IT E
p us
R S
Ġh ole
Ġsurround ing
co ver
Ġdefe at
ro om
Ġdec ade
T ITLE
Ġmac ro
Ġfeas ibility
Ġacc ommod
kr ain
ĠMal icious
Ġexpand ed
ĠR out
ĠC N
b oss
Ġbox es
ĠN N
ĠV irus
Ġexp ansion
syn gress
privile ged
ond on
Ġlever ages
ĠE ffect
ĠDe v
Ġextract ing
Ġrob ots
ons ored
Ġf ed
ĠM B
is ons
Ġel abor
ĠT CB
Ġauthent icity
Ġimportant ly
12 8
u ate
ĠB ell
Ġas ks
b acks
Ġmod ular
Ġnormal ized
ĠP ract
Ġiniti ated
Ġn ine
B ased
Ġnot able
Ġstart up
Ġr ated
Ġterm ination
Ġcategor ized
Ġed it
pl ain
Ġbenef icial
ĠSM B
on ic
ĠD ate
ĠReg ard
ur ity
Ġexam ining
Ġoption al
b an
itor ies
Ġinvestig ating
ĠTechn ologies
as ive
b all
ip edia
ĠSt orage
the ore
Ġconsider ations
Ġarr ang
Ġj ail
19 2
ĠY ahoo
S RPMS
Ġpict ures
id ering
u ple
Ġview ing
ĠSn ort
? "
M B
ri p
ĠCour t
Ġs ale
ĠF alse
ĠCRIT ICAL
Ġcost ly
ul a
Ġhold ing
ĠO ffic
We b
ĠRec ently
Ġschedul ed
Ġprob ing
Ġcommit ted
Ġformul as
Att ack
Ġconver ted
Ġeng agement
C O
Ġacc um
ist a
Ġpred icate
he ther
Ġtele vision
Ġincorpor ated
ĠH E
ĠB at
ro vers
Ġ3 8
Ġcarry ing
ĠR eli
ĠY es
Ġutil ization
Ġre wards
ĠH ouse
ĠOr ig
ĠN CC
s n
Ġnot ing
Ġstand s
iver se
ĠO l
o on
Ġpre ferences
Ġf ab
Ġpurch ased
re levant
Ġauthent ic
Ġuns afe
L inux
j pp
Ġconve x
Ġtr acing
Ġbit coin
out s
Ġprotect s
ĠAltern atively
ess age
Ġowners hip
ĠOR IG
Ġtr acks
Ġkey log
Ġind istinguish
a ur
Ġcent ury
ĠU krain
ĠAssoci ation
Ġdis advant
Ġpromin ent
Ġnot ifications
l or
ĠP ath
Ġmin ute
Ġ4 2
Ġ19 99
Ġp un
Ġfig ures
Ġfe e
Ġrefl ected
Ġdes irable
Ġorganis ations
Ġtime ly
ĠS hell
Ġgu ys
to ols
Ġcr imes
P ack
r is
Ġab ort
r t
s par
mer ce
Ġhe ar
ĠMy SQL
F GSM
Ġloop s
Ġperfect ly
ĠB oot
Ġpre liminary
I Z
Ġepoch s
ĠC SS
Ġsimpl ified
L ib
Ġimpact ed
Ġsafe ly
ĠF low
Ġg one
ĠP A
qu er
ĠUp on
Ġsm oot
Ġgener ators
ĠD el
ĠD ark
Ġsu it
ond s
d ig
ect s
pd f
Ġexchang ed
Ġa ward
Ġo dd
ĠB ACK
Ġdec oy
Ġrecogn izing
p g
ĠG ate
n es
ĠA MD
Ġcover ing
Ġ4 3
ĠE V
Ġha z
ĠWill i
in ated
Ġ icon
Ġdesign er
ĠQ ual
b ps
25 8
ĠF AT
ĠZh ang
Ġneglig ible
IT H
lo tt
ĠDoc ument
ĠFr ance
bound ed
ĠO W
pos ium
Ġencrypt ing
ĠC M
Ġch ances
ĠTrans fer
ĠC OM
ĠW ang
are ncy
Ġmin er
ex ploit
Ġdecl ared
ith ub
Ġbackdo ors
ĠV GG
H ash
ap ache
ĠY et
ĠRec ogn
Ġch ief
Ġtur ning
Ġobfusc ated
Ġenc ode
ĠR oot
Ġden y
Ġo vers
ac ies
f unction
r ict
Ġprox ies
off s
Ġemer ged
Ġre active
Ġaccord ance
in formation
e as
dd en
Ġcor por
ĠS pr
ĠL u
Ġretrie ved
Ġdec ades
Ġl aser
ĠL ondon
Ġseek ing
Ġa w
ĠB GP
Ġtempl ates
T M
---- -
is hers
Ġfor get
Ġappear ance
T est
Ġdefinite ly
Ser ver
Ġtyp ed
th rough
lim ited
re ate
Ġcontinu ity
T ime
s ion
cid ent
ger y
c ity
ro ke
Ġadv oc
ĠM art
Ġ4 4
ĠF L
O V
Ġrequest ing
hent icated
ĠImpro ving
Ġ5 3
ĠDistrib uted
Ġsc oring
Ġcollect s
ĠBug s
Ġexecut ives
ĠC lear
Ġcoordin ated
Ġredund ant
Ġsu dden
us es
Ġmac OS
ĠC ond
Ġinstit ution
Ġord inary
i able
ĠO VER
ĠE th
Ġb omb
am mer
Ġleaders hip
Ġprevent ed
Ġpre y
Ġdes k
Ġc rooks
Ġcomb at
ĠI E
Ġcr ashes
Ġoverl ap
artic les
ĠHard ware
ĠS ing
ĠORIG INAL
Ġin her
ra z
Ġselect s
Ġem b
Ġgr ay
Ġsp arse
Ġinvok ed
ĠResear chers
OR M
st age
ĠB L
ari o
ri ed
ĠIndust ry
es tern
ĠCert ific
grad ation
Ġnetwork ed
Ġ5 6
Ġlo ts
Ġte ac
ĠB er
Ġmult ic
ĠSc oring
ĠT S
Ġcongest ion
ĠIs ra
ĠBas ic
Ġb ird
Ġwh it
ĠP U
Ġredund ancy
ĠRes ource
ĠiP ad
ĠPack et
LO IT
Ġpost ure
ep ing
ĠL ock
20 3
ĠVend or
Ġdo z
C II
Ġoppos ite
Ġ1 50
ĠJ P
ĠF rench
ĠN P
n n
ĠCompar ison
Ġw ider
Ġaccount ing
xim ity
Ġhighlight s
Ġpart itions
V ersion
Ġsome where
Ġassoci ation
Ġimag ine
Ġeduc ational
ĠD M
z ip
ĠP an
ron es
ĠDH CP
B N
Ġinvari ant
Ġdist ill
ist ed
Ġinteract ing
Ġdet er
n ist
h an
Ġa ffor
Ġcour ses
ĠF iles
l ands
Ġver tical
ag ent
nc ies
en ess
Ġmail ing
Ġcoordin ate
Ġattract ive
Ġd ie
ĠN ort
c an
Ġrig or
O b
Ġevalu ations
po of
ĠInvest ig
o gram
Ġevol ving
Ġw all
Ġevol ved
Ġl ie
P E
ĠEXP LOIT
Ġunsu pervised
pl ug
Ġver tices
Ġan g
Ġassess ing
Ġguess ing
Ġ9 6
Ġwork er
ĠVis ual
z ant
Ġload er
ĠGit Hub
ĠA z
ĠM ont
Ġb attle
Ġre action
Ġpr ices
Ġfore st
ĠS chool
ph ishing
Ġglob ally
ed y
Ġregular ization
ĠG en
open jdk
ĠCommit tee
Ġcustom ized
or ig
Ġmitig ations
Ġover w
ĠMean while
ĠH ot
Ġ EF
Ġmist ake
R s
ĠLic ense
ĠOper ation
V iew
ĠK en
Ġinf ections
Ġspread ing
Ġadjac ent
Ġconvers ations
i ers
os is
Ġunder ground
ĠC V
u ble
Ġch ips
Ġpro l
ap ing
Ġresol ved
Ġ4 00
Ġweap on
ĠLabor atory
Ġf eder
ĠL IN
urre ncies
ĠV ers
k er
Ġsm ooth
ĠBI OS
ĠJB oss
Ġmanip ulating
Ġal gebra
ĠIdent ity
Ġinters ection
in ement
Ġconclud ed
Ġprov ing
ĠDN A
r s
Ġp it
Ġcell ular
Ġthreshold s
ĠOther wise
I B
ĠSoci ety
in ity
NN s
Ġm ent
Ġtoler ance
Ġvol umes
ad o
Ġpe ak
Ġ5 5
Ġstudy ing
Ġconsec utive
ĠFore ns
Ġcomple tion
Ġdec oding
ĠCent ral
EN C
Ġt ends
G o
ST EM
app ro
Ġpus hed
ĠMitig ation
Ġmand atory
ĠM A
M icrosoft
OR T
k in
t able
Ġrecommend ation
0000 0000
M od
ĠPl ayer
ĠBo olean
Ġren dering
tr ain
ist ically
ĠElect ronic
Ġde gradation
ĠLo ad
Ġn ations
Ġend ed
ain ment
Ġad vised
Ġmat ched
if er
Ġc urrency
ĠBe low
Ġaccept s
ĠEn vironment
ĠG reen
Ġrout ines
ĠM it
Pro cess
ĠL at
ĠG UI
ĠM ain
ĠGener ally
Ġbeh ave
Ġspec ulative
Ġcont rovers
Ġnear by
ste in
ĠR AT
Ġprincip als
ĠG ame
ĠF uture
AL L
A ll
Ġadv ances
z ing
Ġarchitect ural
Ġinter oper
Ġcalc ulating
ĠPh ishing
on der
Ġhosp ital
Ġtraject ory
Ġf etch
Ġsn ipp
ES T
Ġexpl oring
ĠP y
Ġexecut ions
Ġreach able
is is
ĠSim ple
S im
Ġf ont
ĠS OC
Ġreflect s
Ġ 86
Ġpil ot
AT A
ut able
met ry
ĠM C
ĠP H
b ing
Ġd ot
Ġ Ċ
ĠInter face
Ġwe ar
Ġw idth
Ġintr usions
Ġo il
Ġdesc ent
Ġf usion
ĠDISC O
P l
in ator
ian ces
Ġcor pus
Ġf als
ĠE con
Ġper pet
Ġdis aster
ĠRequ est
Ġremain der
T or
Ġban ned
Ġviol ate
Ġpubl ishing
AN S
ind ow
ic o
Ġpl acement
ax is
Ġimpro per
Ġst im
Ġassoci ate
Ġnon ce
N o
G RO
ĠO ff
ĠE q
s ol
ĠC SP
Ġpat ent
Ġcompil ation
ĠIMP ACT
Ġconstruct ing
-------- --
Ġ| ------------
Ġspeak er
Ġm other
ur l
Ġpseud o
Ġpand emic
ĠInt uitively
Ġgreat est
ĠKnow ledge
T Y
ĠT ext
ĠS IP
l ang
Ġoverw hel
am m
ĠImport ant
Ġ3 9
F ig
st at
ĠRec ent
ĠL D
s qu
Ġ9 7
Ġint uitive
l ic
ĠH o
ĠD OS
Ġiss uing
I ES
ĠOut put
et he
ĠFix ed
D UC
lo op
Ġperiod ic
Ġwe ather
al ed
ar g
Ġpul led
ĠT ech
Ġs lot
Ġposs ibilities
ĠOrgan ization
ĠUn it
Ġlegis lation
Ġal arms
hol der
Ġ8 5
Ġper imeter
unct ional
sc anning
Ġaccompl ished
Ġ4 7
Ġobserv able
T CP
n u
ĠM ic
Ġdat es
Ġg ir
RE A
Ġcol ors
Ġtransmit ting
Ġhas hing
Ġal tered
ĠT rojans
D L
ansom ware
ĠCurrent ly
unct ions
e k
Ġmar gin
ĠON LY
Ġlight weight
ĠD O
Ġp ark
ĠSaf ari
Ġden ied
ĠInt ro
Ġmove ments
H SA
Ġvis iting
Ġgovern ance
ou ter
ĠRem ember
Ġrel ates
Ġman ages
Ġoverflow s
p erson
Ġclaim ing
Ġcor ner
A nd
C omm
Ġst ating
ĠNCC IC
Ġattrib ution
in ate
HT ML
ĠAssess ment
it le
ĠT otal
Ġreve aling
AM E
Ġmitig ating
Ġt ester
r ame
Ġdepart ments
Ġcom fort
AS P
a pped
ĠEx pl
es h
Ġaffor d
ĠSur ve
Ġarg ued
Ġg enetic
lin i
ik i
Ġpredict ing
Ġtermin ate
Ġfl at
el ect
rog ate
Ġflo or
Ġread ily
Ġupgr aded
Ġpract ition
Ġdecl ar
Ġevol ve
Ġpubl ications
ĠRem ed
Ġth wart
T s
ĠL TS
Ġprogram m
t ml
Ġout going
Ġqu arter
Ġde em
apt ers
Ġdiscuss ing
Ġle m
Ġstreng then
ĠS EL
ĠLab s
Ġb id
ĠT ask
g ue
Ġarbit r
ĠPRO VID
Ġvis itors
Ġsimpl est
ĠC L
it ics
ĠF R
ĠAC L
ĠTh ree
ĠEr ror
ĠE as
8 00
ĠCont act
ĠP op
ĠSc en
Ġ================================ ================================
ĠCO MP
theore tic
Ġinc ome
Ġn an
ĠB rowser
ĠG old
O r
ad visory
Ġun c
mal ware
ĠAcc uracy
ĠF our
ĠB row
per t
Ġsound s
ĠSu ite
Ġextens ively
u id
ĠI RC
Ġrev ocation
ĠE ns
Ġoff ices
Ġobser ver
Ġindu ced
Ġlength s
B u
it z
ten ess
cle ar
Ġsignific ance
ber os
ĠCon v
Ġdang er
ĠB et
ĠSer ies
Ġdisass emb
Cl oud
Ġ4 6
Ġmat ters
ĠE duc
ĠCh all
Ġ velo
Ġparticip ating
and er
spar c
Ġpers istence
ĠJ ames
or se
Ġ ________________________________
ĠPh ase
Ġpro sec
Ġasym metric
ĠIntegr ity
K it
Ġtro uble
Ġh int
R ec
struct ion
ĠConf iguration
l ife
b en
zant ine
w an
ĠElect ric
Ġtransmit ter
ĠAutom ation
i ative
Ġsc aling
Ġren der
Ġrep air
Ġfor cing
Ġdiv ision
ĠReli ability
W E
com pl
y l
ĠPart ic
f ellow
ĠExper im
D bg
Ġplug ins
Ġintention ally
ack er
Ġp ing
Ġrebo ot
Ġrein forcement
empor al
ĠV alid
ĠJ eff
Ġcarri er
ec ycle
Ġf et
Ġfall s
ĠDe vices
ĠWi Fi
a ive
^ {
Ġde als
ĠEvalu ation
ĠQu est
ĠSm all
ĠMin im
ĠD rop
O pen
I VE
Ġ20 21
C T
ĠHack ers
Ġal ph
fit ting
elt down
le tt
ip e
Ġ19 98
m as
f ee
ell man
Ġdis gu
Ġattrib uted
ĠTr usted
Ġapparent ly
b its
Ġinflu enced
Ġesc ape
ĠIP s
od ies
c ven
cven ame
Ġsho pping
Ġfree ly
Ġunw anted
ĠP os
ĠB P
Ġper ipher
Ġclick ed
ĠS afe
ĠR P
Ġannounce ment
Ġp orn
Ġemploy ing
Ġpre processing
Ġhar vest
an na
enc oder
ĠAr my
as et
Y S
IF F
Ġ19 80
ra ud
lud ed
port ed
Ġanalyz es
Ġscan ned
a arch
Ġtransl ate
ĠS ams
ĠAs ia
ill er
bre ak
ĠB S
Ġcomp ly
ec ode
Ġc hemical
Ġchar ges
us ively
Ġmig ration
ĠRemed iation
Ġrating s
Ġsp an
im edia
ĠWord Press
HER E
ĠS yn
ĠSym posium
ĠOper ations
s v
ĠR ule
c ut
Ġwarning s
ĠVPN s
% ),
omet er
+ ------------
f riend
Ġstr ug
Ġfit ness
V IE
effic ients
ut ors
Ġwrit er
ĠPROVID ED
l iv
s ets
ĠMan ufact
Ġhypot hes
Ġob sc
ĠP al
FT WARE
Ġindivid ually
ĠS en
Ġsubstant ially
W ith
ĠR ate
ĠW ITH
Ġlook up
omet rics
Ġgrow s
Ġb lood
ĠH er
ĠO K
ĠSupp ose
T hat
in er
Ġsnap shot
Ġe igen
Ġt iny
ĠL O
Ġpr ison
ĠEX T
ĠS EE
ĠL ee
Ġchar ged
U ser
ĠFor m
ĠArt ificial
ar ks
Ġpick ed
ĠUp grade
il os
Ġun encrypted
v able
ĠGrad ient
Ġconsider ably
Ġagre ements
Ġpen alty
re y
Ġdec ides
Ġdecre asing
Ġdiv ide
Ġ ri
Ġtell ing
ĠTh om
Ġanten na
Ġgrid s
h op
Ġcontain ers
( ).
ĠG mail
ĠP SI
ĠL L
Ġrem ained
us ers
Ġfuzz y
ĠM er
Ġp ad
ract ion
ĠW est
âĢĻ ,
ĠCons idering
GRO UND
m atch
irt y
y er
Ġpe ace
Ġed iting
Ġbuild ings
Ġpro ximity
Ġge ograph
bug zilla
Ġtail ored
VIE W
ĠMod ule
Ġinterpre ter
s lackware
Ġwas te
12 6
ĠF ort
Ġsol ver
Ġdro pping
Ġtrack ed
B B
Ġfil ed
Ġc able
Ġ4 9
ĠC am
ĠE L
Ġpar se
c ard
Ġtrans missions
Ġnot ions
Ġinitial ized
Ġre vers
E VM
Ġrel ating
Ġcl icks
w ood
ĠEx pos
le br
ĠSol utions
ff ff
ĠF A
00 2
" ).
pres erving
v y
str ing
E n
ĠD ET
Ġbind ing
Ġcollect ive
Ġtrigger ing
Ġen emy
Ġcorpor ations
Ġmisclass ification
Ġsmall est
ĠBu ffer
Ġreli ably
Ġ[ /
ĠAct ion
' t
ĠCh ang
P G
Ġro gue
Ġsub scrib
ĠBuild ing
Ġsent ences
comput er
Ġ5 1
a j
Ġorder ing
Ġvirt ually
ĠI O
ĠFe ature
Ġquant ity
Ġreser ved
Ġuniform ly
ont al
Ġconfirm ation
ĠAS CII
Ġmodel ling
Ġc ensors
Ġempir ically
or row
ential s
Ġreview ing
Ġsatisf ying
RO P
C NN
Ġfil tered
Ġanaly tical
Ġmis use
M T
S G
Ġgr am
Ġremo ves
ĠU C
so ftware
Ġ5 2
Ġh oc
Ġbuff ers
Ġde pos
Ġapplic ability
OM ER
um my
havi or
AT IC
ĠA UT
Ġconvers ion
Ġcolle ge
er os
De pth
re al
Ġmut ation
. ).
hic le
amet er
ĠMod ern
DN S
Ġ5 4
ap ed
verse ly
our s
Ġvot er
Ġsh orter
S tr
Ġaggreg ated
AT URE
Ġthous and
Ġf uel
Ġs ake
Ġcompli ant
Ġg old
Ġcon ferences
Ġform ation
Ġwork station
Ġproduct ivity
ĠEd ge
Ġsubs ection
ĠS now
Ġrecur sive
Ġslow er
==== =
Ġread ings
Ġtel ecommun
agr aph
Ġsust ain
ide o
Ġappro val
Ġconcept ual
ĠAlex a
d epend
Ġd rones
Ġgu y
Ġaccept ance
Ġpoint ing
Ġexecut ables
ĠA L
/ ):
Ġadvertis ements
re ference
Ġembedd ings
Ġeavesdro pping
Ġnew sp
Ġinter conn
pat ched
Ġmask ing
ĠS em
che str
AR D
Ġim posed
Ġadversarial ly
Ġpost ing
Ġtwe et
Ġbelie ves
Ġperson ally
Ġdoub t
Ġcaus al
Ġexpect ations
ĠTr ad
ĠS qu
ĠS ony
Ġint ensity
Ġse es
g ot
Ġcriter ion
ĠC I
Ġfam ous
ĠM aster
Ġinn oc
Ġk ids
Ġrad ar
Ġcooper ative
Ġwin ning
Ġun ified
al yst
ĠA WS
ĠCom b
S et
on ed
ag ues
et erm
Ġincorpor ating
Ġf at
S O
Ġev ident
Ġtransp arency
ĠA verage
id ge
Ġser ving
ĠO ften
Ġsimpl ify
Ġlicens ed
and a
Cont rol
D es
ĠP ers
ĠSc ient
Ġtrans lated
Ġalloc ate
Ġforward ed
ĠAttack er
ĠPr inc
Ġpresent ing
ĠChr is
Ġobt ains
fil ter
Ġsuper ior
Ġbreak s
Ġy es
Ġco efficients
Ġdifferent iate
Ġcorrect ed
Ġslow ly
err or
k o
Ġver ifier
Ġt uple
Ġcou pled
ĠCAP TC
l ength
Ġconflict s
Ġdef ence
Ġdistinct ion
WOR D
th ird
ĠBACK GROUND
Ġinstrument ation
h i
ĠEd ition
ĠCS I
g z
Ġconc aten
r int
p ress
Ġmis conf
Ġinherent ly
Ġtrans ient
Ġvi able
ee k
Ġattest ation
Ġsimilar ities
ot ive
Ġind ication
Ġmim ic
Ġin effective
ĠC UST
Ġdesign ated
Ġinvolve ment
Ġg ender
ĠD OM
Ġpers ons
ĠDISCO VER
Ġstream ing
Ġlock ing
Ġcontext ual
Ġcomp act
Ġform ulated
11 258
Ġf a
ĠGu ide
our ced
SM A
F P
Ġh o
Ġpreser ving
Ġpl acing
Ġmicro architect
Ġm ental
Ġindu ce
on or
Ġinv oke
g ency
Ġd ense
Ġretur ning
Ġlo sing
Ġch air
ĠISP s
Ġpr one
Ġpar ser
ĠP ress
E AR
D T
r am
ĠREF ER
ĠV o
Ġpol l
Ġblack list
Ġb order
Ġcopy ing
Ġmiss ed
B O
Ġt ied
ĠSaf ety
ut henticated
Ġsur rogate
Ġpack ed
ĠWork shop
ENC ES
ĠMed ium
Ġv otes
Ġfavor ite
Ġpow ers
ĠCon c
Ġsafegu ard
qu art
Ġcomp ressed
Ġcommun icated
ĠV LAN
Ġprof iling
ĠRep ublic
ain ted
Ġem bed
t mp
our cing
ĠV arious
av as
A ct
ĠL ong
ĠM eltdown
Rep ublic
Ġsystem atically
Ġ< /
ĠP et
Ġcl in
ĠUnder standing
; &
ab ot
Ġph rase
Ġretrie val
f iles
Ġtot ally
% ).
Ġwor ms
UR ITY
ĠT uring
Ġar row
Ġconf ident
Ġstead y
******** ********
Ġrol l
s am
point s
ĠDiff ie
ĠInterest ingly
ĠIP S
Ġfor k
itud es
f old
ĠD isco
Ġst ar
C M
rok es
Ġhol es
Ġs aving
Ġc aching
Ġas ynchronous
pe er
in put
A uth
CP U
ĠB ad
Ġfill ed
ĠP L
Ġconsequ ently
Ġren ew
Ġarbitr arily
ĠRob ust
er preter
Ġfix ing
ĠHe ad
Ġmanif est
Ġweak er
Ġtrad ing
Ġco efficient
Ġp lots
Ġ ?
B F
ĠC ount
Ġ________________________________ ________________________________
Ġgran ularity
ĠP P
ĠW HERE
r uby
p urpose
st art
ĠSt all
Ġeng aged
Ġrel ate
Ġext ending
ĠP OS
ĠCUST OMER
Ġre jected
Ad v
Ġcoordin ates
Ġfem ale
ĠF ull
ĠMand riva
14 6
ĠAv ailability
ĠSIGN ATURE
ĠT ex
ĠA E
h ome
Ġimp ly
Ġepis ode
Ġ5 7
Ġsubst itution
N ot
C rypt
ĠWh y
Ġrank ed
l ass
200 5
Ġtr ail
Ġn map
Ġcalc ulations
Ġsmoot hing
yp ots
Ġar rive
Ġregard ed
ĠLink ed
Ġoffic ers
Ġo sc
ĠC ard
ĠAS es
ĠD E
ĠP O
Ġconven ience
od ers
ĠF act
Ġmechan ical
am i
ĠFin ancial
K D
u ous
B ER
Ġlif etime
Ġschool s
Ġintegr ating
i ating
Ġregard s
b ur
rop ri
Ġautom ata
Ġenc oder
Ġdiscrimin ator
Ġuna uthenticated
ĠPro position
HE L
Ġret ain
bound s
Ġexcl usively
Ġrepos itories
Ġunder t
f ol
Ġin ev
Ġperm its
Ġocc asion
Ġproblem atic
ag ner
ast ers
Ġneg atives
v a
Ġwrit ers
Ġsupp lement
b ind
ĠN A
Ġover la
com pass
un ity
Ġpartners hip
Wh ile
W A
Ġconsum e
Ġdepend ence
Ġform ulate
Ġcontrib uted
Ġsub tle
____ __
ur is
Ġput s
know ledge
Ġvelo city
Ġus eless
Ġc ached
Ġunivers ities
ĠP ersonal
Ġatt end
ĠPriv ile
Ġlib virt
ĠD F
ĠAr ab
ĠExploit ation
Ġmag netic
Ġre nt
Ġinstall er
ĠVers ions
Ġpre t
z i
ĠPack age
ĠDec ision
un ks
ĠH ol
Ġexam ination
Ġrespond s
ul i
paramet er
Ġrespond ing
Ġopp onent
ĠSN MP
Ġb ag
Ġpure ly
Ġundet ected
Ġund es
" ;
ĠM ode
Ġpropos als
ĠT ake
ĠC IA
Ġtack le
Ġadapt ation
app er
ĠD EP
Ġp ed
Ġrespond ed
Ġqual itative
Ġre ct
li ance
ĠME SS
ĠBy zantine
Ġar ms
p i
Ġvis its
Ġcons ol
ĠREFER ENCES
ib m
Ġskill ed
ĠF re
Ġmitig ated
Ġrecon f
END ED
Ġdevelop ments
Ġch unk
G R
N ote
ĠW hether
mdv mes
Ġbroad ly
Ġserious ly
Ġasym pt
Ġ19 95
Ġstandard ized
ĠUs ually
Ġemer ge
Ġtest ers
Ġdec ode
Ġavoid ed
ĠT P
Ġdram atically
ang le
val ues
ĠCh ange
C y
d rop
com plete
ĠN ET
Ġsh uff
Ġheur istics
utor ial
ĠHom eland
emb les
ĠF ac
Ġem ulation
ĠC ERT
s k
Ġbl ank
Ġkernel s
C F
ĠP I
Ġp entest
Ġpro jection
ĠProduct s
Ġdis j
Ġ7 8
ĠCertific ate
ĠInd ex
Ġun stable
l ication
ĠE ss
ĠSch ne
P ass
ĠPl an
ĠI SA
ĠCS C
Ġstop s
ĠOpt im
Ġcolle agues
ĠVal ue
v ance
ĠR y
Ġcyber attack
ethe less
con cept
ĠW SN
ĠStall man
ĠP enet
Ġtamper ing
Ġb all
om orphic
Ġencrypt s
ĠKer beros
id a
Ġremed iation
Ġscal es
igu ous
ĠSet tings
Ġseem ingly
ĠControl ler
Ġs ides
t d
Ġnot ify
Ġsys call
ri z
ession al
Ġpar agraph
ĠP ark
ĠB raz
avas cript
h y
ĠW S
ĠE ast
pass word
Ġs on
ĠT TP
ĠA REA
T T
G r
n ode
Ġexerc ises
Ġterror ist
Ġa f
Ġprompt ed
Ġbi ological
Ġ1 01
Ġbet a
ĠFire Eye
V er
Ġcal ib
Ġwhit el
b i
it als
Ġsh ot
ĠS ession
xx xx
Ġover load
Ġschedul er
ĠPer haps
Ġadopt ing
Ġmag ic
Ġsupp liers
Ġ7 2
ĠUn ivers
Ġ19 96
1 000
md k
Ġschem a
ĠC ache
W ork
Ġreg istr
Ġinvestig ators
Ġ 000
Ġgrad ually
Ġperman ent
at ile
d river
Ġinvest ments
Ġc as
ĠU t
or ge
ĠS L
Ġdes ire
ĠNorm al
Ġdiscover ing
Ġdecom position
Ġsupp ose
Ġscr atch
ĠS al
ĠP erm
ĠSolar is
l at
ĠMESS AGE
ac er
ĠS ys
th reat
Ġtri p
ĠDISCOVER ED
s a
ĠSm ith
Ġ5 12
ĠEXT ENDED
ĠAd am
Ġpoor ly
Ġdissem ination
view advisory
ĠI de
ĠM r
ĠSIM ATIC
qu est
Ġpredict able
ĠRun ning
Ġimm une
ĠB ook
Ġarrest ed
Ġconst ants
ĠIN T
Ġpl ants
Ġcreat ive
Ġbu ying
Ġh at
con str
Ġd ash
Ġpred icates
Ġinv is
ĠPat tern
Ġback end
Ġus able
Ġph ilos
ECT ED
ĠPC s
Ġdeem ed
Ġalong side
Ġpuzz le
ĠOut look
ĠHist ory
ĠJ ac
int on
id el
ĠE arth
ĠTex as
Ġarriv al
Ġrece ivers
Ġaugment ed
r b
or gan
resp onse
Ġc ited
Ġinfer red
ĠL OC
Ġpre f
ĠJP EG
Ġinnov ative
if fer
ĠB ill
Ġdise ase
ĠGate way
l iest
Ġdestr uction
loc ated
form at
Ġfundam ent
im ination
c ount
ĠInst agram
ĠR A
ĠT PM
Ġfl ip
Ġlink ing
d ated
ĠRe v
Ġz ones
AP I
Ġprev alent
Ġpost er
ex ample
ĠCom plex
Ġproport ional
G I
ude b
ater al
h igh
Ġapp rec
ĠClass ification
Ġ `
Ġquad r
Ġgl ass
strict ed
Ġsort s
C ry
o vers
ĠMat rix
Ġtext s
ch arge
ĠAdmin istration
uris d
ĠI ll
Ġestablish ment
Ġswit ched
Ġsynt act
liv ious
ol ation
ĠPro xy
M F
Ġg aming
Ġdepict s
ĠPenet ration
G E
K B
H O
ch a
ĠSh ort
Ġnavig ate
Ġn s
Ġopin ions
Ġcr isis
Tr ack
Ġun seen
Ġjo ined
Ġnor ms
ĠC E
Ġout bound
Ġp et
( '
p ow
ĠPo C
ĠMIT IG
Ġport al
Ġce lebr
ortun ately
Ġun clear
Ġcalc ulus
Ġincent ive
Ġre vision
ĠBat man
Ġport able
Ġche ap
ĠW ide
88 8
ĠBraz il
Ġfe es
ĠD ou
Ġtrans it
ĠC at
ĠSams ung
Ġident ifiable
Ġen compass
âĢĶ âĢĶ
ber ry
ĠAng el
N C
ĠCPS s
Ġpos ed
Ġsignal ing
F W
S p
ĠT es
Ġbot t
. *
Ġeas iest
Ġacceler ation
A fee
Ġrec urs
Ġindirect ly
ol a
ĠMir ai
15 0
Ġab ilities
Ġmin i
Ġ* /
Ġcont rad
H ellman
Ġcorrel ations
Ġintern ally
ĠAz ure
L ink
ĠUpd ated
Ġbul k
Ġpreser ved
ĠFil ter
ĠQu ant
ol ec
Ġexcl usive
Ġlif ecycle
Ġsearc hed
r ont
Ġdiff usion
ĠSel ect
Ġtravers al
Ġaddition ally
ĠH am
u an
P al
ĠRF ID
c ost
ut ils
ĠEm ploy
Ġwork force
ĠSt ill
ur ate
Ġinter connected
Ġexpos ing
Ġpropag ate
Ġelect ions
Ġ/ *
Ġsh ar
Ġclos est
ari an
ĠOVER VIEW
ĠPro b
Ġmount ed
ĠA uth
ĠL ess
Ġcert ifications
Ġb odies
ĠCont inu
ĠAuthor ity
ĠW PA
il le
B ut
Ġmod ifies
l ar
O ur
Ġsh oot
Ġreason ably
Ġt or
ĠU nt
ĠOver view
Ġdupl icate
ĠA ward
Ġan ch
ĠCont ract
Ġgeneral ize
Ġdis abling
Ġb g
ĠV ista
Ġ8 8
Ġtro ubl
Ġcum ulative
Ġer a
Ġsp in
Ġwal let
ok es
Ġsatisf action
S L
Ġal igned
Ġcat alog
ĠC ounter
Ġsh ip
ure au
Ġours elves
ann ounce
Ġimp ose
ĠH D
Ġexchang es
A t
Ġaugment ation
Ġf if
Ġaltern atives
Ġdomin ant
Ġdeliber ately
Ġdisc ret
gener ated
n ov
Ġmal formed
Ġbackup s
Ġsurve ys
Ġv ac
ĠF ield
id ay
s at
Ġbus y
ĠOT HER
Ġ ub
ix el
Ġbring ing
Ġtr icks
r isk
Ġ5 8
AC E
Ġcontinu ing
Ġclo sing
v an
ot ion
Ġdec oder
Ġpractition ers
th read
A cc
Ġorigin ating
ĠConn ect
12 3
u ation
Ġsk ip
Ġconserv ative
ĠRecogn ition
ĠM T
ĠSte ve
L ist
. -
Ġcomm od
ĠInd ian
ĠAtt rib
Ġfold ers
Ġent ers
ĠS and
ĠB ern
D o
est ic
ch ains
AT ED
Ġpseud onym
Ġdemonstr ating
Ġelse where
Ġfeder ated
Ġlapt ops
Ġestabl ishes
Ġindistinguish able
Ġlock s
Ġax is
ĠCol lect
Ġbe am
Ġor ient
Ġintr ins
ĠC ur
er ry
ĠComp an
Ġrece ipt
Ġun cover
ĠR outer
ĠPre vious
um ption
Ġpr inter
Ġfault y
t ech
m ys
00 01
ĠCa rol
Ġsome body
Ġconfig uring
Ġb ed
ĠCh o
ĠLib rary
er ve
Ġdeliver ing
U U
ĠâĪ Ĵ
lo ss
AN N
los ed
em p
Ġcompr ises
Ġpubl isher
Ġaccommod ate
ĠP T
Ġen orm
ĠSt reet
ĠSY STEM
Ġt ips
Ġevalu ates
C I
Ġass emb
Ġunt argeted
Ġ __
Ġs we
oc al
Ġdisass embly
o j
Ġbus es
ĠJust ice
ĠFranc isco
ĠM iddle
os c
Ġsubs ets
ĠKe ep
Ġsto pping
Ġadd itive
ĠWik ipedia
/ .
ĠApp ly
L ine
Ġperm utation
Ġem it
-------------------------------------------------------------------- -
Ġextract s
Ġmonth ly
Ġj urisd
Ġmod er
ĠLook ing
Ġd ub
R ead
c ache
ĠH aw
al ities
Ġdev iations
C ON
Ġdifficult ies
ĠDR AM
Ġconv ince
Ġjoint ly
Ġwe alth
ĠInit iative
-------- ---
sc an
Ġcomprom ises
Ġcensors hip
Ġch apters
Ġarr ays
F TP
âĢ ĺ
ĠN ash
ĠEx ternal
Ġan c
ĠF ed
Ġsuggest ions
Ġver ifies
Ġtime out
Ġviol ating
Ġaccount ability
Ġid le
Ġax i
Ġsniff ing
Ġh ous
Ġharm ful
t un
Ġparticip ation
og en
Ġboot str
Ġf ly
Ġunique ly
Ġprepar ation
Ġ6 6
e g
ĠH ong
mem ory
Ġlabor atory
u ce
Ġfound ed
t ure
Ġpriorit ize
en n
ĠLast ly
Ġlo ose
Ġenc aps
ĠL R
ĠB est
on ing
Ġassess ed
ĠJS ON
act iv
Ġcount ing
cont ent
Ġreach ability
ĠMITIG ATION
ĠPh il
Ġmisclass ified
ĠMonitor ing
Ġaltern ate
Ġiniti atives
Ġquery ing
a uth
l aw
200 60
Ġsound ness
Ġtechn ically
et te
Ġro ck
c rypt
Ġpartition ing
Ġd ummy
Ġactu ator
h onest
Ġ9 4
Ġk id
Ġm ine
Ġclass ifying
Ġlocal ization
Ġsit ting
ĠCar lini
Ġprov es
ĠE mer
B E
ĠDe bug
Ġinstall s
Ġconver ge
Ġby t
ĠF ortunately
Ġwatch ing
50 9
Ġappl iances
Ġrefl ection
Ġr ul
Ġdemonstr ation
ĠM ach
Ġmark ing
f ly
ĠCol le
Ġult imate
or ney
Ġw ired
C OM
ĠS H
ĠKe vin
Ġtempor arily
Ġsex ual
Ġcont rary
ĠW anna
Ġphys ics
S ome
ĠLoc ation
Ġk its
Ġinc red
t ar
Ġapp let
ĠE SP
Ġprem ium
opt imal
S B
Ġlat t
D OS
ĠFig ures
ĠLi u
Ġsee ks
Ġinterv ention
pect ives
apt ive
ok ed
Ġv ent
Ġremind s
Ġrecip ients
Ġh unting
ĠA UC
t ons
ap l
init ial
iz on
Ġrele vance
Ġun ion
Ġw oman
pro file
Ġpro c
Ġneighb oring
ĠM ass
e ven
Ġeffic acy
ĠATT ACK
av ed
Ġevic tion
ĠC he
Ġlatt ice
Ġenh ancing
ri ers
ĠD ocker
Ġra ises
Ġinte gers
Ġhone ypots
ĠPLC s
Ġco vari
Ġiter atively
Ġcompet itors
ĠAfric a
Ġresist ant
Ġinstall ations
ĠS ov
Ġout line
ort s
Ġdistill ation
ĠS l
Ġcommit tee
t argeted
Ġt ens
Ġimplicit ly
ap i
Ġpre ference
Ġpair ing
ĠSD K
Ġfunction ing
li ament
Ġle aking
Ġtrustworth y
Ġ7 4
F L
20 4
Ġprob es
Ġmys elf
Ġthe ories
Ġrepl aces
Ġte ach
pat ible
Ġup stream
Ġenfor cing
Ġassign ing
Ġaccept ing
g ments
ĠExp ress
Ġexcess ive
Ġport ions
ĠScript ing
Ġcraft ing
ĠH ash
Ġpos es
ĠIn cident
Ġhard ening
Ġconve y
sc reen
Ġsuggest ing
Ġdelay ed
Ġalleged ly
Ġde gr
ĠL in
Ġfail ing
Ġmys ql
Ġt cp
Ġexceed s
ĠMc Afee
Ġh ang
Ġoptim izing
d ing
c v
Ġfin ish
ĠEx isting
tic le
ow nt
Ġintercept ed
ĠK B
Ġtun ing
Ġj boss
Ġe ax
A fter
ĠLinked In
c ision
Ġappropri ately
] )
Ġwas n
pro of
Ġconst itute
Ġvers a
Ġinvari ants
Ġor th
14 14
ĠW agner
Ġstat ically
ĠCent re
ĠGe org
Ġmag azine
Ġ7 7
Ġont ology
ĠC irc
Ġestim ator
ĠiP od
f irst
Ġdeleg ation
Ġpl enty
Ġhot el
Ġear liest
d iv
Ġ19 70
Ġrepl ies
ĠEduc ation
v ation
Ġs abot
up al
Ġproven ance
b rowser
ĠR SS
qu ality
p ay
ĠRequ ire
AAAAAAAA AAAAAAAA
Ġs ch
Ġemphas is
Ġsome how
G M
Ġsummar izes
Ġmor ning
Ġsurvey ed
Ġ19 97
Ġaggress ive
Ġoptim izations
u ro
Ġk m
ol er
ser vices
ĠU X
s hell
Ġcorrect ion
ĠR ansomware
Ġmar g
Ġfeel ing
N ew
Ġexp onent
ĠS U
ĠB BC
is ec
sh ow
Ġinvent ory
C o
Ġneur on
Ġpract ically
Ġsub net
ent ed
Ġscam mers
Ġ. /
Ġassign s
Ġrest aur
Ġcompet ing
Ġautom otive
m aster
ink ing
i en
am ily
I nd
Ġover look
ĠF ail
Ġ6 8
process or
Ġimperson ate
Ġdecre ased
Ġsh ield
AR C
Ġref inement
Ġl acks
ĠDat aset
Ġar ises
th underbird
Ġcirc le
Ġhoriz ontal
ĠCS RF
Ġun privileged
c md
sc ore
Ġfeed s
Ġvar ied
ĠInc re
O F
Ġli ability
omb ie
Ġspeed s
Ġd ict
ad ays
Ġfrag ments
ĠSO FTWARE
Ġwith dr
Ġ8 2
app ropri
HT TP
Ġ9 3
Ġbur den
Ġd rast
s afe
Ġin verse
Ġjud ge
O ut
Ġfor wards
ĠW al
p ages
ĠMet erpreter
cent ric
Ġtick ets
Ġ2 50
ĠAmeric ans
Ġincons ist
chang ed
A gent
Ġmem or
Ġhyper parameters
Ġcomplement ary
______ _
ĠS ensor
ot o
Ġb ought
ĠNOT E
Ġcrypt osystem
Ġlater al
ĠSnow den
ĠCommun ity
Ġle af
2 000
Ġ8 3
t witter
Ġmig rate
pl ane
Ġdisplay ing
ast ro
d ump
Ġunav ailable
Ġconv ention
Ġge o
Ġhost name
len ny
In st
post gresql
pp ers
Ġb og
n i
Ġne arest
b log
Ġs ing
Ġinterview s
s en
Ġbott len
N S
Ġinvis ible
Ġtim eline
M e
ĠF PR
Ġinsert ion
ĠE ric
Ġ1 20
I EC
il er
Ġin equ
ĠC ategory
ĠB al
Ġfeature d
Ġemphas ize
Ġnot ified
re v
ĠE P
Ġenhance ments
ĠB road
Ġencour aged
Ġover r
ul ators
ĠMart in
Ġprom ise
ĠBlock chain
Ġrestart ed
Ġent it
Ġnot ably
Ġprior ities
Ġestim ating
ent ropy
R B
Ġt ank
ĠF DI
Ġneut ral
ĠOb ama
l ies
m ath
FF ECTED
ĠManufact uring
A ss
ploy ment
Ġdele ting
Ġcompos ite
Man ager
mer c
Ġcontin ually
ĠWanna Cry
Ġcl one
Ġsu do
Ġdisc ount
B ot
Ġrigor ous
ĠS ingle
ĠL P
ĠG A
ĠM echan
Ġcar ries
Ġabs or
Ġread able
Ġvot ers
Ġset tle
ok er
Ġexpect ation
ed ge
brid ge
Ġout er
Ġm ature
an i
Ġreg ional
D s
ĠIntro duction
ĠStart ing
ĠSIGN ED
Ġabsolute ly
Ġfoot print
ĠTes la
s ized
ĠA SP
Ġtransf erring
Ġinf eas
Ġ7 6
ap ore
st ations
Ġexfiltr ation
Ġref erring
Ġre ass
Ġlabel ing
ĠConf idential
igure d
onal d
ĠM iss
Ġs hed
crib ed
ĠAl low
Ġdeb ate
Ġstre et
ĠIss ue
Ġactiv ate
SC ADA
Ġin acc
Ġbypass ing
Ġhand lers
Ġb unch
ĠBe yond
Ġdelet ion
Ġnon interference
ĠGr id
ĠSn ap
ious ly
ĠJac ob
un te
Ġemploy ment
Ġtrick ed
her n
Ġincent ives
S EC
c raft
Ġor chestr
Ġcomple teness
Ġbre ached
Ġw el
ĠLog ic
Ġun pack
ĠS AT
sh aring
ĠRich ard
ĠAb out
ĠCompan ies
Ġd ownt
Ġsl ice
ĠG R
Ġexhaust ive
" >
Ġg est
r ating
ĠR HEL
Ġoverl ay
ĠAS R
Ġdistrib uting
T H
N ode
Ġhapp y
Ġpredict s
g t
Ġtermin ated
Ġdec iding
Ġ6 3
Ġinsert ing
ĠN av
ular ly
m ails
Ġcommun icates
Ġdiscard ed
Ġdrop out
Ġir relevant
Ġmar ks
ĠComput e
Ġsp ir
Ġmanif old
Ġsimultane ous
Ġout liers
Ġfriend ly
Ġunp redict
T otal
s un
ac r
Ġtr ains
Ġwhe el
Ġdis put
ĠUkrain e
Ġt alent
ĠDH S
ob ject
Ġbrid ges
ĠSI EM
Ġcanc er
S ince
AN T
is ms
per ty
ĠW ater
ĠRec e
Ġpl aus
Ġconstit utes
Ġkill ed
Ġ9 2
ĠIsra el
Ġjump s
Ġescal ate
Ġlear ner
T hen
ĠM i
ĠRel ated
s ed
Ġw ake
Ġpers pectives
re ement
Ġmod erate
U Re
Ġmain stream
ĠEar ly
/ #
T V
ĠD aily
iqu it
Ġinvest ors
ĠFl or
e u
Ġfuzz er
Ġdimension ality
t or
ĠU lt
IN E
Ġorigin ated
Ġalign ment
Ġexport ed
es c
Ġadj usted
Ġcompar isons
Ġg libc
ĠP eter
it ter
Ġl uck
Ġaim ing
ĠC lean
ill ing
stand ard
om p
Ġrepro duce
Ġgroup ed
ag netic
he lp
pro gram
m ic
ĠD A
Ġexpl aining
X SS
Ġmeet ings
ĠJapan ese
Ġdetect ions
Ġinteroper ability
yp es
Ġrep et
Ġmet al
Ġkeyst rokes
S ign
s ection
ĠE R
em u
W r
Ġdef ended
Ġout dated
ĠRec on
Ġf og
dom ains
ms g
Ġs sh
os ec
less ly
ĠR OP
m o
Ġredirect ed
ĠM us
ĠFIG URe
ĠS ections
Ġ5 9
ĠProf essional
Ġsh op
et h
EF I
Ġshort est
ĠW atch
ll ipt
Ġte aching
Ġat oms
ĠEC U
ĠPol ice
F E
Ġcall back
ĠPr im
Ġst abil
Ġdist ort
ĠS ite
Ġper f
Ġexponential ly
Ġproceed s
irm ware
ĠP D
Ġless ons
Ġhom es
Ġpro jected
Ġmot or
Ġme ets
ĠSing apore
in ja
Ġt ap
ade qu
def ense
ĠAud it
ĠIntern al
quart ers
Ġlight s
t cp
ĠIn fo
ĠL os
Ġbe acon
ĠB ureau
Ġapp oint
ĠRe LU
b on
ivid ual
ĠRef er
ĠSer vers
o C
m icrosoft
ane ous
Ġfab ric
Ġtact ic
re port
Ġc art
Ġprof essor
ro ut
N T
yp ass
AS T
t x
ĠCVE s
Ġsusp ic
ĠAS LR
ORM ATION
Ġb ases
ĠD iv
Ġobst acles
s or
Ġdis ks
ĠColle ge
Ġsub graph
ĠClear ly
ĠS elf
Ġm olec
ĠG al
ĠSecond ly
i w
plo t
ĠT EE
Ġdecl ass
Ġun protected
Ġcloud s
ĠBe ing
Ġrad ius
a ver
ĠS USE
ĠAv oid
Ġout age
Ġmis be
Ġuns igned
ĠTechn iques
s upp
par ser
Ġresol ver
Ġst uck
ĠA FFECTED
ĠN um
Ġcharacter ization
Ġcont ing
Ġdo ors
Ġrele asing
Ġbyt ecode
il der
Ġsynchron ous
O f
Ġcult ural
ĠWork ing
Ġcoll isions
ĠVol ume
Ġdistingu ishing
G s
Ġbas ics
Ġst em
priv ate
Ġappear ing
ĠGood fellow
Ġtri als
str act
ĠK it
ĠPay Pal
Ġencour ages
ĠD EF
Ġany way
ch o
ĠTL B
ĠAt l
G N
Ġosc ill
Ġinter fere
to gether
ĠOb t
Ġhosp itals
ĠLoc ate
Ġfl uct
on ical
com merce
Ġenorm ous
ĠRequ ired
Ġ/ >
U pd
Ġfair ness
Ġelect rom
ĠV ir
Ġsn iffer
Ġwalk ed
Ġmisle ading
F ool
omet ry
C red
i ates
ĠOl ly
ĠGener ation
ĠP ut
Ġh its
Ġimperson ation
Ġprint ing
ĠCh annel
Ġess ence
ct l
Ġ10 24
Ġavoid ance
Ġ8 7
Ġanaly se
ĠC amp
id ity
bo ot
Ġsur f
ĠGe orge
Ġrel ational
Ġ8 4
Ġtw enty
agr ams
Ġincorpor ates
doc s
ĠH MI
Ġh al
ri a
Ġsu ited
av irus
Ġed ition
Ġinfeas ible
ĠC ook
mys ql
ol ar
Ġfollow ers
M ore
Ġun used
Ġenumer ation
Ġinter ception
N A
11 5
Ġenumer ate
ĠAustral ian
Ġpres um
Ġco ff
Ġem ulator
unt ime
Ġse am
ĠRad io
Ġinflu ences
Ġiss u
lo sing
Ġelabor ate
Ġ6 7
Ġr uby
B l
d ot
ĠG nu
Ġste gan
Ġrel ig
iter ia
llipt ic
oc ab
Ġtim ed
ĠProgram ming
ĠR OC
Ġchar ging
Ġsal t
Ġp ic
ĠSt atic
Ġpol ar
Ġvisual ize
Ġphilos oph
Ġlem ma
a ro
z z
Ġdecom p
om atic
at o
Ġtit led
Ġ8 9
ĠThreat s
Ġs ong
Ġ ic
ĠF und
AI LS
Ġt utorial
Ġamong st
ĠSEL ECT
og onal
ĠM ANET
ĠWr ite
Ġautomat on
Ġrot ation
ĠMod els
Ġd ivers
g ame
ĠAnaly tics
OR S
Ġpro p
ential ly
g ithub
######## ########
ĠN or
Ġto w
E nd
Ġ6 2
Ġx i
ill s
Ġvalid ating
Sc an
ig g
20 5
Ġbrow se
Ġexpand ing
igh ter
st ack
ĠLD AP
ĠU RI
Ġwon der
co ins
u i
Ġm ur
pre m
an o
m ips
ac ity
r ases
Ġe b
Ġill ustration
Ġteac her
Ġrel ied
ĠSh adow
Ġgram mar
k b
Ġover fitting
ĠSc hem
ag o
KE Y
ĠW ed
Ġsubst it
ĠSEC URITY
ĠM ex
constr ained
Ġflo ating
ĠW all
Ġd il
Ġs ought
Ġst y
Ġtimestamp s
Ġske w
ĠDem ocr
ad ian
.* |
ĠR uby
Ġcons cious
Ġal ias
Ġtransl ates
Ġdisc our
Ġprof its
Ġch unks
ang er
Ġtermin ology
Ġdeploy ments
Ġsur prise
I AL
t im
ig ma
Ġadvertis ement
Ġo mitted
fr ont
Ġunc overed
Ġoverhead s
i ple
ad vert
Ġshif ted
ĠE AX
ĠK r
ccess ful
ĠB ulletins
ĠHe w
Ġconsum ing
Ġh ate
Ġbi ometrics
Ġtheore tically
ĠChar acter
b lack
Ġqual ified
Ġassist ant
sp eed
G C
ĠCr ime
Ġcrow d
[ '
Ġge ographic
Ġbal anced
ĠG reat
Ġm akers
ĠMark et
az e
act ively
Ġsk in
Ġsafegu ards
Ġre vis
Ġg un
Ġb ulletin
ĠS ID
y ou
Ġm ic
25 0
ĠV ision
bal anced
ĠKore an
ec om
ĠIC T
Ġhttp d
ĠW il
Ġsuper visor
VPN s
Ġstrength s
Ġun changed
d el
Ġsnipp et
Ġqu ote
Ġacknow ledge
In tern
ĠBack Track
AR PA
d y
ĠVer ification
ĠB ox
ĠD T
ast e
ĠThom as
Ġcount ers
Ġfor ged
Ġperson ality
Ġintegr al
Ġany more
ĠUn ic
ĠWhen ever
on avirus
Ġblog s
Ġpro duc
Ġcontact ed
Ġres ides
Ġun related
l ay
Ġmas quer
Ġsitu ational
Ġhab its
Ġp ending
Ġthem e
merc ial
Ġbo ards
Ġvis ually
Ġend ing
S ecure
Ġnumer ic
ist ication
Ġaff ili
F uzz
doc ument
f requency
Ġgate ways
Ġelimin ating
ĠS end
pp ings
ĠA ware
cl usion
def ault
AR Y
ĠR ock
ĠP K
Ġsucceed s
ĠJ un
ĠLine ar
Ġn ond
ĠCom plete
idel ity
Ġderiv ation
ĠO V
Ġvol unte
bedd ed
p ad
ĠAss uming
gener ation
Ġcons pir
Ġincons istent
Ġunint ended
ĠCl uster
ĠHew lett
Cl ass
Ġt ainted
Ġ( ,
Ġun bounded
Ġden o
bo ards
Ġcre w
Ġn t
access ible
Ġover written
Ġth umb
ĠPh one
an onym
Ġtrade off
ĠSw ed
Ġrev olution
n as
Ġ6 9
Ġ Î
Ġprogram med
ĠK ong
Ġdom estic
ĠI OC
200 4
ĠS i
Ġuna ware
Ġlic enses
> .
ar ith
Ġhand y
Ġg ang
Ġinterrupt s
opens use
Ġdraw ing
ĠExc el
cy ber
re nce
Ġn aming
Ġarch ives
ĠLike wise
Ġinv ocation
d h
{ \
Ġmaxim al
P RO
box es
ĠW estern
Ġspeak ers
Ġpredict or
ĠPRO DUC
Ġimport ed
Ġsabot age
ist an
Ġdimension al
Ġanalog ous
Ġbuck et
Ġha ven
Ġab used
Ġflag ged
Ġ19 94
" :
Ġres ide
ĠAss istant
g re
Ġgre y
% \
ĠD VD
Ġwar ned
Ġcontrib uting
Ġpr icing
Ġpow ered
Ġstand alone
Ġfact ory
Ġdestroy ed
Ġorient ation
Ġint ensive
Ġhab it
Ġtool kit
ĠI SS
O ps
P L
ĠMethod s
Ġ================ ========
Ġcomp ound
Ġiniti ative
ĠSt an
Ġdut ies
Ġconsol id
Ġ7 3
Ġde reference
r as
irect ional
W hat
Ġent ert
ĠDan iel
g it
on a
" ),
Ġdirect ive
Ġp iv
Ġmiss ions
ĠBo ard
ĠAr ticle
ou ch
ress ive
Ġscr ut
d ir
ĠWh o
pro pag
Ġrend ered
t ag
ĠRe levant
Ġincrement al
ĠR OM
ĠT ensor
ĠPC A
Ġdist ract
Ġcop e
Ġopens sl
Ġsuff ered
Ġha ir
Ġfall ing
l able
Ġstatist ically
Ġredirect ion
10 2
Ġob livious
Ġtri ple
Ġhost ile
Ex ec
Ġcalc ulates
Ġreconstruct ed
Ġoverla pping
ĠW EP
pro v
Ġdistingu ished
D et
Ġd f
Ġst amp
Ġex tern
ĠSh are
man n
OR E
M E
Ġsanit ised
Ġon ion
er ce
Ġpsych ological
and al
ĠFore st
Ġcol d
add ress
ĠS ar
Ġshort ly
ĠSov iet
Ġrepl ication
Ġevery day
Ġcoff ee
ĠComp rom
det erm
LE ASE
Ġe g
Ġv oid
gr id
Ġviol ence
Ġmat urity
compl iant
ĠOW ASP
Ġsu ic
ĠSk ype
ĠF uzz
Ġstrong est
ĠSwit ch
Ġampl ification
it t
int e
---------------- ------------
Ġupload ing
Ġpress ing
Ġ9 1
Ġavoid s
Ġrestrict ing
Ġoblig ations
Ġun patched
Ġbut tons
Ġma ppings
riv al
ĠGu id
e on
sc ope
ĠCh ief
Ġbog us
asp berry
Ġg iant
Ġad vis
ĠKn uth
ĠM AT
ap se
10 3
Ġt ape
m w
Ġpurch ases
Ġexc lude
Ġtalk ed
Ġexp ense
Ġint ra
Ġfe et
Ġb are
Ġoff sets
oc ks
Ġtre m
ĠSp am
ĠDisco very
e le
ile vel
Ġindic es
ĠUn ified
Ġnormal ization
ĠC apt
ĠPro file
ĠSign al
Ġmisle ad
m and
Ġcrypt analysis
Ġencl aves
be it
Ġbe aut
ust ic
Ġacc used
ĠDet erm
f m
ĠS ecur
Ġn aive
Ġf le
ac cept
Ġrisk y
ĠPl ug
gener ic
Ġdec oded
Ġ6 1
Ġacknowled ged
ĠMin istry
ĠStud io
Ġsynchron ized
ind ependent
Ġfacilit ates
Ġconfir ms
ĠFirst ly
ut il
ĠV an
Ġmal e
Ġn ested
ĠQ R
Ġposs ession
g ling
Ġgover ned
13 0
c m
B D
Ġpro ver
z y
Ġstation ary
Ġsuff ers
G L
Ġlocal ized
F ace
Ġb esides
Ġsoph istication
r ust
IZ ATION
Ġassign ments
Ġmiss es
il st
Ġst ub
Ġhard ly
Ġcounterpart s
Ġcommod ity
ĠImpro per
m en
Ġp ace
Ġgener ations
Ġp ir
L ocker
Ġconf ront
Ġexc luded
Ġr id
Ġacad em
alt ies
Ġo mit
Ġmill isec
Ġconclud es
Ġst d
Ġsubscrib ers
ĠT TL
Ġ( '
Ġperform ances
Ġselect ive
Ġerr ata
Ġsur faces
Ġelimin ated
l ad
Ġbird s
Ġnom inal
Ġansw ered
ĠD ie
label ed
cl ic
y a
w ares
Qu ery
iquit ous
S e
Ġfor gery
Ġlinear ly
>< /
Ġalter ing
ĠStud y
Ġspect ral
ĠN C
Ġeng aging
Ġ________________________________________________________________ _______
Ġe arth
u a
Ġbr ands
h r
it an
Ġ12 7
Ġminim ization
Ġins urer
h ots
Ġw ires
ĠQu ick
ĠB inary
ĠJ IT
Ġtraject ories
ĠMIT RE
ĠPer l
" );
ĠO p
Ġmov ies
ĠImplement ation
Ġh ire
ĠA Es
Ġerr one
ĠR NN
Ġam az
Ġmicro code
Ġroom s
e i
ĠJ ose
Ġaccident ally
Ġviol ated
f acing
ĠR PC
it ically
Ġpark ing
p ing
ĠElect rical
Ġw ishes
Ġmerch ant
Ġre training
de vice
Ġsoc iet
ĠD MA
ĠL apl
w hen
Ob ject
ĠAdministr ator
6 00
ĠCAPTC HA
add r
Ġland ing
ick er
ĠRead er
Ġh iring
iss ions
Ġ8 1
b or
Ġbur st
up les
Ġang les
ĠDef ender
Ġtr unc
Ġsub mission
Ġs id
F irst
Ġprot est
b ul
Ġj our
at ility
Ġab and
read able
ĠI o
ĠS ET
Ġf ounder
Ġbl ur
Ġsock ets
ĠRec omm
[ .
Ġup coming
Ġto m
P P
Ġdoz ens
Ġr ain
architect ures
ĠSp e
ĠSim ulation
ĠWhat s
E m
S R
h n
ĠGr ant
k ay
ĠEu cl
Ġbal ancing
ĠJo e
Ġ> >
Ġobst acle
Ġgrow n
Ġaccess ibility
ĠSo ft
12 5
ety a
Ġcamp us
ĠTrans form
j acking
C urrent
Ġscient ist
Tech Republic
at z
ion e
Ġbi ases
ĠDET AILS
ĠAc ad
ĠFree BSD
um n
Ġdub bed
A ut
ĠINF ORMATION
Ġc os
Ġhaz ard
Ġear n
F ree
Ġt al
Ġlab s
EE P
Ġnecess ity
Ġair port
Ġv o
Ġb ulletins
Ġnewsp aper
Ġres ort
ĠA part
Ġinvok ing
ick ing
ver ted
Ġcor poration
Ġra ising
ĠD ut
CE SS
ĠF IN
Ġf its
Ġdrug s
Ġun defined
ĠSP EC
empor ary
ĠReg istry
Ġfire fox
Ġconce al
r ator
Ġsam ba
Ġc oded
qu ery
ath an
Ġde grade
wit ch
M essage
1 20
ĠUs ed
ĠN OP
Ġtim er
Ġint entional
Ġalph abet
ĠC row
Ġdis patch
N I
Ġp c
Ġpip e
ic he
Ġca ution
ĠH ACK
v asive
ĠM ap
p id
le te
Ġimper ative
Ġref ined
aus es
ĠOb viously
ĠY ear
Ġuncert ain
ĠJ ack
pow ered
F s
q t
Ġfor b
Ġbar rier
ĠWeb Kit
ot a
Ġdis ag
D ec
Ġrestrict ive
Ġmom ents
ĠH R
Ġc od
Ġstat istic
Ġroot kits
Ġprotect ive
m m
Ġmon ot
Ġbar riers
f all
Ġhist ogram
gr icult
17 4
as i
ĠSt ar
A ccess
Ġcorrespond ence
Ġform ing
Ġfund ed
ant ly
ent ry
rom ium
Ġbeg un
m ult
v ector
Ġcrack ed
Ġintent ions
ĠP erson
Ġannot ations
Ġcl ause
ĠSub ject
ĠIdent ification
ĠOver flow
if ul
Ġcou pling
Ġfor got
Ġhol istic
D is
Ġtelecommun ications
' re
15 2
ĠV i
Ġobser ves
Ġconsum ed
Ġwithdr aw
Ġsurpr ised
cal c
F l
Ġbas elines
ĠP V
ud ge
Ġdraw back
8 203
ĠFor mat
istrib ution
open office
Ġrecru it
ĠK al
pp a
bu ilt
go ogle
Ġcomfort able
Ġgr ants
Ġwork place
H R
Ġint end
Ġdiagn osis
Ġoccasion ally
Ġin adequ
Ġsudden ly
S ION
Ġmir ror
Ġinitial ize
c urrent
z a
Ġbr ight
Ġexhib its
M on
Ġaud its
ol f
end ar
Ġrecover ing
Ġthorough ly
Ġf ired
EN CE
Ġclin ical
ĠN Y
Ġorth ogonal
ĠG Hz
ĠL TE
Ġcorrel ate
D DoS
ĠSc ott
Ġim aging
ost on
pl it
Ġtermin ates
Ġdro pper
Ġ7 9
ĠQuest ion
Ġem ulate
om aly
Ġintrins ic
M ap
Ġcontrib utes
ĠCan adian
ĠIP sec
erc ase
struct ured
ss h
ĠP ac
Ġarriv ed
Ġsp ars
D LL
ĠMinim ize
ĠWed nes
ĠL oss
Ġoffic ially
aud i
ell er
ĠN LP
Ġhack s
ĠT A
Ġsp l
Ġc md
Ġaccur acies
cl oud
ĠK u
ĠCon st
Ġdem ocr
Ġeth ics
ĠC are
Ġp od
Ġther mal
ĠT s
bre v
Ġmicro phone
i ang
Ġ+ --------------------------------
Ġgeograph ical
us ually
12 7
Ġpass ph
Ġfool ing
Ġ( %)
Ġelect ronics
Ġrece ption
Ġassert ion
ĠL arge
E ng
requ is
n umber
ĠV ideo
ĠPrivile ge
Ġinform al
Ġwhere by
ĠSt age
Ġin qu
Ġver b
Ġbypass ed
Ġdestr uctive
T F
Ġpers u
Ġovers ight
ad ec
ĠSet ting
Ġext r
Ġperman ently
Ġh ired
N R
Ġgre w
Ġend ors
an es
Ġspread she
ĠIn sp
Ġcon vic
Ġreg ime
ĠExperim ental
G et
Ġcritic ized
o ft
ide an
af a
ĠT ai
ĠGP G
ĠEst abl
Ġs rc
Ġco al
ĠEd it
Ġmix ture
ĠE s
ĠI F
Ġspec ulation
c am
Ġback ed
is er
Ġmultic ast
Ġbound ing
Ġhar ass
ĠSub sequ
r ange
pect or
Ġs aves
play er
ĠQu ery
SS H
Ġun limited
Ġquestion na
amp ered
Ġcompil ers
ĠDLL s
ĠRegard less
Ġshut down
ĠForens ics
Ġsplit ting
D H
ĠWednes day
ĠMa jor
Ġwalk ing
Ġdisadvant age
Ġpay off
o op
ĠST L
Ġno ises
Ġinvestig ator
c odes
Ġv ig
Ġs lots
Ġ) ;
Ġ6 00
uct or
ĠPen Test
D roid
ĠT ues
ĠU EFI
Ġconf used
ĠStr ucture
Ġbackdo ored
Ġsav ings
pert ies
appropri ate
Ġtrans mits
ain er
ĠCont ext
im um
Ġwould n
ĠP OP
Re quest
s igned
ĠObt aining
Ġwork stations
ect ive
ĠCal c
ĠCr iteria
Ġm d
Ġc d
Ġn m
Ġcl ub
Ġal leg
Pro gram
C ar
Ġindex ed
Ġciphertext s
tr ack
ĠR o
ĠN TP
Ġtrad em
ĠCl inton
ĠFr ank
Ġlist ener
S Y
Ġdisj oint
Ġevolution ary
ĠCrypt ography
Ġre trans
Ġdescript or
ĠSchne ider
Ġal t
ĠPre vention
Ġv ocab
ri ke
Ġb reat
sec ond
Ġreported ly
Ġban ner
Ġoverwhel ming
Ġhoriz on
ĠF ROM
ent oo
Ġsol ves
ĠK E
Ġoccurre nces
ĠCon cept
Ġdel ivers
k aspersky
Ġdisc rep
Ġad mitted
Ġmon etary
Ġbehaviour s
Ġsent iment
Ġformal ize
ĠAl ong
Ġcut ting
E B
L oad
ĠWe ak
b oth
ĠM uch
ell s
p ersonal
S ub
ĠHe art
Ġtrack er
cons uming
ul ary
ĠN FS
ĠHE AD
Ġle x
Ġre form
Ġlog o
2 24
Ġauto encoder
Ġprogramm able
v s
ĠF C
Ġfin ance
poof ing
ig ger
Ġch a
Ġpool ing
ser ve
ĠM ix
M y
M NIST
Ġad mit
Ġdam aging
K L
Ġmod ulation
ĠX en
Ġv ib
Ġsoft max
Ġin line
Ġpo ols
ĠGnu PG
FF FF
Ġcle ver
ĠS ant
Ġw aves
Ġd ad
ĠL and
Ġapp end
Ġlog istic
ĠEcon omic
t iv
g as
ĠJ on
Ġimpl ied
Ġt ip
R em
Ġw id
ĠC CP
C onn
C ustom
Ġanaly tic
Ġbe ar
ĠRep resent
Ġbelie fs
Ġev il
ract ical
Ġinteract s
Im age
ĠNA SA
Tr ans
ĠCNN s
Ġtable ts
g em
Ġenfor ces
D en
Ġep id
Ġquadr atic
ĠAnd rew
Ġmer ged
oll ary
Ġoper and
Ġtrem end
Ġcomm its
ĠNat ural
ĠN iger
ĠB ound
ĠCom ments
load ed
ĠThe ory
ĠB U
Cl ient
ĠExec utive
ĠConfidential ity
ĠSign ature
Ġintrud ers
Ġp k
ord ers
gr ap
Ġphenomen a
B ay
Ġposter ior
Ġpubl ishers
S W
ĠFe atures
Ġport fol
pro fit
Ġseed s
Ġbal lot
ĠS ep
red iction
ĠNort on
Ġsh r
ogene ity
ou l
Ġac o
Ġdis pos
Ġinc urs
Ġsubsystem s
ĠTues day
er al
Ġoptim izer
Ġche at
ĠValid ation
.*| .*|
Ġwr apper
Ġcur sor
f ocus
Ġmult imedia
Ġmarket place
IS O
sh tml
ĠQ oS
Ġar med
11 1
Ġh oney
Ġb old
pro xy
Ġi pt
20 9
Ġinject ions
j ust
ĠVirus Total
ĠChall enge
B s
: /
G T
Ġtransform s
Ġc am
Ġcomple ting
V ulner
Ġpurch asing
app lication
n ote
Ġgre edy
Ġ( (
cept ibility
ĠL ead
ile y
Ġre used
ĠM ary
Ġf ellow
st ers
Ġmaxim izing
p x
11 2
for ge
Ġplaus ible
ĠIn v
Ġadvertis ers
ĠD rive
aw ay
f ed
ĠW AR
vari ant
Ġdev oted
ĠL ED
AL U
ĠL isp
Ġfundament ally
Ġgu ilt
mal icious
h ash
ĠM PC
11 8
m ine
ator ies
ĠM att
run ner
Ġreal ization
cent er
Ġth in
D SA
Ġsum mer
Ġcreat ors
S pec
Ġhom omorphic
ĠSever ity
S ite
friend ly
O O
Ġin advert
Ġmer ge
Ġtrad itionally
Ġs ight
ĠAb stract
ĠT aking
Ġattract ed
ĠSurve y
N E
Ġweak est
Ġcontract ors
ĠHy brid
TION S
Ġn u
ever se
ĠWhats App
ĠM DP
Ġge ometric
ĠC ort
Ġrepl icate
ĠGuard ian
ĠK im
Ġco ins
Ġmoment um
R a
ĠFP GA
AP T
asp x
Ġappl iance
ĠM ond
u ced
R AS
ĠReg ister
Ġm erg
b one
N etwork
adec imal
ĠPro ced
Ġmat h
ĠT ry
Ġ19 60
Ġc ul
ĠT er
her lands
te am
ĠD est
Ġex poses
ĠTh anks
ĠPre cision
Ġcarri ers
Ġcomple tes
iv ari
ap y
ĠAct ivity
Ġe ap
ĠRest rict
Ġdevelop s
v alu
ĠAc cept
h oc
ke ys
Ġocc as
Ġcor onavirus
B ook
ĠB C
pl atform
IC ATION
ĠAC E
Ġadequ ately
Ġemot ional
ĠD SS
sp ot
look ing
Ġal together
ĠEC Us
Ġstri ke
ĠFIG URE
ĠN VD
z en
Ġatt itude
Ġtra its
---- --
ĠTr ade
Ġsubst ation
ĠO Auth
rol ling
Ġanten nas
S m
Ġ|------------ +----------------
ĠT ree
enter prise
ĠAg ents
j o
ĠCIS O
Ġconstruct ions
ort ium
P o
Ġpurs ue
ĠR aspberry
iz ers
el lo
Ġterminal s
m achine
Ġquant ization
ect able
Ph ysical
ĠE D
Ġbro ke
ĠT emporal
ĠIT RC
Ġtun ed
Ġdat ing
ost er
Ġset t
V al
Ġpersonal ized
Ġpus hing
Ġprefix es
Ġthough ts
Ġliter ally
Ġdisapp ear
ĠU E
Ġscen es
Ġco herent
Add ress
ult y
ĠA k
ĠK ar
Ġexplo sion
Ġannot ated
Ġow ns
ĠH ave
Ġimp ed
ĠOlly Dbg
Ġcan onical
Ġ19 93
ĠOther s
Ġlog ins
ir med
ĠDisc losure
Ġprev iew
Ġunsu ccessful
Ġtrans ist
aby tes
ĠSe qu
re lation
ab el
Ġhealth y
Ġgr and
Al though
Ġhighlight ing
Ġjo ining
ĠTai wan
Ġelev ated
Ġt ie
Ġcontrad ict
ĠE IP
Ġelectrom agnetic
ĠL y
Ġhor se
Ġquant ities
ĠControl s
Ġl es
Ġf lying
Ġcompr ised
Ġsurprising ly
l ong
ĠI A
Ġcreat or
k ins
Ġexp ir
b ow
Ġimpl ant
Ġarriv es
Ġst ood
s i
ĠJoh ns
j ava
ĠJ ul
Ġadv ent
Ġrad iation
ĠAutom ated
p any
Ġwhere in
ĠNet herlands
ĠW ay
Ġsp ons
Ġguess es
Ġindepend ence
ĠCyber cr
ĠIt aly
11 9
Ġpart ly
ĠCre ating
r ick
it a
Ġconsult ing
Ġimper ceptible
acr ific
ĠVo IP
Ġacqu iring
id able
Ġguid ed
en able
Ġtag ged
Ġgir l
Ġhead s
ĠC ipher
Pro t
ĠAct iv
Ġexpect s
S u
sc riber
ul um
ĠGP Us
ĠThreat post
Ġcovari ance
ĠF F
ĠIm ag
ĠA ST
Ġequ als
Ġ7 1
12 1
Ġsubt ract
++ ++
20 2
with out
Ġminim izes
engine ering
Ġm m
Ġh unt
Ġwat ched
uc ing
at ches
Ġconsist ed
Ġkeyst roke
Ġgu ards
S VM
rep resent
ri ze
ĠPr int
Ġconspir acy
Ġhas hed
ĠStrateg y
un ter
install ed
Ġbi ased
Ġdi pl
D irect
ĠWorld wide
Ġanalys ed
ĠT X
Ġub iquitous
Ġb orrow
ec e
> ,
st ore
ish ment
Ġsort ed
ĠScen ario
sec ret
St ack
R M
Ġt uples
Ġunpredict able
T ext
Ġforecast ing
m n
Ġdynam ical
Ġjud gment
Ġderiv ative
Ġemerg ence
Ġ2 55
Ġlog arith
Ġgot ten
20 21
lud es
ĠN eed
in ent
h o
ĠG re
ĠD RL
E nc
ĠT al
group s
ĠIran ian
ĠBack up
Ġimp ractical
16 0
ĠPo ly
ĠPl us
Ġpr uning
Ġcryptoc urrencies
craft ed
Ġformal ism
ili pp
Ġcontrovers ial
Ġp ocket
Ġlearn ers
l ie
pass wd
t uning
ĠComp onent
ĠR Q
Ġscreens hots
ĠInit ially
ĠI X
ĠInd ividual
L ock
x i
virt ual
Ġprev al
Ġunre li
) ]
log in
ĠEucl idean
ent ions
ĠApp s
Ġterror ism
est abl
Ġjour ney
ĠBrow n
O U
Ġnotice able
Ġad ult
ĠIm m
Ġur l
Ġenhance ment
ĠB a
Ġed itors
Ġinf ring
ĠMad ry
ĠV ictim
ĠMed ical
ĠWilli ams
per l
Ġins iders
ĠExpos ures
Ġgener ality
F V
ĠR DP
Ġf an
Ã Ĺ
r ank
Ġent r
Ġwa its
Ġdrast ically
ĠD AG
ĠCert ain
Ġdetect able
Ġdigit ally
Ġprec ond
t rivial
Ġremov able
ĠDiv ision
ĠB oston
o or
ĠS UM
su pervised
5 12
ĠSc iences
Ġvehic ular
Ġrout ed
IP AA
ĠN ex
ak a
Ġlib re
erm an
Ġlett ing
p olicy
Ġin efficient
it tle
ĠEst im
ĠI an
Ġapart ment
Ġled ger
Ġcasc ading
Ġsp okes
here nce
ĠWilli am
Ġstand ing
Ġautonom y
Ġex empl
ĠB in
R AT
Ġanalyz er
() ;
ĠNon etheless
aut hent
Ġ ia
Ġevery where
Ġassert ions
G en
r ations
ĠL ife
V C
ad b
Ġw ife
Ġn est
ĠF raud
f i
D oc
ic ol
ĠActive X
Ġsa fer
Ġdeterm in
sp e
ic ian
vel ength
ĠV oice
ĠP ID
Ġcred ibility
own ed
Ġpres idential
Ġanticip ate
Ġph arm
Ġdeep ly
ĠHP C
Ġpen alties
ĠR en
ĠPart ners
Ġ( $
ĠR ules
Ġsyntact ic
Ġtr aced
Ġshif ts
ĠA U
ĠComplex ity
ĠInt elligent
Ġlik es
Ġspir it
10 6
aaaa aaaa
Ġfil ms
Ġabstr actions
re pre
Ġem br
ĠCo oper
Ġlaws uit
ĠOR AM
ou rier
Ġfif th
Ġintegr ates
Ġdam aged
Ġaccom pan
Ġipt ables
ĠS ky
Ġentit led
ĠF D
T IP
Ġaco ustic
sp onsored
l an
Ġin bound
T I
inc lude
T argeted
de velop
ĠMc C
Ġshif ting
b usiness
Ġdiscipl ines
ĠDu qu
Ġhand ful
Ġli qu
Ġaver aged
ĠRes il
ĠRec overy
ili ency
Ġreal m
ĠQ ue
Ġt c
St art
ĠCH AP
ĠP otential
T URE
a T
Ġinequ ality
Ġhard coded
Ġ( .
ĠConn ection
ĠPre viously
Ġpul se
Pack ard
Ġclean ing
U SS
un nel
F urther
ĠO w
Ġover ly
Ġcritic ism
Ġad apter
ĠRem ark
ĠRegard ing
= '
Ġclar ity
Ġf ell
w ik
S ee
Ġgraph ic
) }
un es
Ġdr ag
d est
Ġpred ecess
Ġs acrific
sh adow
Ġed ited
s ql
Ġalgebra ic
ĠR ay
ĠM arc
Ġspars ity
Ġundes irable
ĠB ypass
Ġexplan ations
Ġpreval ence
Ġthem es
ul se
ip al
Ġsurv ive
repre ne
Ġqu iet
ĠD WORD
g ree
S py
ĠM OD
ĠFind ing
Ġdec ay
ĠD river
Ġver ifiable
Ġconflict ing
G ener
Ġdiscipl ine
M s
ĠâĢ ¢
Ġlegis l
ĠVir gin
Ġprepar ing
Ġblock chains
B L
ĠInt ent
Ġdemand ing
Ġsl iding
orig in
Ġres ume
Ġnot or
Ġdisc ont
pr ising
b es
ĠTh ink
11 7
ĠSp an
ĠSh ow
IR T
ĠS audi
ĠG h
ĠSy nt
esh oot
Ġcybercr iminal
Ġst ret
Ġinnoc ent
Ġmention ing
ĠGeorg ia
ĠCol or
det ail
ivari ate
Ġpro actively
ĠM Hz
EAR CH
Ġd pk
ĠC old
Ġfast est
s end
ĠS ANS
Ġt ies
ĠMod bus
N e
Ġapp ended
Ġorgan ize
Ġcur ric
ic ine
14 7
Ġdisturb ance
Ġto ur
Ġemploy er
ĠC over
Ġhouse hold
Ġsty les
P ort
ĠF ox
ĠM R
ĠK re
Ġv on
Ġclos ure
ĠIS BN
J S
Ġmillisec onds
Cy ber
Ġhol der
Ġp y
ĠCom pl
valid ation
Ġanticip ated
ĠB IM
Ġretail ers
Ġincur red
Ġpenet rate
ĠR untime
olic ited
ĠOffic er
Ġvirtual ized
load er
Ġfa ith
ĠFlor ida
ĠB ru
Ġrobot ic
ĠT argeted
ĠMand iant
ĠR og
Ġdec line
Ġsuspic ion
igur ations
Ġd imin
ĠR oad
ĠF ocus
ia o
c re
Ġp lott
me an
ĠJ ones
Ġconv inc
Ġmac ros
Ġs un
Ġconver ting
Ġen rich
i ot
ĠP AT
Ġbeh aves
Ġas ide
ĠMe asure
ĠD ave
ĠT ri
ĠF unctional
Ġformal ized
Ġdeclar ation
ch ip
ĠY u
r us
ĠIDS s
Ġhead quarters
hel f
ĠSet up
Ġ4 43
it ations
techn ical
Ġjust ify
Ġbill ions
ĠRout ing
av or
So ftware
Ġtable t
Ġdest inations
ur a
EM U
;& #
Ġsusp ended
ĠAss ume
Ġt une
Ġdis par
Ġapp endix
Ġencour aging
ind ing
sh are
pt ive
Ġass ure
ĠEn h
c hen
Ġself ish
Ġ3 60
Upd ate
Ġt ang
Ġsw ap
ĠRES EARCH
Ġmut ually
ĠT ay
ĠRight s
ĠM ob
AN CE
F O
ĠAnn ual
ĠHist or
ĠS ent
Ġpur su
ĠJ oint
Lib rary
ĠB E
Ġext ortion
ĠZ oom
Ġinvent ed
Ġ1 40
ĠAdd ing
Ġworkload s
Ġqu otes
Ġsan ct
Ġv et
ĠA G
or acle
ĠD istr
Ġsh apes
Ġdece ive
Ġm i
ĠMod erate
Ġg am
ool s
Ġuseful ness
Ġcentr ality
Ġextern ally
Ġdig est
ĠJ ob
Ġiniti ator
EC TION
ĠI re
ur able
olic ies
Ġ1 60
Ġprom oting
ĠI ter
ĠS ecuring
Ġcivil ian
Ġinher it
f ont
Ġli able
Ġinject s
Ġlog on
Ġmathemat ics
ĠDeep Fool
Ġrest ored
ic ians
p ng
ĠD EEP
vel l
pp y
W P
ĠSecret ary
Ġsp onsored
r ain
AC L
struct ions
ĠB etween
Ġvocab ulary
Ġun common
Ġn inja
Ġsub domains
ĠProf essor
Ġt een
Ġalgorithm ic
lang pack
Ġsuic ide
n an
ĠIn nov
Ġansw ering
Ġappe al
Ġconver ges
Ġscal ed
Ġf ict
Ġbottlen eck
ĠM iller
Ġpro position
Ġst ays
Ġg ift
ĠTel net
ĠIde ally
Ġb ands
14 0
Ġtact ical
o ys
ĠF ar
Ġsim ulating
30 8
Ġsevere ly
Ġi i
Ġlab elled
Ġprol ifer
Ġin version
Ġb low
ag onal
g ement
ĠC amer
ĠD ARPA
dem and
Ġlaun ches
ĠIT S
ĠQual ity
Ġl en
ĠEN ISA
ĠMem bers
Ġb oss
Ġfight ing
IS K
P GD
Ġ ith
Ġconcurrent ly
ĠN ets
ĠN FC
ph ic
ĠW indow
d ed
al pha
r ors
B U
ĠT E
Ġha w
ĠP on
TER S
Ġexam ines
Ġdev ast
ĠR PM
Ġdash board
Ġactiv ations
eng ers
Ġtop ological
Ġprint f
st atic
ke eping
Ġ" /
ĠRE LEASE
ĠG host
D ES
ĠThrough out
e ap
ok ing
ĠUnivers al
14 1
W in
al er
it ate
ĠI L
int ensive
Ġab brev
sh ots
Ġt aught
ve hicle
Ġv ir
load ing
Ġl ure
Ġre writing
ĠG ro
gi ene
1 32
ather ing
Ġvis itor
Ġad verse
b ash
ĠOS I
Ġbund le
Ġtit les
ĠDirect ive
Ġr ac
IS P
ĠAccording ly
ĠAutom atic
ze ged
+ --------------------------------
Ġneed ing
ĠR everse
Ġcont ention
ĠPar liament
pos ing
Ġref ine
Ġout lier
Ġphot ograph
Ġscam mer
Ġquer ied
Ġglob e
ĠAfric an
ĠH idden
Ġsyn c
Ġin ability
01 0
are r
Ġdoct or
s ym
com ings
' ve
Ġm yst
ĠL ou
c py
ĠBe gin
gress ion
driv ing
Ġen vision
kr b
Ġmotiv ate
ĠS ir
ĠG i
Ġredirect s
amb da
end ers
ke ley
Ġpar sed
ĠAss umption
om in
s is
Ġur ban
mit t
Ġp ane
onom ous
h ou
ĠR ow
O nce
Ġk il
ur ious
ĠR i
ĠLL VM
ĠDistr ict
ĠT ow
Ġlibre office
r ack
ĠNetwork ing
ĠC reat
ĠAPT s
' ]
ĠSp y
Ġhex adecimal
Ġmicroarchitect ural
ĠModel ing
lear n
o cc
Ġinstr uments
supp lied
i ability
Ġinadequ ate
v ia
Ġpr on
Ġla id
Ġres erv
zeged y
ab it
ĠMIT M
U p
Ġreg ulated
mod ified
W are
Ġvig il
Ġmotiv ations
Ġinf ecting
ad vers
ĠDo es
Ġacceler ate
There fore
Ġav en
ĠFr ont
Ġcompet e
Ġn ss
Ġsuccess ive
24 2
Ġtend ency
Th read
Ġfigure d
d ra
Ġorigin ate
ic her
ĠN IDS
Ġco arse
Ġprint ers
Ġsp ying
Ġcustom ize
18 0
Ġregul ators
Ġpost gresql
ĠDr upal
initial ized
Ġintercept ing
Ġengine ered
ĠSam ple
P riv
control ler
ĠS K
ĠZh u
Ġcitiz en
Ġdownt ime
r v
ul runner
c opy
ĠCO UN
ĠF M
Ġdead line
C ode
ĠAuth ors
neg ative
db g
Ġm iles
tr ace
ĠBe havior
Ġlight ing
ĠArch ive
at us
cont ract
Ġf ing
Ġrest oration
ater ial
ĠGr ay
ĠIre land
det ection
Ġdisconn ected
Ġli ber
ER S
Ġhijack ed
t ask
' '
pro c
Ġms f
Ġm il
Ġtr uck
Ġwork shop
Ġsp ring
Ġcl imate
Ġcheck er
Ġ19 92
ĠUnt il
Le aks
ĠMag azine
ĠEas y
Ġalle v
il ot
( $
Ġanch or
reg ard
n P
t wo
Acc ording
j ax
Ġelimin ates
O K
Ġdown stream
Ġterm ed
y ers
ĠAngel es
ĠMo ore
Ġf t
Ġste ering
bre aking
Ġi Cloud
Ġign oring
Ġcompens ation
l arge
Ġportfol io
Ġwear able
Ġsubmit ting
Ġkeylog ger
ĠOP ER
5 14
Ġwatermark ing
Ġre write
ist ered
pect ing
Ġn ont
conn ect
Ġpossess es
Ġprec a
Ġfr ustr
Ġcanc el
Ġp ione
Ġprior i
ĠG E
ĠAC C
Ġprint s
ĠPh ilipp
) "
Ġmes h
Ġcomp ress
ĠAl ert
Ġbo olean
Ġsp ray
Ġelect ro
Ġcategor ize
A m
patch ing
Ġprohib ited
ol ved
Ġded uce
e in
Lab s
Ġq emu
Ġsanit ization
Ġhypothes es
Ġasympt otic
ĠMond ay
Ġal ive
ĠT C
s ur
Ġgarb age
Ġguilt y
Ġshort comings
ĠExper iment
k es
ĠM IL
R ed
Str ing
Ġuns olicited
gu ard
Ġcompl aint
Ġupgr ading
t i
00 4
Ġth ro
Ġ1 80
V s
hip s
Ġdo g
Ġsu pers
ĠAn omaly
ĠT M
ĠP oss
ĠTrad itional
C ert
Ġdraw backs
Ġbreakpoint s
ĠPo ison
it ch
Ġb ars
ĠS und
Ġw alls
Ġtrack ers
Ġt ensor
ĠAP K
ĠA LL
Ġrev oked
Ġpoly m
) /
ĠTerm inal
ind s
ĠPartic ip
r m
s ince
Ġdisturb ances
ĠSP I
Ġpat ents
Ġpop ulations
Ġc ust
ĠL td
Ġcomm ission
ar n
ĠAppro ach
me ans
ĠStud ies
Ġp aint
Ġsym pt
ĠMc D
lo om
Ġstri p
Ġsched ules
ĠCred it
ĠM el
+------------ -
ĠD ist
overn ment
ĠCam bridge
Ġsatell ites
iz ard
Ġhe aring
Re g
ĠNAT O
Ġdut y
agn ostic
Ġ 0000
Ġb is
riv en
ĠWik i
ĠUn less
11 4
perform ance
pp ler
Ġann oy
Ġerrone ous
ĠY e
Ġwa velength
ĠCOM M
e vent
Ġscal ar
Ġbuy er
im p
Ġperipher al
head ers
ik es
ser ies
m id
iss on
ĠWhere as
R un
ĠEvent ually
ĠQ KD
ĠN ames
Ġdescript ors
Ġe lliptic
ĠCor porate
Ġhop ing
Ġhe ro
aut om
ĠWeb site
ĠRy an
ed ing
Ġfill ing
ĠE le
Ġrep orter
ĠSim ply
lo red
all ing
ĠVII I
ĠE VM
Ġincred ibly
Ġstate ful
Ġt one
10 8
Ġassoci ations
F ix
Ġ==== =
Ġa uction
ĠIn ception
Ġbudget s
Ġuncertaint ies
ĠF ake
ĠS F
to ol
sec ured
tx z
Con f
Ġtop ologies
ĠSpan ish
P ar
Ġleg ally
ĠU l
Ġcompl aints
ind ust
feren cing
Ġpert aining
Ġp ins
n ic
Ġin accessible
it atively
Ġtel net
T AC
Ġelect ron
ĠMay be
ĠS up
un iverse
Ġsemant ically
R HSA
Ġdomin ated
Ġoverlook ed
32 7
pr act
Ġun pre
ou fl
ĠN ov
Ġconsult ant
Ġexpress ive
M et
Ġconver ts
ĠD SA
Ġdeterm ination
Ġwe aken
Ġrepl icated
SS EC
Ġsequential ly
ĠG entoo
Ġinstant iated
Ġres c
ĠD a
ĠB T
Ġphilosoph y
ed om
ĠH or
ĠD ATA
empl ate
Ġsubject ive
wh o
s el
Ġris ing
Ġinvok es
Ġtroubl eshoot
Ġpreser ves
Ġt ion
Ġdef ects
Ġleg it
Ġemploy ers
Ġpropag ated
Ġpre requis
Ġund ers
n amed
0 80
m essage
sh ared
Ġworkflow s
Ġret ention
p arent
ĠS enior
c ar
Ġs lo
Th us
Ġshe et
Ġi T
Ġin appropriate
Ġa u
Ġreg ret
Ġresp onder
ĠCarol ina
ĠEng land
Ġequ ality
r ons
Ġcl ip
u ent
ce an
ĠF E
l inks
ĠEqu ipment
7 00
ld er
Ġunreli able
ĠP ir
Ġmod em
ĠJ im
in ating
ĠSpec ific
ĠOrig inal
y c
Ġpass port
Ġsol ar
U ID
ĠT itle
ex cept
Ġg ig
V S
ĠH ill
ĠScan ner
ĠT ables
ĠB LE
ĠI MD
reg ular
ĠEns ure
ĠI IS
ĠPRODUC TS
Ġor iented
D om
ic ator
ch at
ĠE cho
ĠF I
2 13
ĠR HSA
14 4
ĠLi ber
( ,
Ġph rases
omet hing
ĠSh ared
com ments
ĠAl pha
Ġsh ipped
Ġind uction
im port
] [
Ġad ults
Ġsubs id
ĠAd aptive
ĠB ro
Ġneg atively
ock ets
ĠPr ime
ĠS ER
ad y
Ġat om
Ġconv in
ĠEd itor
Ġpair wise
ĠStr ong
R AM
ĠP ent
ĠEst on
Ġtext ual
Ġres iliency
ĠT iny
Ġl ane
Ġstr ange
tr ue
Ġsynthes ized
a uthor
ĠX eon
ĠTay lor
Ġ um
Ġfluct u
ĠReg ulation
Ġsucceed ed
Ġspot ted
Ġspam mers
Ġaction able
AD I
Ġu pt
ol ars
ĠTrans actions
la unch
Ġfi ber
ĠF S
Ġpul ses
Ġun fortunately
ĠPl anning
Ġ19 91
ĠEnc rypt
i encies
ĠAl liance
system s
Ġt ampered
P er
per f
af ety
Ġphot on
ĠPaper not
Z E
ĠM im
ugh t
Ġpropos ing
Ġdisadvant ages
ĠO h
Ġz eros
mon th
ĠMess enger
w atch
Ġjournal ists
Ġcompr ise
ĠD ell
Ġdist rict
ĠBack door
Ġc m
Ġpreser vation
Ġprob able
Ġcollabor ate
Ġback bone
Ġâ Ĩ
Ġmerg ing
ĠM ur
L AB
Ġt ier
Ġout lines
Ġ10 4
ĠQ EMU
b ad
Ġret ained
Ġr ail
ROP ER
ĠStr ing
Ġsell er
ig ration
igg ered
Intern et
Ġimport s
f lo
t oler
mark et
Ġth ick
ĠIMP ROPER
H ost
Ġun ob
ĠPe er
ic as
ill ed
ĠJohns on
Ġgrad uate
ĠS ong
ĠDISC USS
ĠSub scriber
astro phic
el d
ĠFail ure
Ġins pir
Ġge ometry
Ġse at
Ġexperiment ally
ĠD EC
ĠWh ich
ĠG S
Ġle an
Ġdi agrams
Ġk ick
ĠBack ground
Ġar c
l anguage
Ġt empt
Ġguess ed
Ġmas ks
AN Y
pos itive
ĠRe le
ĠAware ness
Custom ers
s helf
12 2
ĠUnic ode
ĠS AM
ĠPos itive
F LO
Ġconcent ration
f ish
ĠE ll
Ġmis match
Ġpassph rase
re le
St ep
Ġcrow ds
E r
Ġtal ks
Ġf ax
Ġbroadcast s
i u
St ate
da emon
ĠAc qu
Ġlicens ing
Ġfol ks
ĠLOC ATION
M ail
hed ul
onor able
W T
or andom
Ġrestaur ant
Ġtext ure
Ġpan ic
Ġ3 65
Ġre vised
Ġmem ories
es pecially
Ġvol unt
Ġinform ative
Ġal pha
ight s
Ġresol ving
Ġmarg inal
20 8
ĠR a
Ġpers ist
des ign
Ġobfusc ate
ĠD OC
Ġw ip
ĠV lad
Ġcounter fe
ĠFr iday
fusc ation
Ġworkaround s
in n
os ing
Ġthreat ened
ĠZe us
Ġampl itude
Ġeditor ial
h our
Ġauthent icating
ĠB irth
Ġterror ists
Ġl acking
ct or
ĠMet rics
Ġtr act
3 01
s ome
c pp
Ġinc on
Ġreli ance
p op
ĠY ang
Ġsepar ating
ĠInc or
UC TURE
Ġtrustworth iness
N B
fact ory
an ium
Ġaccount ed
Ġred es
Ġsh ock
âĢĻ .
Ġy ellow
Ġl s
ĠR B
Ġsh ipping
Ġanim als
l am
Ġcentr if
Ġprov isions
O B
ĠD ATE
it ably
Ġ0 8
ĠAl most
ell ite
70 7
Ġar ising
ĠCon sole
ĠSpr inger
Ġf o
comp rom
am ples
ĠCo ord
Ġaward ed
prot ocol
ĠS lackware
32 3
In fo
M al
Ġentert ainment
cr imin
M R
Ġinvest ing
ĠBi ometric
ĠW at
ĠMex ico
Ġche aper
ĠSM T
O UR
r aries
ĠM IM
ĠE AP
ĠC le
ĠC B
ony ms
op her
ĠF ive
ĠM is
Ġ1 18
Ġconvinc ing
Ġmult ilevel
Ġop code
Ġren amed
Ġaccompan ied
Ġoptim um
P ath
Ġcontract or
hers elf
in em
Ġrelax ed
Ġon board
ĠV P
ĠDo D
d ep
tr uth
ou ther
ist ical
Ġsupp lies
ĠEnt ry
le e
ĠA NN
ĠCh ain
pat ches
bl ue
ĠN AS
Ġselect ively
ĠIdent ifying
Ġg a
Ġmanip ulations
im ilar
ĠSp ain
act ed
ĠS ector
Ġpick ing
ur ies
Ġde vised
ĠCom mercial
ST R
uc r
d ifferent
or atory
Ġinacc urate
ĠStep hen
ĠPM U
LO Y
ĠP rom
ĠOpen V
ĠPac ific
p ol
d ue
Ġsl ices
24 0
b ol
Ġent reprene
Ġtheore ms
Ġcount ed
Ġsqu ee
ĠSen ate
Ġd ies
CS I
Ġgo ogle
vert ising
ĠSt ream
P r
Ġdec imal
ĠCert ified
ĠB rian
Ġviol ates
Ġsub rout
ĠDet ecting
Ġdiscont inu
pro ject
ĠV A
al though
ĠCh ic
ĠMan ual
ĠBas ically
ĠTyp ical
Ġcompr ising
bal ance
28 2
ĠIdent ify
ĠP ak
p a
Ġhint s
Ġexperiment ation
outher n
h us
Ġd u
ific ant
D O
ĠZ ig
Ġphot ons
ĠP redict
Ġgarb led
ĠP oS
miss ible
ĠB SD
In ter
In formation
Ġretrie ving
art y
ĠDrop box
Ġhel per
id en
ĠOffic ial
ĠWSN s
Ġfe at
S yn
ĠM AS
M em
ĠK L
dig it
ĠBer keley
ĠEss entially
C V
Ġiniti ates
b ank
S ource
Ġr u
ro t
Ġwarrant ies
propag ation
Ġundet ectable
10 9
Ġcour ts
Ġfeed ing
ex isting
Ġpresum ably
al a
Ġz ombie
ĠCon versely
ĠCF G
ĠG T
Tr ust
Ġprovision ing
U E
al and
Ġminim ized
acks on
g ood
Ġdis miss
ĠAss embly
Ġtremend ous
C WE
Ġconfigur able
Ġadjust ing
ĠGAN s
ĠS a
ĠBru ce
er k
Ġcooper ate
S H
ĠSpr ing
ĠW u
Ġconf using
ĠF requency
ĠH IPAA
wr ites
Ġp aging
Ġno body
Ġamb igu
ĠD ense
Ġdiver gence
Ġinter depend
ĠNET WOR
valu ed
Ġz ip
20 6
Ġaccount able
ĠCh a
Ġblack box
Ġinfiltr ate
ĠVer izon
Ġear ning
Ġqu arant
Ġdisrupt ive
Ġimp ression
Ġcent ered
35 8
Ġsubsc riber
ĠX u
Ġgovernment al
ter ror
Ġpar am
Ġdecrypt s
ĠLab el
Ġsub space
Ġshould er
ĠRESEARCH ER
ĠD V
ĠD IFF
inger print
ĠD ish
l aim
ĠT w
Ġmanufact ured
cc m
Ġaccident al
end ment
Ġforgot ten
m ount
Ġauthor itative
resp ons
m akers
Ġb il
Ġw are
ml cs
Ġsupp ress
Ġcont am
ĠR oy
Ġcollect ively
Cred entials
ble ed
Ġweb server
Ġcategor ical
ĠMet a
St ream
Ġdece ptive
' :
Ġped est
gricult ure
TR UCTURE
RAS TRUCTURE
F rame
st one
Ġconv entions
Ġclar ify
TL M
ĠS ide
ĠCon str
C ore
Ġst acks
Ġrol ling
ĠFore ign
Ġprom oted
H and
ĠP KI
ĠCT F
hib it
Ġcl ues
ĠINF RASTRUCTURE
ĠP ict
amb ling
ĠF unctions
Ġnon ces
ĠChrist ian
K C
Ġmod ulo
Ġobser vers
Ġd ots
ĠC RC
EN TS
ĠT ab
ĠI r
ĠF ashion
z o
Ġthreat ening
Ġult r
ĠN ear
Ġsh ips
i ro
ĠT AC
Ad min
Ġobserv ability
ĠDou ble
e ither
Ar ch
anc ies
lo y
p redict
Ġt f
ĠIM AP
Ġ19 88
Ġclock s
P D
Ġun iverse
ws us
let ter
Ġinadvert ently
ĠM ilitary
ĠR ing
Ġstrug gle
Ġdecrypt ing
us p
ĠF eed
Ġacc idents
ĠAUT OM
ĠB ing
Ġbroadcast ing
Ġcl auses
Ġinstant ly
Ġwh ilst
C heck
Ġhaz ards
ens ing
Ġview point
ĠB IND
Ġhyper parameter
s mp
Ġexplo res
ĠI KE
ĠP TR
C ol
X iv
11 3
Ġlaun dering
Ġexp ired
ĠP in
Ġmor al
ĠInvestig ation
al ian
Ġg n
an et
ĠU ber
Ġlay ered
ĠConv olution
Ġlaw yer
ĠC MS
new s
w ave
ĠPort al
Ġposition ing
Ġexfiltr ate
Ġdevast ating
Ġpol itic
ĠGet ting
ĠLeg al
Ġgroup ing
Ġcompar ative
Ġmerch ants
m ade
ĠRec ord
Ġmix ing
Ġquestionna ire
ĠC GI
Ġensure d
Ġyou n
ol es
n am
t ree
ĠM u
Ġsum m
Ġor bit
Ġheter ogeneity
ĠB EC
ĠUS D
Ġ======== ==
C isco
omet ers
Ġstegan ography
110 9
ĠSem antic
ĠColl abor
L OC
Ġb ol
v as
Ġp ays
Ġbit coins
gram s
ĠEL F
he ld
Ġmask ed
Ġf ines
Ġsal iency
ĠAgain st
Ġderiv atives
cf m
Ġmaxim izes
Ġmeter preter
s ample
v o
a que
we et
Ġscrut iny
re lease
Ġcontact ing
Ġtravel ing
ig her
Ġth inks
ach able
st ud
opt im
O ther
gent oo
13 5
f unctional
Ġannot ation
Ġclass ifies
sh own
ĠW R
Ġacceler ometer
Ġbuy ers
Ġminor ity
Ġsl ave
\ \
Ġto y
o ch
Ġatt orney
ĠHealth care
Ġadvert ised
u ke
ĠO ptions
Ġpseud orandom
ĠSyn ops
Ġh ops
ĠPop ularity
ĠDis charge
Ġl ag
Ġdeal t
ĠSupp lement
Ġover writing
Ġdeclass ification
oc ations
ĠÂ £
Ġe Bay
ĠCHAP TER
Ġ19 89
200 3
w alk
Ġb on
umer ic
ns el
19 0
cor rect
H ack
ĠMS E
ĠR oman
ĠSh aring
om ed
ĠElect ronics
U sers
Ġout standing
ĠDef ault
Ġvan illa
Ġg ear
Ġkn ock
EN G
Den ial
ĠA MI
/ )
99 9
ĠProv ider
Ġdoz en
an aly
Ġv en
Ġsupp lier
Ġtransform ing
M ult
ĠL en
Ġdiscrimin ative
cv ss
Ġill um
ĠCons ult
for cing
ĠPo isson
o en
ĠMin ister
he tical
Ġp ot
ĠBob by
ĠG ames
ĠSubsequ ently
Ġc ab
cont act
ĠCOUN TR
Ġhere in
Ġfuzz ers
ĠUlt imately
Ġde bit
Ġprof itable
ĠMach ines
Ġout ages
wh ite
ĠB O
Ġmodel led
Ġl ingu
ol i
Ġshar p
ex istent
Ġd b
Ġspecial ists
Ġprem ise
ĠChic ago
Ġrepresent atives
Ġassoci ates
Ġn arr
def in
Com put
ANN ING
w al
Ġblack lists
am av
In it
Ġsp orts
Ġc urrencies
im it
t z
Ġloc ating
ĠDef enses
Ġf idelity
ĠC Y
Ġaccom pany
Ġcat astrophic
ĠTyp es
ĠIntegr ated
ex per
ĠP ear
ĠCons umer
ĠN avig
Ġob sole
Ġinstant iation
ad i
ĠAF L
ĠS aaS
ĠCritical ity
Ġl ect
ĠZe aland
ĠJ SMA
gre SQL
inte gr
9 00
cons cious
Ġtransfer able
Ġto wn
Ġconcent rated
Ġad ware
Ġal beit
Ġaver aging
Ġcirc les
ĠM aking
Ġunre stricted
ĠB ang
Ġg it
um s
ĠN IC
Ġorig ins
Ġdil ig
ĠComm ons
Ġb read
Ġsp aw
G ET
Ġfragment ation
Ġclassification s
Ġstandard ization
O ver
ĠDevelop ers
Ġcompet itor
Ġformat ted
Ġnet cat
ĠEm ot
ĠT EC
Ġrec urrent
ĠC it
ann on
Ġbill ing
ĠA h
let on
ĠSC ANNING
Ġcommerc ially
Ġbrok er
poss ibly
ig e
Ġear ned
Ġsnap shots
ben ch
Ġsp ite
12 4
ĠOb serv
W AN
ĠS ITE
: [
ĠM BR
-------- -
ilt on
class ified
ĠP ixel
ly mp
Ġsu ites
ET F
ulo us
Ġinqu ir
Ġfl ips
ĠE T
i ological
ĠB B
V P
23 8
Wr ite
w p
ĠM ember
Ġir is
Ġporn ography
Ġamaz ing
aff ected
ĠL M
by tes
s ccm
zer land
ĠCh ild
ol ent
ĠC ivil
Ġdis honest
os a
loc ate
ĠProgram s
Ġdiscret ion
Ġover t
Ġsk etch
c i
ĠForens ic
ĠDEP LOY
ent r
ĠF irmware
onom ic
Ġmiddle ware
om y
Ġconcent rate
Ġres idents
ag le
ĠF eder
ĠOr der
Ġenc odes
Ġroot s
Ġhur t
Ġannounce ments
rob ust
n ight
ĠSEC T
ĠCOMP ANY
ĠRequire ments
Ġcalib ration
nb sp
Ġdef ic
ĠSUM M
Ġdisgu ise
Ġun man
en ames
res olution
Ġinflu ential
t ags
Ġfoot hold
Ġnow adays
Ġunp acking
Ġsp anning
IC UL
Ġill icit
Ġair ports
Ġout lets
ĠImag ine
Ġexchang ing
B ack
b ec
Tor rent
Ġa st
B ase
m b
download s
ĠMon te
Ġf ish
ĠContract s
Ġ herself
Ġv ault
ĠMat hemat
Ġass ault
C AN
75 4
c u
h u
Ġfor ge
ĠOpen BSD
Ġrecip e
Go ogle
ĠM M
Ġsp ike
Ġdecl are
Y PT
ĠTrans mission
Ġreal izing
ĠN ations
up load
S earch
ĠQuant um
Ġun not
Ġstand point
Ġexpress ing
ec raft
Ġem ulated
ful l
Ġaxi oms
aps ed
ĠO lymp
Q N
ĠM AN
Ġtight ly
N ow
Ġroot ed
ar ming
Ġcoll apse
Ġworld s
Ġretrie ves
R ank
ĠCompar ing
ĠNS F
Val ue
ĠC BC
ĠMot iv
ĠDav is
QU AR
p n
ĠLat in
Ġbill s
Ġspo ke
I ns
ĠB log
pl us
ant om
Ġvari ability
ra q
Ġhead ed
Ġsat is
E U
hod an
Ġreg ulate
us n
Ġtheore tic
back ground
Ġrat ios
Ġdem o
ĠSwit zerland
rec ogn
Ġemot ion
p in
Ġdepos it
ro c
Ġprolifer ation
m osp
Ġs v
Ġk rb
x b
Ġabs ent
Ġh ides
av ity
man agement
ĠR ST
ĠB AS
22 9
Ġprem ises
ĠBr idge
Ġconstruct or
Ġworm hole
ĠBas eline
Ġhook s
Ġsys log
Ġal i
Ġexpect ing
ĠMe as
w i
Ġp ause
Ġinter change
Ġide ally
ĠF TC
g g
ĠL ay
char acter
Ġdisc losing
ĠT en
Ġpol itics
ĠDEPLOY ED
/ ).
Ġpositive ly
Ġind uctive
enc oders
amet ers
Ġn ick
Ġweek end
Ġcasc ade
11 6
i ber
Ġcoin cid
Ġtra verse
ARE AS
w ire
13 6
Ġupload s
check ing
ĠCOUNTR IES
ĠProtocol s
m ask
Ġinv ited
Com p
Ġinf erring
ĠSh ould
riv ing
ĠPat rick
4 86
Ġfe els
sim ilar
al con
Ġaccum ulated
M o
ĠL uc
Ġspreadshe et
Ġallev iate
Ġyield ing
d og
ĠEm bedded
Ġadapt ing
Ġcred its
Ġspecific s
cl uster
Ġinev itably
sp an
------------ ---
ĠKnow ing
d its
ĠExt ended
( (
Ġgir ls
Ġf ans
as m
ĠT ax
Ġcontrib utors
ip se
ĠRet urn
ĠG C
Ġlong est
ĠIdent ifier
B lock
ĠContinu ous
ĠRe gression
ĠAP P
13 8
bot tom
Ġpartic les
14 5
ĠN a
ph ony
S pace
Ġd ashed
Ġalloc ates
ĠR RE
ĠAppro ve
Ġke yp
Ġanalog y
Ġc ables
Ġwe aring
Ġaff il
ĠHEAD QUAR
ĠHEADQUAR TERS
w x
ĠU TC
ĠEmer gency
t l
âĢ ĳ
Ġadopt s
Be gin
Ġpentest ing
ĠAUTOM ATED
t k
ĠAss istance
Ġlo y
ĠB us
Ġgl ance
Ġdescript ive
ĠVER SION
ĠJacob ian
ĠDB MS
Ġexpir ation
Ġbreak down
Ġcoll ateral
Ġl iveness
O G
li ents
An other
ĠTr u
D AR
Ġdis allow
riv ially
Ġint act
ĠLIN KS
ĠG L
ĠW H
ĠWr iting
ĠIss ues
Ġact ed
50 4
f ound
ble ms
Ġtag ging
ĠOptim ization
ĠK ur
Ġinvest ed
do ors
Ġpin point
ig ation
I J
Ġsur ge
Ġdi agonal
Ġpros pect
H at
hem eral
v ille
p ic
Ġeavesdro pper
ier ra
Ġchecksum s
ĠPat ches
Ġlo an
Ġre load
Ġre build
Ġinform s
gr y
h ack
Ġfr uit
CS P
ĠDish onorable
h uman
ĠL E
ĠLe on
Ġs outh
ĠStan ford
Ġwor ried
w ater
ĠConf idence
orph ism
Ġover se
ĠSECT ORS
ĠPh ot
ĠF ood
ĠCom merce
Ġw ond
yn et
Ġdest ined
Ġrecord ings
ĠESX i
Ġa str
ick et
s iemens
ag ger
ĠStat istics
gin x
Ġshould n
Ġdisconn ect
ĠI EC
he nd
ĠL ar
Ġ1 10
ĠN O
Ġsk y
Ġdev ise
Ġprom ises
Ġp s
Ġbro ther
Ġs ql
ĠPost greSQL
Ġfals ification
ul z
E ach
ĠMan ip
Ġnond eterm
Ġspecial ist
ĠAnt ivirus
C reate
be at
ve x
ary ing
ĠC As
Ġcle ared
Ġreview ers
Ġsubsc ript
Ġsw arm
L D
Ġref use
ĠCo in
Ġl p
ĠIn form
Ġsupposed ly
d ays
Ġn ons
P ay
Ġval ve
ĠComput ational
H ere
Ġinev itable
Ġdeno ising
ĠPh ys
Ġrecogn izes
ere x
rol led
: "
ĠBr and
ĠRecomm end
IF T
Ġh p
Ġindex es
ĠEC DSA
Ġgrant ing
ĠM all
Ġn orth
ĠF og
Ġcas ual
il ly
Ġ19 86
Ġim poses
ĠOper a
Ġcategor ization
ĠiT unes
Ġdram atic
M any
Ġachie vable
bu ffer
it ious
Ġacadem ia
Y es
ĠH en
Ġconf use
opens sl
m i
Ġprom otion
ak in
ĠZ one
Ġind ict
ĠCol umb
} .
Ġeaves drop
Ġdisrupt ions
T RO
qu ant
p ret
man ager
Ġodd s
ĠG ay
22 2
Ġwin ner
Ġwar m
op ol
ĠEV ALU
ĠIt alian
c ape
ĠA RC
Ġint uitively
ĠEth ical
ax y
ĠApp lying
Ġinstrument ed
ĠF T
ĠW AN
Ġnot ices
Ġfool ed
Ġre actions
ĠB and
ĠNorm ally
Ġn ets
ĠVirgin ia
m t
row s
ĠF ab
Ġsub domain
ss l
Ġdep rec
prising ly
b ots
ĠBrit ain
ipl inary
Ġmind set
Ġunre al
f in
Ġpolynomial s
Ġharass ment
ĠA ur
Ġaut oc
ĠEd ward
Ġactiv ists
Ġdang ers
Ġconting ency
ĠX X
ht m
exp ensive
ld ap
typ es
Ġest ate
er ies
if ax
Ġappe aling
ĠUpd ates
ĠMITIGATION S
ĠG CN
Ġprov ably
ĠKal man
Ġprompt s
ou p
Ġsing ular
ĠG ra
ĠRES T
ĠComput ers
ĠHel lo
ĠTransport ation
IT RC
ĠResil ience
Ġcompens ate
Ġcontrovers y
ĠV ery
Ġ==== ===
Ġfalse ly
ĠSUMM ARY
B T
Ġconsum es
Ġcl im
14 3
Ġperce ive
ĠM ike
Ġgu ides
d iff
in ery
k vm
erial ization
am iliar
typ ically
ĠTh underbird
c oll
Ġpl astic
pc ap
B ee
ĠSar ah
Ġj e
Ġeconom ics
Ġdownload er
Ġsus ceptibility
V irus
ĠD al
ĠSer ial
Ġres emble
ĠRe ading
ĠC ounty
Ġsub jected
r ication
De vice
Ġtab s
plug in
ĠL TL
b low
Ġproduct ive
B G
Ġref resh
av en
Ġm ort
Ġroutine ly
iss ue
Ġcapt cha
Ġformal ization
Ġobsole te
h acking
24 3
Ġresol ves
syn c
Ġdisc overs
ĠIns urance
Ġhy giene
Ġtrust s
Ġran ks
ord on
ĠEas tern
ĠM oh
ĠMo ving
ĠTel ecommun
Ġarrow s
l r
Ġ1 15
pt r
pl aces
L T
ĠC AS
ĠCort ex
ĠPass words
g ate
Ġen velop
Ġref used
ĠChang es
Ġcam oufl
Ġpubl ishes
Ġ0 3
ĠTh read
Ġlist ings
ĠCon clusion
enc oded
Ġoper ands
Ġb orn
ĠRE AD
ID E
Ġmitig ates
ĠDis k
ĠAlgorith ms
Ġmist aken
Ġbund led
c reate
ict or
Ġpred omin
Ġrelig ious
Ġrecurs ively
Ġt ed
Ġhand ed
ĠAppl ied
ĠF ault
ĠInte ger
Ġpass enger
meas ure
Ġless er
re ce
ĠG l
col or
ĠJose ph
M ost
Ġmechan ics
Ġcraw ler
Ġjust ified
Ġrepl icas
Ġqu oted
A FT
13 1
ĠTH IS
b as
AR M
ĠCrypt ographic
Ġpartition ed
Ġdeb t
Ġc p
ĠRes olution
Ġinspect ing
Ġsuper visory
Ġhom ogeneous
ĠRes ources
Ġdirect ors
Ġobsc ure
igm oid
ĠE sc
Ġyoun ger
Ġal ike
Ġpress ed
ĠS ierra
ag ick
ch as
ĠII oT
ft pd
ros so
ĠSybil s
Ġconvin ced
/ +
uc le
Ġperipher als
Ġkeylog gers
ĠR ISK
Ġstr and
http d
Ġr amp
O ffice
ĠF air
ID s
anc er
Ġent ails
13 3
Ġst ole
in ner
Ġ* .
Ġpen al
Ġsynthes ize
us hing
Ġweek ly
Ġhack tiv
ĠKE Y
Ġcrash ing
Ġdiagn ostic
ced ented
ba it
ĠN X
Ġre jection
am ous
ĠW OR
ĠP AN
ĠH um
ro ck
ond uctor
P UT
ĠJ en
olog ists
ĠG ar
ig ms
00 3
B usiness
ĠExploit s
Ġcreat ivity
Ġlog ically
t w
0000 1
Ġd augh
Ġ0 6
ĠCh uck
Ġ19 84
2 64
E xt
ĠL A
Ġdec ou
ĠP II
ĠAl an
Ġsort ing
Ġinj ury
E d
ĠS hodan
ĠComp onents
Ġconc ert
H D
Ġcal endar
ĠN G
Ġauthor izations
Ġsubred dits
Ġindex ing
ĠLog in
Ġment ions
Ġfl ipped
Ġoccup ied
Ġhold ers
ĠAnaly zing
ĠAr g
olog ically
Ġbl ame
Ġag ile
ist ers
ĠT F
Ġun cond
er ver
Ġ1 11
Ġrelax ation
el ve
Ġent ang
Ġint ense
op es
az y
Ġroad s
UM ENT
Ġsend ers
40 4
Ġhead ing
H y
Ġt rivially
oh n
Ġnever theless
Ġoffer ings
Work s
Ġapprec iate
Re lease
c ale
Ġ ion
ĠM ount
Ġwr ap
Ġcur ious
Ġvent ure
ĠSc anning
Ġpl ate
et ies
Ġj ourn
ĠM IME
ĠPro perty
ĠSil ver
ĠO k
Ġthrow n
Ġanalys ing
Ġhypot hetical
Ġb ond
Ġab und
inf ected
st orage
ph ase
V A
Ġthe sis
Ġafter wards
elt a
ut ations
ĠN TLM
ĠN IS
Ġarrang ed
ĠTer ms
Ġparticip ated
pd ump
Ġrobot ics
ĠRobust ness
Ġcollect ions
ategor ies
ĠGP L
ĠPay load
Ġdoll ar
ĠS low
Ġg pg
m ind
Ġcould n
Ġunpre cedented
ident ified
Ġimp ressive
ĠFor ward
Ġst ems
pro b
K G
us pecting
ĠL uck
Ġcryptograph ically
ĠSh ield
Ġparameter ized
ĠF lex
ĠSynops is
Ġlaw yers
F inally
Ġ0 2
ĠR GB
ĠâĨ Ĵ
Ġdem ographic
Ġrestrict s
ĠR afa
ĠIns pector
v ec
ĠNe g
Ġbe at
ĠRel ations
Ġnames pace
ĠResp ons
Ġteac hers
Ġin active
ug es
Ġjurisd ict
Ġpod cast
Ġchart s
ĠS ix
ĠSw iss
Ġann ually
Ġconfir ming
Ġatt ain
pl an
Ġmult il
comp onent
Ġcomp ose
ĠD am
tr usted
ĠD er
ĠHacker One
g row
Ġexhaust ion
Ġlog it
Ġsust ained
Ġdeleg ate
Ġto ugh
Ġcollect or
Ġam d
Ġrepro duc
re verse
ĠO SS
Ġ10 5
Ġcon ject
sen al
Ġsp ots
F e
ĠP RE
Ġcont emporary
Ġfl ipping
ĠM IA
sh ops
Ġpit ch
Ġthro tt
Ġ ice
ĠAff airs
rib ute
ĠDep ot
Ġcompil ing
Ġoptim ality
EX E
ĠSt ation
Ġflow ing
ĠR apid
ĠSh am
check ed
Z one
16 9
Ġjurisd iction
14 8
ĠWork around
Ġdev iate
aid u
Ġp al
ĠM ove
Ġselect ions
co ok
Ġeduc ate
Ġplug ged
an z
ire ment
Ġdis p
Ġappro ached
D ATE
ĠIP C
ĠSep ar
vis ors
n ick
Ġignore s
fe ature
k le
em an
Ġrepe ating
ic an
ass isted
ĠCreat ive
W W
at on
ĠW ired
ĠS SA
Ġun modified
Ġencompass es
K e
ĠA cknow
m ond
ĠRock well
ĠSP F
eli very
Ġrational e
ĠEVALU ATION
tr acking
ĠH ub
Ġbootstr apping
requ est
ĠLapl ace
id ia
ĠSW aT
spec ified
ĠH A
Ġel ected
Ġhar ness
Ġguest s
ĠR EL
Ġun initialized
et a
17 0
Ġind ef
ĠR osen
oun g
ĠN ative
ĠK h
ut ical
ĠEs pecially
ĠV R
ĠNav y
ĠE CC
Ġut ter
ut ers
Ġpass engers
Ġclear ance
ĠN ik
MS E
def ine
C enter
Ġb gi
Ġcoordin ator
grad uate
Ġper vasive
Ġauthentic ator
Ġdis asters
ĠT i
Ġfac ulty
ĠMark eting
s ession
ĠCT I
ĠI ND
ass er
ĠCert ification
ĠJ avascript
Ġsimpl ifies
Ġinterrupt ed
pack age
ĠMic hel
Ġand roid
Ġrebo oted
Ġmult itude
as ks
Ġarg u
ĠI raq
Ġrend ers
S ch
2 20
13 4
Ġresol vers
Ġcomment ed
g ar
Ġexc luding
ĠLi DAR
ĠDut ch
ĠML P
Ġpro ceedings
err ata
Ġtreat s
] ;
class ification
Ġres embles
3 60
ĠU r
ĠTom cat
ud er
Ġport ray
el berg
Ġ* *
un ic
Ġfet ched
Ġif f
g overnment
ĠG od
Ġsil ently
ĠST R
ĠDev Ops
establ ished
x ing
Ġd ied
ĠB loom
Ġb io
ĠAut onomous
ĠLo Ra
sm all
300 46
es k
ĠOn ion
Ġfit ting
ĠDef ine
ĠCor p
ĠPar ameter
Ġpercept ual
des ktop
Ġdeliber ate
Ġdialog ue
ĠE mp
Ġcapt chas
Ġd ns
Ġsubst ations
ĠIs lam
att ered
RE AD
Ġsp r
Ġprot ests
ound s
Ġarg ues
debug source
add ed
Ġprevent ive
ĠM aint
re stricted
ace utical
process ors
ard en
Ġpast e
Ġdis regard
op ter
w indows
Ġsub version
Ġunderstand s
Ġcharacter izing
im er
Ġar Xiv
Ġlog its
Ġthreat en
ĠPRO T
Ġprom ised
] :
Ġsoc io
Ch apter
il ter
iz z
b ig
ĠAdv ances
Ġcoal ition
Ġlook ups
Ġre name
Ġas cert
Ġiter ate
r ators
Ġapp lets
ĠAlex ander
ĠTEC HN
vic ed
Ġvalid ates
ĠPak istan
Ġkill ing
Ġhard ened
oen ix
r ants
ĠS IN
ĠR M
Ġmon et
ĠGo al
l isting
Ġterr itory
ĠConf irmed
Ġweb pages
ĠExt ension
Ġto x
Ġsympt oms
c n
Ġ rom
00 5
ĠH all
Ġimpact ing
N VD
Ġback wards
ĠNe ighb
ĠProcess es
Ġwel come
aw a
Ġcontrol lable
im m
Ġpriv ately
plug ins
Ġany body
Ġexperi encing
ĠAr m
2 11
G ood
Ġextract or
Ġinter dependent
* .
XX XX
Ġimpl ication
Ġb ins
v ard
ĠG M
Ġuns uspecting
war p
il ation
Ġoverr ide
L et
Ġdiscr imination
Ġm ips
ĠFor mal
Ġd w
} \
Ġout break
ĠP resent
Ġh all
t une
Ġfore ver
ĠAss et
ĠCor rect
Ġ17 2
E vent
j am
Ġg i
H OST
ĠWiki Leaks
ĠSup reme
res istant
Ġinvestig ative
CS C
ail ing
Ġcommit ments
Ġur gency
rosso ver
AT ING
Ġunderstand able
Ġpip elines
} ,
Ġmal function
13 9
ĠAss urance
15 4
v arying
3 50
Ġass ured
ĠP RF
s ided
ant e
Ġhop es
Ġgran ular
ĠTr ace
host s
v ity
Ġin ferences
ry ing
Ġdisrupt ing
ĠR IP
ie ves
Ġp ill
ĠAn alyst
Ġt ill
Ġhy dro
ĠBY OD
Ġcurric ulum
ĠD GA
Ġcomb inator
art ner
ĠAnd re
17 2
Ġwar n
p rior
S V
ĠF lo
ĠL F
Ġincom patible
Ġtradem ark
ep ad
out e
ynam ics
Ġcontain ment
L ocal
Ġv acc
ĠHeart bleed
o ften
et ed
M ac
m ac
N O
ent h
19 3
ĠL agr
================ ========
ĠEmploy ees
op ard
ĠStrateg ic
Ġmisbe h
Ġst orm
dis k
ĠConvolution al
ĠS poofing
Ġinsert s
ĠR R
Ġag end
Ġlog ics
ev alu
focus ed
ĠAnd erson
entr ancy
ĠOper ational
ang ing
ĠSt orm
ĠIn side
Ġem issions
Ġcertain ty
ĠU R
ĠAD D
ĠL as
ĠD onald
ĠE US
Ġprov able
ĠAct ually
Ġl oud
ĠNot ably
Ġluck y
Ġar my
ĠG NN
advers arial
Ġouts ourcing
Ġjam mer
C all
Ġsk im
Ġnew est
Sh ield
on aut
Ġw ins
ĠEn umer
st re
25 4
Ġ18 00
@ @
Ġconc ise
ur i
Ġcol on
Ġjust ice
34 5
Ġcar bon
Ġart ist
Ġ================================================================ =====
Ġnegot iation
Ġmultipl ied
rem ote
Ġdivid ing
ul s
Ġdirect ives
Ġrol led
Ġun structured
Ġpert inent
br and
23 9
Ġissu er
B o
Ġencount ers
Ġsch olars
ll a
Ġshuff ling
Ġl ens
Ġfacilit ating
20 7
ĠX S
Ġintercept s
Ġund erest
ĠP N
Ġindef inite
MF SA
ĠUkrain ian
Ġoblig ation
Ġshort cut
ĠAny one
Ġdefault s
L STM
M ain
Ġcount erex
B ecause
Ġfil enames
ĠO u
ĠEmot et
St ation
l ected
ĠK DD
ĠHu ang
Ġlegit im
Ġpl t
ĠPh ish
OM E
Ġepid emic
Ġlib c
Ġ5 000
Ġbr ack
. âĢĻ
M IT
Ġinter le
Ġaud itor
Ġparad igms
authent ication
Ġdifferent iable
ĠPoss ible
Ġr pm
ĠN uclear
B r
ĠG SM
Ġun install
Ġsil ent
ĠCD N
min ing
Ġarriv ing
accept able
ins urance
Ġth irty
ĠN I
Ġsett led
Ġc ouncil
Ġhit ting
Ġstay ing
Th ings
- ,
ad ows
D ownload
ĠP AD
Ġflaw ed
Ġm aker
ud iation
Ġinnov ations
Ġsettle ment
P e
Ġwe igh
ĠDN SSEC
ĠComp et
1 86
P ER
ĠS it
Ġmotiv ates
Ġpredecess or
sim ulation
Ġacknowled ges
Ġpl at
Ġj u
Ġque ues
Ġqu bits
ĠGr and
ĠW F
Ġdifferent ially
ĠAvoid ing
Ġseg reg
ĠSwed en
ĠAcad emy
ĠK i
ĠO TP
Ġs urre
Ġtask ed
Ġemot ions
Ġst ars
Ġhas n
op ic
ĠIm ages
ĠEqu ifax
Ġund ec
Ġa erial
Ġb ip
eng es
Ġcol our
b el
alle ts
Ġcounterfe it
Ġreal time
Ġret aining
Z Z
at io
Ġp d
Ġperturb ing
ĠM ant
oun cing
ĠB ash
Def ense
s ki
Ġsil icon
Le vel
Ġsu ffic
Ġtemper atures
ig an
Ġsupplement ary
ĠIncre asing
Ġ( -
Ġb ullet
Ġres idential
] ).
ĠDM Z
g reen
up id
ĠSupp ly
Ġiniti ating
Ġep hemeral
ĠG EN
str ong
Ġmark er
D rive
f ast
Ġalert ing
ĠNo ise
Ġif rame
Ġi o
Ġquant ified
ĠT ro
Ġent hus
Ġunder mine
c ases
ĠExploit ability
al c
com patible
Ġhead lines
ĠB aidu
Ġun secured
Ġa ka
Ġb ash
ĠImpro ve
M ax
k ali
Ġf s
the y
E nt
Ġpa ired
ĠEX IST
hol es
c ell
ĠPre m
Ġtrick y
ĠS zegedy
Ġbroad band
Ġhistor ically
Ġex ports
Ġp icks
ĠG TS
Ġth r
ĠV iet
ĠEX EC
Ġsomet ime
Ġalloc ations
Ġsustain able
U DP
ĠBr anch
ĠLim ited
Ġinconsist encies
f alse
ĠNets cape
Ġoff ense
Ã ¶
ĠACL s
Ġun labeled
ĠOb serve
Ġguid eline
)- (
ĠTo gether
ĠDemocr atic
ree k
Ġfeat uring
ĠFre edom
cond ition
ĠProt ected
C or
Ġde activ
ĠR am
Ġcont est
Ġel ig
ĠL ength
15 5
Ġ12 5
Ġur gent
pack ages
36 5
Ġse a
Ġalleg ations
Ġenh ances
Ġin expensive
Ġdoct ors
ĠRec ords
bul lying
ĠL ion
V ICE
ĠEv olution
tur n
orth y
ĠSat ellite
j ump
Ġco ast
A v
Ġh alt
fer ing
Ġmind s
ĠAcknow led
Ġco lored
sc r
Ġinflu encing
ado op
f uzz
Ġpresent ations
Ġre us
Ġdiffer ing
14 9
Ġsp oken
Ġpsych ology
ĠAg reement
w a
ĠProt ect
ĠRecon naissance
Ġen roll
Ġval ued
ĠPract ice
launch pad
arr ass
N ext
Ġdiscrep ancy
E ven
Ġhe ating
ĠP ow
Ġdisassemb ler
an ching
d l
Ġ19 85
s id
ĠC IO
Int el
Ġexc iting
K M
ĠX HTML
Ġpercept ions
Ġlocal host
ĠExt ract
Ġhook ed
ĠC SA
Ġdisput e
n is
Ġj unk
od ings
con sole
Ġrank ings
Ġsuccess or
Ġens embles
Ġsnipp ets
D i
Ġf ro
Ġder ives
f ake
Ġpred ators
Ġs ne
for ced
alk er
Ġr ub
Ġautom ating
Ġj mp
Ġmult ivariate
N ets
ab s
Ġinter mitt
h ppa
ĠH as
ĠPartic ularly
Ġpol ling
ĠNex us
Ġd irty
ign ment
Ġel imination
Ġfragment ed
ĠAl ways
Ġremark able
Ġbeaut iful
amp ol
Ġsuggest ion
ĠSupplement ary
Ġstrateg ically
ĠCap ital
ĠSchem e
ipping Point
Ġen de
Ġted ious
P re
Ġexhib ited
U sing
i per
j ar
Ġro wh
Ġcraw l
B X
ole v
Ġh inder
17 3
Ġrecommend er
Ġtre ating
Ġshell s
F ire
l ast
ĠStack elberg
Ġadvoc ate
P DF
Ġjourn als
ĠAN Y
Ġo ught
ĠH MAC
ar us
ĠR and
ĠV B
Ġcyber war
min ute
ĠP AC
ĠKe ys
Ġhook ing
H ello
cl usive
Ġcritical ity
. '
Ġtrans cript
Ġsetup s
P O
D HS
ĠSe attle
Ġd B
ĠNet cat
mand riva
Ġdaugh ter
ĠInd ependent
OT E
* ]
Ġqu ot
ĠMot or
ĠIntegr ation
ĠR n
IG HT
C ache
re nd
ĠM ill
Ġfav our
ĠRob ot
ĠNiger ia
Ġliqu id
at able
ul atively
ĠB ERT
ĠL FS
ie ve
im ulation
Ġtrap door
Ġapproxim ated
alle y
Ġreven ues
sp am
Ġarrang ement
16 3
Ġamb ient
Ġcou nsel
Ġboot loader
act or
ĠS ure
Ġtele metry
ĠTow ards
ic ative
AD E
ĠMin i
Ġinstant iate
ĠDOC UMENT
23 7
ĠG ordon
ĠAb s
Ġbelie ving
Ġformat ting
res pective
ĠExpos ure
ĠF usion
Ġbad ge
per tur
ĠBot net
Ġw ise
Ġunlock ed
Ġgover ning
ps on
ist le
95 7
ino is
ĠC op
ip h
Ġinf r
des igned
ĠColl ection
ĠUs age
Ġfluctu ations
Ġc ave
ĠB A
ĠPro perties
Ġbot her
a ired
Ġplott ed
Ġsent enced
ĠParticip ants
ern ame
Ġdisgu ised
15 6
Ġbo y
s ites
Ġwr apped
ĠH arr
Ġpuzz les
Ġundert aken
Ġargu ably
v c
ch an
ell i
Ġpolym orphic
h l
Ġsurv ival
ĠBel g
Ġc af
For ce
ĠIsra eli
Ġtw elve
Ġindic ative
ĠL ake
Ġmed icine
Ġmut ex
Ġpos ing
Ġsuspect s
b ecause
ĠF el
par se
Ġic ons
Ġob j
ĠAr bit
Ġd ive
Ġdi ameter
ĠO cc
ĠJ ason
Ġnot ations
Ġeigen values
cl amav
h ar
Ġviol ent
ĠVe hicle
ĠIn str
ari adb
Ġm n
ĠT D
ĠAdvers ary
Ġref res
ĠChar lott
ĠExperim ents
b est
Ġmolec ules
Ġt i
in tern
ĠOr ange
ant a
Ġ1 86
Ġev id
Ġexpl oratory
ine ar
ĠCh urch
EP T
in ational
cap able
ĠMod er
ĠMAT LAB
Ġprogram me
ĠForm ally
Ġres emb
ic ast
Ġlo ses
Ġless on
Ġwhitel ist
C AP
Ġshort age
Ġhub s
g d
OD V
ios ity
2 12
Ġor g
ĠMan aging
Ġmur der
tr iggered
eros pace
us et
ĠSam ba
er ved
ĠC CS
ĠChar les
ĠAs k
ĠHe ap
Comm and
80 4
serv able
00 6
ĠBre ak
ĠM il
ĠCh at
Ġoppos ition
C ount
ul in
Ġanonym ized
ĠA jax
Ġg lit
ĠAd a
ĠA SA
ĠBre ach
Ġper l
li k
chang ing
ĠTensor Flow
W R
ĠM atch
tr ust
cl aim
Ġmicro grid
G Hz
ĠE ither
ĠVERSION S
duct ions
Ġrepl ica
ĠIn structions
Ġint ens
Ġan imal
ĠInstall ation
14 2
Dom ain
Ġunivers ally
ĠMess ages
Ġwal ks
ĠTr acking
Ġh ref
De bian
Ġloose ly
ĠTool kit
Ġcomp elling
Ġrevers ed
U A
ĠReport ing
ĠJ T
iqu eness
ĠSQL ite
im g
ĠZ IP
Ġmod est
LO AD
ĠCon vention
Ġrespons ive
Ġ" .
Ġarch ived
ĠN odes
Ġad here
ĠH oney
Ġemb arrass
2 10
Ġcomprehen s
bur g
r im
ost ics
Ġadvert ise
ĠUS E
Ġ rival
ĠR EC
ĠA BS
st op
ĠAtt acking
re fer
Ġemit ted
ĠInstall ing
Ġdispos al
F orm
ĠH adoop
ĠW HO
Ġinfr ared
t iff
Ġ10 3
Ġadvance ment
Ġch amp
Ġhope fully
ĠA A
Ġe at
Ġalt itude
r id
ĠH F
Ġprepared ness
ĠW ood
Ġmathemat ically
Ġstat eless
ĠEn forcement
ĠCar lo
ĠTur k
Ġre install
ĠA W
ĠC i
ven ue
Ġdistinct ive
Ġreport ers
ĠSt o
Ġambigu ity
ĠRe pl
Ġmark up
inc re
lat est
Ġcomplex ities
Ġoption ally
ĠExploit ing
ĠGay le
] (
Ġsurf ing
Ġpass ion
Ġimproper ly
Ġshoot ing
c er
r h
ĠSh annon
ĠS ame
n um
Ġd ream
Ġsal ary
j boss
s lack
ĠM OV
Ġdemand ed
Ġmount ing
ĠE MC
ĠSe gment
e z
ĠTh urs
AR A
ĠA i
Ġis land
Ġwork ings
im plement
ĠP ert
Ġ================================================================ ====
ĠFour th
b olic
ĠDO I
Ġgest ure
Ġor acles
ĠAs h
Ġsuper vision
ĠInnov ation
u j
+---------------- ------------
m ember
Ġspl its
z one
ĠAs ide
IT S
ir a
im a
ĠTr ack
Ġl ived
ER N
cr ack
Ġcent re
at ivity
ĠC ru
Ġfirst ly
Ġenc odings
f eed
ĠR ound
alk ing
ĠSpec ification
Ġindu ces
rob at
Ġapproxim ations
f ounder
Ġpre empt
Ġshe l
B Y
ov al
ĠM F
Ġlog istics
Ġunus able
yp ing
Ġind oor
Ġder iving
Ġjournal ist
ĠNort hern
S ize
add le
Bl ue
Ġview ers
ore s
ra id
Ġcaus ality
Ġmisclass ify
ac ements
Ġart ists
Ġv ess
Ġele g
Ġatt itudes
Ġcustom ization
ĠAUT H
Ġreflect ing
Ġste pping
23 6
ĠCor ollary
Ġtrick ing
Ġpil ots
ĠP ur
ĠMethod ology
hen g
ĠIN PUT
Ġrowh ammer
ĠA le
Pro file
2 18
n ostic
is ks
15 1
Ġunf air
ĠO x
Ġregister ing
23 5
FI LE
els on
ĠCompute Node
ĠEx cept
P H
AT T
16 5
ĠDo ing
Ġdr ift
Ġalloc ating
Ġsp ac
ument ed
Ġc rop
Ġres ident
AR K
Ġaband oned
Ġproc ure
f unctions
Ġgr asp
Ġsur pass
ĠPar is
Ġsanct ions
s afety
ĠP olicies
ĠD ER
Ġapproach ing
Ġpr a
RF E
s f
Ġsh aping
ĠExper ts
ter y
ĠB ush
Ġelev ate
Ġpoll ution
ĠM aps
Ġadjust ment
ograph ics
Ġdelet es
E AP
Ġv ic
ĠL ot
ĠK VM
Ġview er
ass embly
l ining
AC HE
respond ing
Ġend orse
ĠZig Bee
S U
ĠD G
Ġunreal istic
ĠC OP
ov a
at ar
ĠCapt ure
ĠMary land
Ġprom ot
ĠS print
Ġman eu
Ġcalc ulator
Ġtoler ate
Ġ19 50
Ġsoc ially
32 5
Ġp ear
Ġex its
ĠI ETF
ĠQu ad
ĠLear n
ĠR ank
Ġin ert
Ġelement ary
Ġsqu ares
Ġlow ercase
cle an
Ġrul ed
w ing
Ġaltern atively
Ġreconf iguration
a uthorized
Ġc rossover
ĠM ask
Ġmanual s
ĠCh oice
ĠH z
Ġpar ses
Ġsim ulates
ed a
Ġconc urrency
ĠCont ents
l c
Ġprom otes
ĠCY BER
ĠH ex
24 6
Ġproduc ers
Ġincon ven
Ġold est
Ġsatis factory
ac ons
Ġsqu ared
Ġtroubleshoot ing
M ad
Ġc ues
en h
rok en
ij ing
Ġmeas urable
ĠP ER
e ption
19 5
gorith m
d istribution
Ġ19 87
us cript
Ġ1 12
ident ification
Ġwond ered
Ġevol ves
Ġhigh way
Ġf iction
- (
ĠIR S
ĠCond ition
âĢĶâĢĶ âĢĶâĢĶ
Ġat mosp
Ġexplore r
Ġh over
Ġinterconn ection
Ġt rojans
ant age
Ġpursu ing
ach uset
Ġresearc hed
dem o
Ġunder go
ĠIll inois
Ġcle aring
Ġne uro
Ġinterp olation
ĠFound ations
Ġsp ies
sam ba
Ġcross ing
threat s
L ED
lo v
Ġan x
Ġaggreg ates
ĠSO AP
ĠHel p
d istance
ĠD K
ĠT an
if ting
Ġwhere ver
Ġelev ation
bu f
ĠU V
ĠHead er
S top
ĠDig i
gy pt
Ġpriorit ized
17 8
Ġw allets
ĠBit Torrent
um in
ĠSe a
Ġsubrout ine
are a
ĠO wn
ele b
Ġs ized
ĠColumb ia
Ġb es
Ġexp enses
Ġunint entional
ĠH one
idd ing
Ġmot ives
More over
Ġg y
Ġfl u
Ġsat uration
ĠRet rie
mips el
F R
ron ets
es ome
Ġre vel
Ġparamet ric
ation ally
Ġadd itions
S y
â Ħ
ADI US
achuset ts
o in
Ġ==== ==
Ġa ster
ĠR ecur
disc losure
ou b
ĠP ool
Ġpriorit ization
Ġseam less
ĠCl ark
Ġbefore hand
Ġdraw s
ĠChall enges
ell ers
Ġsn oop
Ġprotot ypes
Ġdestro ying
Ġo s
comm and
Ġfing ers
empt y
ĠO nt
Ġdecl ined
ĠVe gas
Ġpredict ability
ch ost
ĠG F
Ġgr ade
Ġjust ification
Ġl unch
Pro c
Ġcomm erce
P ORT
l n
ĠRes erve
Ġexc ited
fl ix
Ġtw in
Ġb orders
ĠF all
Ġres iding
Ġms g
I Q
ĠF inal
Ġtransform er
l ate
Ġpass ively
ĠBe EF
AM P
ĠHP E
Ġpre trained
MS I
Ġearth qu
path y
j sp
Ġpack aging
Ġsl ip
ul ink
ĠG am
M IN
ĠD istance
as y
Ġgr ace
Ġprohib itive
ber net
Ġsynchron ize
ĠSnap chat
Ġcr ashed
Ġslow down
Ġcool ing
olog ist
Ġt ar
en a
Ġfound ations
Ġh tml
ult ure
Ġtrust ing
44 4
prov ided
ad er
ĠUP nP
Ġresult ant
cs v
x d
Ġe go
13 7
Ġpass code
app s
Ġtermin ating
ĠPU F
ĠD EL
ĠV ice
ĠC ould
Ġf ence
ĠF N
17 6
ĠT OR
ĠPre vent
bernet es
Ġcontrib utor
ĠVirtual Box
attack er
ĠAV s
T O
ĠH a
t ailed
Ġwe ird
ĠThurs day
ĠL ack
Ġh yp
ĠG ab
ĠCompl iance
Ġpartic le
30 4
ri k
de gree
30 6
Ġrenew able
3 84
d ns
00 401
be ing
ĠEvery one
Ġharvest ing
ĠSc hedul
i at
Ġre cept
Ġpred ator
Ġsecret ly
Ġcompan ion
Ġ10 2
t ail
ĠDR M
Ġconform ance
ĠS ales
ĠEnd point
ĠCL I
ĠW A
ĠPro c
Ġ1 70
ĠPerm ission
Ġdistingu ishes
Log ic
N ING
Ġfoot ball
ĠKre bs
ac s
ĠD ead
ke ep
Ġprefer able
aby te
Ġfre el
ĠC ogn
Ġbr anching
ĠID E
Ġop aque
ĠExper t
Ġjurisdict ions
at um
16 7
t ies
Ġdown side
sm art
Ġgrab bed
ubl ished
tr l
n ull
69 3
Ġilleg ally
ĠB N
Ġpack aged
M X
Ġbreat h
Ġinspir ation
Ġalloc ator
Ġflo ppy
ĠDis play
âĦ ¢
Direct ory
Ġsubs ections
x f
Ġc iting
pat tern
Ġinform ing
N SA
appro xim
Ġsc atter
B it
Ġsociet ies
Ġdump s
ĠFranc is
d am
ĠD own
ĠT unnel
ĠEston ia
u um
uck er
Ġformer ly
Ġbid irectional
ĠC n
ĠV C
ĠTal os
ĠEx hibit
ĠVirtual ization
Ġpseudonym isation
ĠL S
ĠExt ensions
Ġharm less
ĠD olev
it arian
Ġg host
Ġvolunte ers
process ed
ĠB ul
ĠAuthor ization
15 3
24 4
Ġsem ic
istrib uted
ĠB arb
Ġ7 00
Ġdefe ated
t een
ĠIP Sec
Ġdomin ate
ĠEnc rypted
Ġconstr ain
itution al
rele ased
Ġem power
b ag
Ġf ires
Ġh onor
ĠD OP
inter active
pat cher
ĠS ensitive
ĠDe veloper
Ġfl ush
Ġtransmit ters
Ġs ecur
P OS
Ġst ere
art ext
ĠGuid elines
Ġassemb led
Ġtransist ors
ĠLou is
W G
ir l
Ġnote book
int osh
ĠSel ection
Ġintermed iary
ĠM ik
aw s
Ġpack er
) '
ĠF CC
t imes
ĠJ DK
Ġinst ability
Ġgre p
IC T
Ġsu ffice
Ġcompet itions
Ġwarrant y
Ġaccompany ing
Ġext rem
ĠAttrib ution
ĠA ge
Ġhous es
Ġag nostic
Ġvol atile
Ġbootstr ap
ĠMass achusetts
ĠArab ia
ĠB ren
f w
Ġg ar
Ġin box
ĠF ingerprint
ĠSt op
ĠSh ar
meas ures
Ġun acceptable
ĠComb ining
Ġd d
Ġinstruct ed
exec ution
ĠV ictor
K DD
ĠEvery thing
Ġv ague
Ġequilibri a
19 4
Ġlayout s
Ġplan es
ĠDie go
Ġd ens
W orld
15 9
Ġop codes
ĠMe ga
ens ed
Ġdis pers
Ġsh allow
Ġsol vers
Ġshe er
Ġmail box
ĠO UT
Ġconduct s
f x
est ine
d ict
Ġsub scribe
Ġx or
ĠPir ate
Ġmicro processor
Ġconvic ted
ĠTrans action
ĠPay ment
Ġatt enu
ĠE RP
ĠSt re
Ġaggreg ator
ĠT ippingPoint
ment ed
ention ally
emb ered
ĠOpen Stack
ĠE H
ĠSim on
ĠMeasure ment
iz ability
Ġf asc
Ġwrit able
ro cess
ep h
On ly
Ġâ Ĥ
Er ror
ĠT ib
Ġet her
2 32
i A
Ġc hem
Ġsign er
ul atory
Ġinsp ected
f ind
ĠM ining
ĠSM A
ĠR ISC
Ġfact o
RC E
Ġbal lots
t hes
Ġa wards
Ġr ide
ĠD yn
OS I
Ġdise ases
ĠDifferent ial
Ġinconsist ency
Ġfound ational
ĠG artner
Ġmean while
P I
l on
upp et
ĠNe o
Ġfab rication
s ocial
Ġsell ers
Ġâ ī
Ġtransl ating
ĠGal axy
Ġm orph
TL P
Ġunnot iced
Ġvir al
t ier
Ġr um
s witch
Ġinv ocations
Ġd h
res il
Ġacc red
Ġo ct
Ġn ort
Ġtr ampol
Ġstr uck
Ġdisrupt ed
ĠStat istical
Ġlist ens
gress ive
ĠM O
mem bers
Ġclust ered
Ġlingu istic
F r
ĠFor um
Ġmult is
V ault
ĠCIS Os
Ġexception al
Ġinfiltr ation
ĠP SP
ĠE gypt
oper ative
ĠProcess or
d ist
Ġcl oning
Ġprosec ution
ĠIns ight
ĠY oung
spec ial
Ġcentrif uges
Ġm ock
Ġkeyst ream
Ġmaxim ization
Ġdead lock
cont ext
Ġtrace back
ort ed
av ailable
ĠFor bes
Ġa ro
Ġim balance
ĠApp liance
ad s
Ġsanit ized
Ġs i
ĠL ulz
W all
ĠAg greg
ĠMag Net
ĠT U
ĠR ust
T op
ĠFl ame
ĠTerm inator
int erest
W ave
Ġdist ant
Ġreser ve
1 64
ĠReport s
ĠVer ify
ĠNet flix
Ġinfring ement
Ġ19 83
ĠF W
Ġoverse as
se y
Ġ1 30
ĠReg ular
ĠGTS RB
ĠH MM
ĠB und
an ation
ĠCr iminal
ĠIn ference
ĠU ID
Ġimm un
s ch
c irc
ĠK A
ĠOpen SSH
ich t
ĠK on
Ġ0 4
Ġacknowled gment
ĠAs ian
25 9
AS H
F D
Ġsp elling
ac her
ĠV alley
Ġresearc hes
v ectors
ĠPract ical
ĠM aterial
Ġprohib it
Ġnot ew
Ġpropag ating
Ġsp rint
17 1
Ġquant ification
ĠE t
ĠIs land
Ġsink hole
j b
Ġfil ing
Ġsuff ix
ĠCharlott e
Ġsu cc
Ġexceed ed
Ġdesktop s
av y
ĠIns ider
Ġint ends
ĠJ ess
Ġincent iv
ri pp
Ġinfect s
Ġdef ences
Ġsc iences
ĠK ill
ĠEv ents
im pl
Ġunpack ed
cy cle
======================== ===
con vex
Ġscreen ing
ĠIm per
echn ical
Ġemphas ized
ĠBen ch
Ġasympt ot
ev olution
ĠReport ed
ĠATM s
Ġn ur
om a
ĠM bps
gr ids
uts ch
Y ao
ĠRe in
Ġquick er
ĠTrust Zone
ĠOpen Flow
Ġremed iate
Ġdispar ate
Ġmiss ile
n ss
ĠIn secure
Ġ0 9
Ġinv ite
Ġescal ated
Ġ1 75
Ġnotew orthy
Ġpack ing
80 5
Ġparagraph s
b atch
ĠT I
Ġauthent icates
Ġresearch ing
ĠPubl ication
j ail
Ġrem arks
ĠCl ar
Ġdef ect
Ġsub missions
am ation
com fort
Ġ10 8
z h
ĠD I
Ġposition ed
Mem ory
ound ing
it ime
J ava
K A
Ġe q
ĠP DP
ĠO ld
Ġassist ed
ĠCH AR
Ġalert ed
Ġfeel ings
Ġproduc er
ĠAd vant
test ing
Ġmagn itudes
et t
Ġmisconf igurations
Ġlater ally
Ġcent roid
ĠComput ation
rob or
K F
Ġcontract ed
Ġrel uct
ĠX i
2 16
Ġ 00000000
ĠY OUR
Ġadvance ments
Ġwid get
ur k
ĠTTP s
es p
Ġm ined
ĠSO A
Ġmand ate
Ġredes ign
er pt
Ġm outh
ĠP AM
ĠB R
alu able
k t
od al
ĠAnaly zer
Ġrepet itive
ĠMal ays
Ġsim ulators
Ġacknowled gments
Ġ================ =
Al ert
) ?
Ġsum s
im ages
P ower
Ġsepar ates
Ġpropag anda
ab b
RO DUC
Ġs ad
ĠM Q
ĠAc robat
ĠR oom
Ġk g
riv es
Ġwere n
Ġanc ient
Ġcondition ing
Ġeg gs
15 7
Ġdefin itive
ĠEffect ive
ĠR EP
Ġtunnel ing
Ġrem embered
st ates
ĠG athering
ĠB ear
ĠH V
Ġer ase
ĠCrow d
oll ar
ĠSV HN
or st
un ov
wr iter
ĠUn iform
ĠDis able
ĠMax imum
Ġwave form
Ġproced ural
Ġtrad ed
ĠPower Point
ĠAtt orney
> >
Ġsub class
ĠWe ek
Ġske leton
Ġcirc ular
US H
Ġaltern ating
Ġres on
Ġb ait
ĠG reg
01 4
Ġh ind
ĠEar lier
us ername
ĠCont ainer
Ġcraw ling
Ġcoordin ating
IND OW
w iki
Ġin vert
ĠC er
ot ype
squ are
ĠS UP
conf igured
Ġf ant
Ġsub nets
ĠL ever
ĠWeb GL
I o
Ġ0 5
Ġprof ound
al ph
fe atures
Further more
Ġsupp lying
ĠConc er
ĠPhil ips
ĠN icol
Ġmod ulus
Ġadmin s
ĠVe hic
Ġpolitic ians
Ġspec ulatively
ĠCollect ions
in ch
ĠJ ud
ĠAdministr ators
Ġbare ly
Ġnon zero
Ġwitness ed
Ġc aut
ro le
Ġmanip ulates
Ġw iki
Ġmicro services
Ġcoll usion
ĠSc al
Ġadjac ency
Ġaffili ated
per iod
11 11
Ġbal ances
c lose
Ġdipl omatic
ĠP W
Ġover writes
ĠGener ator
toler ant
OT A
ĠJ ay
ĠOrig inally
l ived
w est
ĠW ild
Ġactu ation
Ġvolunt ary
it o
Ġcyber physical
print f
Ġpump s
Ġ19 82
Ġquant ifying
22 6
ĠInsp ired
ĠNat urally
el iness
ĠPh D
Ġcard inal
ĠV en
ob y
Ġadvoc ates
Ġste pped
Ġinher ited
Ġfem ales
ĠF ul
Ġpar ity
aps is
ĠF ellow
Ġaf raid
ĠC orn
ĠStep s
AAAAAAAAAAAAAAAA AAAAAAAAAAAAAAAA
Ġcred ible
app y
ĠG bps
Ġar senal
Al so
Ġdef er
Ġgen ome
ast s
ab a
yst al
Ġclos es
! "
Ġb ub
ĠAud io
Ġhp ux
ount ies
Ġopen ly
Ġsure ly
Ġlik ed
osh i
ĠDisc uss
Ġme g
Ġvalu ation
ĠWin CC
ĠMall ory
Ġpul ling
ĠT PR
ĠDebug ger
Ġperm utations
ĠCT O
ĠC ALL
Ġcon gr
Ġse ized
re tt
Ġdown link
Ġconf ined
comput ed
Ġpiv ot
Ġhpux ws
A ny
ĠF it
Ġinterpre ting
ĠSim ulink
Ġfraud sters
L ength
Ġ0 7
Ġmark ers
Ġgen es
ĠPhilipp ines
he alth
Ġcr itically
Ġpropag ates
Ġcut s
ĠH IST
an iel
ĠV T
worth y
Ġwhite box
ĠMac intosh
Ġfacilit ated
08 70
ĠPubl ishing
Ġilleg itimate
lib x
Ġground s
ĠI ron
ĠH igher
Ġweb cam
t age
Ġinf lict
ĠJ r
Ġtang ible
con v
Rem ote
RODUC TION
ĠA uthorized
enc er
17 5
Ġtc pdump
Ġto ys
and as
it rc
Ġh ob
00 8
ĠRep e
qu es
ĠL ines
ĠGR U
calc ulus
ID F
44 3
P etya
ere r
ĠSqu are
ĠDense Net
ĠIm aging
ĠW el
ĠM osc
ha o
Ġpurs uit
M ark
st orm
Ġbe aring
Ġfin anc
ĠMS R
Ġpartnership s
ĠH al
Ġevic t
W H
o ffic
ul f
ĠN aive
port al
Ġlear nt
ĠTur key
Ġtrunc ated
ĠT oll
id irectional
Ġbe ings
ĠBe ijing
ĠHar vard
Ġpop ulated
prot ection
ass oci
Ġfin ishes
ut ls
ol ith
grad ient
MD P
Ġ& &
ham mer
Ġbattle field
Ġoccas ions
h ift
Ġcol luding
ĠIm pl
Ġdecom posed
om es
Ġpower pc
35 4
Ġtool bar
ĠC ell
Arch ive
ĠE ye
ĠEm pir
Ġtunnel s
b etween
s bin
Ġw ipe
Ġdec ipher
ĠG CC
Ġeduc ated
m nb
ver ts
Ġdr ain
ĠC ra
Ġcharacter izes
18 4
Ġdeath s
Ġappoint ed
Ġr d
Ġbehaviour al
Ġmultip ly
Ġeven ing
ĠFA Q
Ġpreca utions
Ġwilling ness
Ġb aby
ĠT iger
ĠM isc
Ġreal izes
con st
+---------------- -----------
ĠO pp
ĠPro posed
Ġbel t
ĠEF F
Ġrul ing
22 3
Ġchalleng ed
Ġhist ories
Ġimm ense
b nb
ĠK ol
Ġun iqueness
Ġsuffic es
arm a
the ning
vm ware
ĠC hemical
ĠF ine
ĠVal ues
So ft
h acker
Ġpredict ors
Ġbank rupt
Ġdivid es
Ġsc roll
Ġopp onents
Ġvolt ages
Ġcelebr ities
f ail
st ar
Ġdistinguish able
UU UU
Ġse vent
lu ence
Ġmonot on
EN S
Ġpros pective
f ault
Ġoptim ally
Vulner ability
Ġ Ï
Ġpred eterm
ĠHIST ORY
Ġindistinguish ability
ver ting
all ery
ĠSch mid
Ġcompet ent
Ġsuff ering
ĠS ave
) #
Ġjump ing
Ġtelecommun ication
Ġir r
30 9
Ġbur n
15 8
Ġv antage
Ġinformation al
Ġver ifi
Ġpercent ages
Ġc ow
form er
Ġrest oring
ser vers
fr ames
comm un
Ġh un
ĠO C
Ġanim ation
ĠTra vel
ĠM as
ĠJ am
acer b
T e
Ġtri age
ĠP etya
ex c
ĠAn sw
Ġunf amiliar
D c
ĠGroup s
comprom ised
ĠL ew
**************** ****************
Ġmet am
ĠNum bers
Ġfet ches
ĠD ash
ig ue
ĠR DF
art s
Ġcapac ities
Ġrel ief
35 2
ĠMat the
ĠM ah
Ġsm ells
Ġoff sh
acc ount
p resent
Ġfactor ization
Ġdisassemb led
ĠT ik
Ġimp lying
Ġgrad u
Ġdi et
Ġfresh ness
ab bit
ĠM id
Ġsp urious
3 64
Ġpan els
Ġim balanced
Ġinv asion
ind d
c ups
ogen ous
ĠM oney
graph ics
ĠLoad Library
Ġcy clic
Ġstake holder
Ġgeo location
ĠQ U
vulner able
ed it
tun ed
ĠV U
ĠAm endment
Ġstart ups
Ġsy nd
ĠH ur
Ġmult id
Ġaff ine
ICUL TY
re search
Ġdoc ker
Ġrecurs ion
Ġamb iguous
dh s
re pl
ig uring
Ġobserv ational
ĠName ly
Ġv ict
Ġquestion able
ri ble
ĠC ob
c ipher
Ġ======== ===
Ġw ood
er a
}} }
ĠAcqu isition
in v
Ġir respective
URL URL
ab e
ens ys
Ġing red
Ġdocument ing
Ġinstruct or
ĠPers istent
S HA
ĠP it
Ġwat ering
Ġtem p
Ġacquire r
ĠI G
t hem
Ġj ack
S te
Ġn ucle
Ġrev ol
Ġtransl ations
Ġg ross
Ġz u
terror ism
Ġinter ven
Ġstring ent
Ġgen omic
met hod
H ttp
ĠR ange
Ġwr apping
ĠLe ak
ĠFac ilities
x c
ĠN t
Ġinterconn ect
prem ises
Ġdis ables
Ġasym metry
23 4
ĠO PC
Ġ" [
ick ed
Ġfat al
Ġepis odes
se q
im ated
ri ad
ĠZ K
Ġj itter
ĠSc reen
cont inu
Ġfulfill ed
R R
y our
top ic
Ġbrow n
ĠDef ensive
ĠPIN s
Ġexcl usion
Ġch romium
ĠCh air
Ġg if
den oted
Ġcrack er
BI OS
Ġagend a
D r
Ġweak ly
Ġin h
AT CH
23 1
ĠSp ear
ĠMichel le
AP E
Ġsupport ers
cr ime
hes es
Ġpharm aceutical
Ġanonym ously
ĠR od
Ġmag net
Ġgeograph ically
Ġassist ants
Ġph ishers
Ġcur iosity
Ġclean ed
Ġdiss imilar
ĠHand book
ĠSp eed
form ing
in vest
ag ements
ĠF AA
ĠFort une
Ġmicroarchitect ure
Ġinsurer s
Ġknowledge able
ĠPan ama
ĠPM Us
st d
ap ol
ĠA x
appro x
S uch
f alls
Ġscore d
bre lla
Ġ lying
s ay
ĠCont rib
ĠScient ific
ĠS ound
Ġv m
ĠD ual
Ġcheck list
Ġprerequis ite
Ġt all
30 2
ĠPan el
Ġcos ine
g b
ĠC RE
Ġpo pped
Ġexp end
- )
Ġth ieves
Ġplan et
Ġret ains
defin itions
des cribed
Ġdegr aded
Ġconject ure
ĠS ites
Ġf ading
Ġinherit ance
hand ler
Ġimperson ating
Ġorgan ic
De bug
T ag
e ared
ĠRes ult
Ġimper fect
S AT
ĠR ole
Ġcons ortium
engine er
ud d
Ġp ig
ĠDet ailed
ĠRele ases
ag ers
Ġse al
ĠPar ameters
ĠSo C
Ġsp ark
ĠCl ub
H L
D NN
Ġmach inery
ĠE E
Ġev ading
ĠT a
ĠCheck ing
Ġed itions
Ġe in
Ġgr ate
mod els
Ġisol ating
i aries
Ġex acerb
ĠF IPS
Pack age
Ġs and
ĠH an
ĠDe ploy
Ġlength y
Ġtravel s
D uring
ĠMc G
ĠPh oenix
read ing
ĠC RL
Ġdeprec ated
Ġvol atility
ason ic
as ons
Ġdeter ior
Ġentr ance
Ġwh istle
Ġel ite
Ġlegitim acy
set up
Ġmotiv ating
Ġstack ed
lat ency
Ġorigin ates
Ġap ache
Ġ1 35
Ġcommit ting
ĠPer cent
Ġouts ourced
ĠCra ig
App s
Ġsurv iv
i y
ch itz
Ġdown grade
step s
Ġconcaten ation
Ġh amm
Ġun amb
ĠAll en
ag ic
Ġd ir
ĠJ u
ĠDe ployment
Ġsociet al
ile m
Ġasymptot ically
Ã ¡
pt ic
ĠPract ices
ĠP rediction
Ġun ve
AD ES
ĠEC G
c we
Ġpret ending
med ia
w b
elf are
Ġbackground s
Ġp rize
Ġwrong ly
or ry
Ġaud iences
A MD
ĠMosc ow
b at
m ay
ĠN SS
Ġ10 6
ĠEx erc
ĠPart ial
Ġro se
G EN
ĠF IT
FF ER
ĠN L
Ġret ired
we ets
Ġir regular
ĠN D
ĠJ G
Bu ffer
Ġr ings
r ison
ĠG reek
ĠMer kle
86 2
AL ANCE
ades h
Ġ+ ----------------------------
import ant
Ġanc est
ĠM ell
Ġworth while
um ar
xx x
acer oute
wik ipedia
ĠDIFF ICULTY
ĠP apers
AC TER
dat ab
Ġpolar ization
Ġpredeterm ined
on line
S ense
Ġdes erialization
Ġdpk g
Ġpron ounced
Ġaggreg ating
Ġtravers ing
ain e
ĠM ET
Ġbr ake
app le
ĠMar sh
Ġtestbed s
ĠSund ay
ĠT reat
enc ryption
Ġvic inity
ĠIN C
ĠCred ential
O UT
ĠBr ute
Ġauthor ize
Ġdupl icated
Ġcr itics
Ġport ability
ĠCirc uit
Ġga uge
ĠHol ly
ĠVis a
C ross
l ance
2 19
it ure
vent ions
ĠEXIST ENCE
Ġdot ted
Ġsp here
ĠBet ter
ruby gem
Ġcare ers
Ġforb idden
Ġc ub
Ġnovel ty
ĠTib et
Ġb le
ĠH ierarch
ĠX ia
Mod ule
Ġcombinator ial
0000 00
ĠManip ulation
ĠF amily
F B
ĠAl t
ĠB h
ub a
ĠCook ie
ĠProced ure
M W
Ġinter ruption
s chool
ob s
Ġpret end
j av
develop ed
at i
AR S
ĠNow adays
Ġredirect ing
en ch
Ġnewsp apers
add y
n l
ĠBet a
T ok
Ġsupp ression
Ġtake over
ips chitz
ĠWar fare
Ġsal ient
Ġaffil iate
Ġh on
ĠAfter wards
Ġoptim istic
ĠBr un
B AS
Ġo kay
ĠNe ut
ĠStud ents
ĠFed ora
Ġread ability
Ġbatter ies
n ational
Ġsens ed
ĠCHAR ACTER
Ġre written
OS E
itud inal
c red
Ġneg lect
ĠL ittle
Ġevent ual
Ġtur b
ĠP ing
ĠConf icker
ĠMechan ical
Ġre location
Ġer asure
ol lo
II I
Ġk ing
Ġb a
Ġinv aluable
ĠM ut
Ġrepro duced
f lu
18 8
el p
xy gen
J AX
ĠD ump
ĠE ER
ĠIns ert
Ġmicro processors
ĠSIG INT
ĠD id
Ġopt ed
Ġunre achable
Ġstick ers
Ġont ologies
Ġtutorial s
w c
ĠKu bernetes
F usion
ĠRe gin
ĠDest ination
A ES
ĠD roid
Ġev al
t oll
Ġdisclos ures
Ġsh ops
Ġyield ed
ĠPert urb
et ching
ĠIn struction
EN TION
Ġvigil ant
S ys
Ġseam lessly
Ġinv ention
Ġpe aks
Ġintr anet
ĠS EO
ĠRob in
ĠDocument ation
48 5
Ġopportun istic
Ġche ating
m obile
list ed
Ġresc ue
f our
Ġguarantee ing
Ġq t
ik atz
Ġre vert
ĠChar lie
ins ky
Ġwon dering
aw ei
ec a
plo ad
Ġblack mail
f igure
ĠK am
18 5
C ons
ĠS plit
ex plo
Ġdistrib utes
17 7
iction aries
Ġphotograph s
Act ion
Ġmean ings
f arious
Ġne farious
Ġint ric
Ġ[ *]
Ġcont iguous
Ġec x
p aces
ĠH ans
Ġste als
ĠPrint ing
Ġretail er
Ġundes ired
ĠIncor rect
80 8
Ġfoot age
ĠT act
Ġag es
ĠSS E
Ġexceed ing
ad el
c ustom
ĠSp ot
Ġguid ing
ass emb
ĠDownload s
ter min
Ġ1 64
ang ular
Ġrecru ited
Ġneighb our
Ġr am
ĠJon athan
exploit ation
ĠTECHN ICAL
ĠD ar
CC CC
ĠSE V
xxxx xxxx
f ollow
Ġexperiment ed
ĠComb ined
Ġacceler ated
Ġcul pr
Ġ" -
ĠBound ary
Ġa i
i ology
ĠSN R
ok ia
ĠWh atever
s q
Ġsl ide
isc uous
ĠModer ately
ĠLulz Sec
27 4
Ġart ific
ĠHam ming
Ġco ined
ĠDN P
US ER
MA X
Ġsub mits
Ġch aining
OD E
ĠWar ning
ĠBren nan
Ġas c
Ġweight ing
comp onents
30 7
Ġb ounties
ĠKn own
Ġins ulin
j pg
ĠAnt on
Ġparam ount
Ġorgan izing
ĠFlash back
Ġtraffic king
ĠFI LE
Ġenvelop e
Ġaff airs
ĠDR AFT
Ġincrement ally
Ġnarr ative
ĠSE H
Ġret ro
X T
Ġaud itors
A IN
b t
ĠZ DI
Ġelectron ically
Ġs in
w eek
ĠH ad
ĠN ob
ĠFin ance
Ġbad ly
Ġdupl icates
ĠE BP
Ġcle artext
network s
com mit
Ġachieve ment
Ġ_ {
Ġunf old
SS E
Ġadjust ments
um ed
ĠEn able
79 8
Ġhe s
Ġac ron
Ġafford able
el ly
no ise
Ġg ene
ĠGo ing
Ġesc row
Ġl as
LA SS
oj i
Ġunob servable
Ġden ying
ĠCur ve
Ġdump ed
k de
Ġint ract
Ġunder graduate
Ġexpress es
Ġgy ro
r ules
16 1
Ġdiscrimin ate
rec ord
Ġab road
Ġmisconf iguration
ĠTR ANS
ĠOpenV MS
ĠS ect
gu est
db c
ĠAur ora
ĠChang ing
Ġtr illion
ĠEXPLOIT ABILITY
ĠEn igma
Ġcorrect ive
run ning
j u
ang ers
ĠMa pping
ĠPK CS
ĠExec utable
Ġorchestr ation
as per
Ġne at
Ġnot ifies
ĠHam ilton
ĠSir i
RP C
22 1
ĠSt ock
ĠRe uters
t emporal
am pling
ĠGener ic
Ġrequ ester
ĠPoint s
ĠTrend s
Ġ ÃĹ
VID IA
m ir
40 5
Ġrepro duction
Ġspread s
Ġv ill
ĠB ird
Ġaffili ates
ĠH S
ats on
Ġmod ularity
ĠBang l
Ġinvestig ates
Ġnotor ious
n m
Ġrec omp
Ġfle et
ĠA th
Ġhel lo
s elect
ĠPack ages
in ism
Ġqual ities
ĠDe an
ĠINT RODUCTION
Ġrem inder
Ġopen ness
f re
e ach
t ables
E v
Ġsp are
Ġblacklist ed
ĠSc ot
Ġbypass es
Ġjo ins
Ġc iv
op ing
25 2
N F
EX T
Ġf oster
ĠUS N
om ics
ĠL if
ĠAS V
Ġconcaten ated
t oken
ĠCo hen
Ġaxi om
appro ved
Ġinter ior
r ine
Ġwith stand
ĠEngine er
Ġrev oke
ĠInter cept
ĠCN S
Ġs inks
Ġdilig ence
ĠSwed ish
Ġb atches
Ġcryptosystem s
Ġt rib
ĠC DF
ĠProb ability
Ġnot ifying
ĠT oken
Ġfl uid
ĠPage Rank
ĠSurve illance
Ġquant itatively
ĠIN TER
Ġtr ash
50 5
ĠGener ative
Ġfinanc ially
ĠH Y
Ġincl usive
Ġmisconf igured
Ġcount less
ĠAir bnb
mon itor
ĠLa unch
Ġperpet rators
Ġprecond ition
ĠO s
Ġperpet rator
r ates
Ġfavor able
/ (
enc rypt
Ġfoot er
Ġplay back
Ġdat ed
ĠPCI e
ut ter
ĠA AA
ĠS AS
ĠAdvers aries
ĠLock y
ĠH i
Ġconstruct ive
Ġn iche
Ġinter rog
irect ed
28 4
, .
Ġcl ue
m able
ĠL ID
Ġpr imes
64 2
Ġauto encoders
01 7
ĠKe eping
ason able
ĠR W
Ġpus hes
ĠTrad itionally
Ġc ro
Ġrespond ers
or un
ĠLe ft
h ist
ĠM ission
Ġpres cribed
CS RF
Ġcatch ing
man y
! )
L a
ival ent
Ġinterpret ations
Ġreg ener
Ġwant ing
Ġextra ord
ĠS her
G DP
Ġtor rent
A meric
qu al
Ġmy th
f ac
o e
Ġdomin ance
ĠProv iders
Ġcert ify
Ġbread th
Ġfun ny
Ġboot ing
Ġtwe ak
ĠLagr ang
40 8
27 9
ester day
Ġlex ical
Ġreg imes
oper ation
Ġstim uli
Ġstr ain
log s
ST L
ĠJ ew
m ad
01 5
ĠFe b
Ġc f
ĠLe ague
ĠClass ifier
ĠAssoci ated
Ġam ate
ĠStud ent
Ġre ductions
22 8
IG N
Ġentreprene urs
ec onomic
Ġunint entionally
ĠSequ ence
ĠF red
Ġsub str
P LC
Ġsm ell
ĠC os
ĠN ation
Ġab using
Ġplat oon
32 4
ri ends
Ġ+ ----------------
Ġtom cat
j son
k an
Ġw estern
P F
in variant
a ad
18 1
Ġe gress
Ġd ry
Ġtrad ition
ĠPass ive
Ġph on
ĠK at
50 2
Ġsc andal
Ġvisual izations
78 9
Ġmarket ers
ram id
Inst all
Ġ20 48
ĠM IC
ens ible
Ġdeleg ated
34 6
N OW
ĠE fficient
ser viced
Ġrecur ring
ens ored
Ġrec v
Ġmal wares
Ġx p
Ġqu it
Ġhard en
uss ed
M obile
ĠM om
Ġcl ones
or al
Ġelig ible
Ġst ale
Ġsub vert
19 8
p ixel
Ġintr usive
ĠCS V
ĠLuck ily
Ġinf amous
Ġdump ing
ĠAng ler
Ġexc erpt
App le
ĠBer lin
ĠPro s
ĠB ag
ĠNETWOR KS
Ġman uscript
ser ved
ĠDef ence
priv acy
ĠLiber ty
Ġup link
Ġremed y
Ġcha os
ĠCybercr iminals
Ġ1 85
Ġcolle ague
Sim ilar
ĠV ert
Ġi D
Ġtract able
l ag
ĠJ VM
Ġhome page
Ġpun ishment
b ell
ĠR iver
Ġsw apping
ĠOx ford
Ġin et
ĠIn ject
** *
ĠTelecommun ications
c ur
Ġartific ially
Ġser v
aus ed
Ġfin er
ĠC yp
ay a
Ġenjoy ed
ok u
34 4
ĠS GD
Ġrevers ing
M ENT
ĠHy dra
Ġbuck ets
ĠW LAN
P res
on ce
ĠWork s
j i
Ġdecent ral
block ing
osh aw
Ġ================================ ===========================
ĠPort ug
ĠPict ures
em ies
Ġmut ated
Ġinnoc uous
R OR
w ill
Ġh i
ĠW ire
ĠCAPTC H
Ġeven ly
ĠB ow
cook ie
ĠPon zi
in jection
ell ation
Ġmal es
ĠP s
Ġback ing
17 9
reg ion
ĠH osp
01 1
Ġrepro gram
ĠMor ris
P ad
TRO L
i ples
r ace
AC H
Ġ( #
Ġmy riad
Ġtail or
Ġcyber bullying
ĠComprom ise
ri ors
ep s
bi ased
Ġaven ues
k m
ĠATT ENTION
f und
Ġax es
b inary
f etch
Ġdata flow
ĠRout e
Ġp ent
Ġind ications
Ġvac uum
Ġz oom
S k
ĠDevelop ing
ĠExc ell
ĠLu a
Ġcogn ition
F ilter
ĠN elson
ĠNe ither
SG X
ĠC and
ĠP B
Ġla ugh
fusc ated
Ġsubsid iary
Ġstay ed
serviced esk
Ġpat rol
ĠMcD aniel
W indow
se par
hem atic
i X
Ġpur ported
erv ous
H F
y o
Ġav iation
aly e
Ġhaw ks
Ġs le
Ġb acter
Ġe ating
Ġv oted
ĠRuss ell
ls a
Ġch rom
ĠT ouch
ĠB ol
Ġexploit ability
Ġp ub
ĠConn ected
se ed
and roid
Ġexp ands
Ġsandbox ing
P y
Ġfr aming
bers ome
19 1
b is
RE SS
XX X
ĠWAR R
Ġst upid
ĠInter action
W inds
Ġpand as
Bu ild
ĠU ML
Ġmicro controller
ĠUP DATE
format ics
h abil
Ġent ail
Ġquestion ed
Ġmisbeh aving
ĠMiss ing
Ġs s
Ġgest ures
Ġre order
ĠT ok
ĠCISA servicedesk
typ ed
ps i
ĠAttrib ute
ĠSo on
Ġacqu ires
ĠN B
ĠF ourier
70 4
Ġagre es
Ġp unct
ĠSV G
he v
ac re
ĠP ART
Ġhop ed
rep udiation
Ġincred ible
ĠS outhern
ĠI CC
Ġw er
Ġmultipl ier
ĠO EM
Ġf urn
ĠImm unity
Ġbenchmark ing
Ġto uc
ĠTr ain
act ivity
ĠFr ame
ĠL N
Ġpop up
vuln Id
C FI
Ġsm oke
t itle
ins p
ĠPo W
ĠKey words
) \
K T
en v
ĠCar l
INDOW S
ĠR isks
Ġmal loc
18 7
Ġmarket places
Ġchair man
ĠIter ative
ĠT emplate
hest er
M AN
OW ER
Ġpriorit izing
ĠQuest ions
ĠS ud
Ġpractical ity
w orm
gu ess
ĠExpl anation
Ġmim icking
Ġfall en
Ġtax es
ĠAp ollo
ang les
ĠSP ARC
Ġdegr ades
Ġskew ed
am ar
ĠC lose
ĠD elivery
Ġmis under
thread ed
log ical
ĠR D
AT H
ĠProject s
gn ome
D OC
ĠR ails
Ġoccup ants
ĠN VIDIA
Ġst ip
c uts
c ategory
Ġ> =
M ay
n map
ĠMon ero
S afe
Ġlast ing
ĠRem ove
f amily
est yle
Ġsp ort
Ġnon etheless
Ġmis information
ĠAnt h
Ġing ress
Ġassoci ative
Ġprocure ment
R NN
Ġyour s
---------------- --
ĠInst ant
Ġlif t
ĠM N
ĠK le
Ġam ort
ng th
ĠProt ecting
Ġc ripp
ĠN aked
ON E
ĠH old
ĠWeak ness
Ġparallel ism
Ġcaut ious
Ġexpress iveness
oc umented
Ġc Dc
ear ing
Ġspam ming
ĠPer iod
ĠTe ams
re view
Ġeng agements
Ġfit ted
Ġconclud ing
ar on
uk in
Ġcl ipping
ff f
30 3
US ION
an umeric
Ġindefinite ly
Ġal arming
ĠM V
Ġbl end
Ġcum bersome
ĠâĤ ¬
Ġclean up
requ ently
ĠMit nick
ĠA H
h as
ĠV NC
Ġdisc ern
am os
ĠV AE
Ġmal vertising
ucr ative
g db
Ġun affected
Ġmarg ins
a ire
ĠUP X
ĠCHARACTER IZATION
Ġfict itious
x e
an alyst
ri vers
rop ol
Ġspeak s
ĠCorn ell
o ly
s pr
Ġb er
inter face
55 5
ĠG lass
Ġfar m
19 6
Ġir on
disc iplinary
ĠImplement ing
Mad ry
Ġprompt ly
ĠC itiz
Ġatt ended
E nergy
es ar
ĠE c
Ġunman ned
Ġint ents
ic y
ĠT rip
Ġun disc
ĠN v
ĠFl ip
Ġlegisl ative
Ġer ased
Ġrecogn izable
Ġestim ators
ĠMich igan
ress ions
Ġgather s
Ġult ra
Ġfont s
Ġmasquer ade
Ġn uts
sp y
S un
Ġe ager
ĠF DA
Ġextens ible
Ġwhitel isting
Ġ>> >
Ġinter fering
Ġemphas izes
Ġd orm
S am
IM A
ĠAdministr ative
Ġf ut
ĠN est
ĠL ists
ĠNT FS
un iform
Ġint ellig
Ġreserv ation
C hat
Ġs igmoid
00 7
ĠExec ute
Ġce ase
ĠAccount ability
ĠS B
Ġspec ulate
gu ided
ex pl
Ġqu asi
ar ity
ĠNS L
p al
ĠDe lete
ĠSOC KS
ag ment
Ġslo pe
Ġj b
ĠCamp aign
C ard
T erm
our ne
Ġplaintext s
Ġsanit ize
V R
end or
os es
Ġadmin ister
Ġinstitution al
h al
Ġwer den
z u
Ġrestaur ants
Ġg oshaw
ĠNo vell
il lo
ad ic
ĠNot Petya
f ive
Ġencrypt ions
ĠB ooth
ĠSS ID
ĠCON F
cond itions
ĠNeg ative
ĠBangl adesh
Ġexp ed
Ġp our
Ġcrypto grap
ĠPlay Station
ĠMad off
O per
s ocket
Ġdel ta
ĠBr utsch
, '
r f
ĠUn known
Ġhur d
Ġconsult ants
R oot
ition ing
ss on
all ine
Ġbre vity
Ġbreak through
us hed
Ġsens ory
Ġdetail ing
be fore
ĠEstim ation
Good fellow
ĠNot ification
Ġr icher
h ub
Ġrepe ats
################ ################
E u
ch osen
ap unov
ĠEl astic
19 9
ĠBroad cast
ord ered
Ġimag ery
ĠW AF
ĠPl ace
Ġ======== ====
ĠA ODV
Eng ine
Ġtouc hed
Ġsp arc
Ġn a
ĠM oss
RO ID
Ġhonest ly
sam pling
Ġp oker
ĠGener ating
iA rc
Ġpip es
ĠB ed
Ġreal world
um ns
Ġrecru iting
Ġo vere
Ġsp ends
Ġembr ace
ĠMIL P
Ġgeneral izes
Ġplan ner
Ġbi ology
Ġfig uring
bor ne
oc ode
Ġliter al
44 7
Ġinitial izes
D uke
p am
Ġmod alities
sm b
Ġback ported
ĠFix es
J ECT
Ġpseud onyms
OC K
it em
ac em
ik it
ĠC art
RF C
Ġel icit
ĠD if
ĠN okia
ĠTim ing
g age
ĠPrinc ipal
ĠA CS
text style
Mod el
B erry
Ġlike wise
ĠSub st
ĠWin Dbg
ĠPrem ium
Ġch urn
Ġinquir y
im ation
elect ric
Ġfl ux
Ġdiscretion ary
Ġcompos itional
D ig
Ġx ml
Ġbr aking
at ics
ch ild
Ġtrans ce
16 6
igu ing
Ġascert ain
ĠS omething
ĠH ook
ĠGraph ics
ĠL ipschitz
ĠCr ash
ĠB uzz
Ġphys iological
Ġbe acons
ĠSchmid t
od d
ro ute
Ġrebo ots
ĠFilter ing
ĠViet nam
gener al
ĠChrist opher
= -
Ġl ucrative
0 888
en berg
Ġ1 84
ple tion
Ġfals ified
Ġj Query
ĠB rief
ĠH ttp
Ġfore see
Ġal b
Ġt iers
ĠP sych
Ġd ictionaries
ĠV O
Ġdel im
om put
ĠLew is
ĠB art
ĠS ensors
ĠDec eption
------------ -
Ġadv ancing
Ġprol ong
ĠCom ment
ĠCh romium
Ġ9 00
ĠT ier
ĠSP L
Ġn ervous
ĠAP s
p otential
Ġbu ilder
ĠT y
up y
ĠG a
Ġbis imulation
EC H
30 5
Ġded uction
b m
ff ected
50 6
Ġsc ar
reg ister
g ical
Ġkey boards
al ation
Ġreact or
R SA
d m
Ġdepend ability
abel le
Ġw elfare
ĠM ong
ud p
ĠSt aff
ĠHu awei
Ġnegot iate
ĠSolar Winds
A g
Ġdat agram
ĠL aser
Ġhard ness
ĠJB EAP
is crimin
ĠH ung
Ġhot els
ou red
ĠR ating
th ora
ĠK ot
Ġreus able
un ed
ĠH it
Ġsc attered
Ġcol oring
Ġ' '
Ġbip art
it ers
m or
ĠMess aging
ĠR ADIUS
Ġd ilem
Ġdisapp oint
( [
T wo
Ġm it
Ver if
av ors
He alth
Ã ¼
ĠE ternal
19 7
ĠS us
ĠM ov
ell a
Ġmot ive
Ġu a
ĠExper ience
ur istic
Ġ1 76
Ġtra it
IS M
Ġalter ation
determ inistic
Ġref r
++++ ++++
J SMA
v or
techn iques
ĠW atson
Ġc s
Ġtw itter
Ġcall backs
Ġstrug g
Ġstat ech
ĠLy apunov
ph i
Gr aph
ĠB uff
Ġdef ective
ĠWOR K
s ometimes
Ġapp ending
am ber
Ġincrement ed
App lication
Ġloc ality
m bs
C are
Ġre using
Ġsustain ability
ĠUS ER
ĠP urch
6 96
ĠG il
Ġspokes person
l ive
Ġregistr ar
d sc
qu ot
Ġinf inity
ĠAt ari
conn ection
ĠDr agon
i ere
l ection
Ġstim ulus
Ġtools et
Ġdepos its
Ġstri kes
ĠR os
ĠCn C
ĠTr ick
ĠChrist mas
Ġoccas ional
r l
Ġw get
ĠU nd
ĠSC ALANCE
ĠA IC
Ġbetween ness
yl van
ĠUt il
ĠT em
Ġspray ing
Ġs its
ĠSt ory
pre hen
Ġprecond itions
Ġr ush
Ġsh aped
Ġla zy
Ġm bs
Ġha v
ang o
ĠD ir
Ġimm unity
ĠProv ide
ĠR oss
ĠSt yle
S um
g mail
2 96
2 99
Ġint im
Ġtom orrow
Ġed its
ĠD ong
Ġk Hz
Ġcult ures
link ed
ĠH unt
vis ing
ĠObject s
s em
Ġ" \
Ġthere in
Ġbrack ets
ĠO B
N otes
ĠB an
IS S
ĠBench mark
du ino
ĠGu est
Ġstri pped
ĠU AC
neg ie
M c
ĠP u
ĠSQL i
ĠCons ortium
Ġp ec
ĠHarr is
Ġel apsed
Ġproject ions
Ġqual ify
Ġarrang ements
Ġrec overs
Ġb lob
ĠG W
Ġow ing
Ġdistort ions
ĠSC A
Ġrecruit ment
int o
ĠZ ukin
Ġrestart s
ĠKer as
Ġt ension
ĠT B
Ġim posing
Ġprec ious
ĠIntr uder
Ġinfinite ly
Ġtransparent ly
Ġa arch
Ġval ves
Ġvers atile
Ġthere of
ns ylvan
ĠMatthe w
Ġc c
Ġaud ited
fore ns
ĠAl to
70 5
ĠUN ION
oom la
Ġsong s
Aut om
olith ic
Ġlaws uits
ĠJ ean
Ġtra pped
Ġthere after
id ate
ĠB eng
Ġtrade offs
ĠR u
Ġclass room
200 2
Ġpack ers
not es
th an
ord inate
Sh ift
jump id
ĠInter active
Ġtool box
ĠC eleb
conf iguration
Ġ1 88
ĠAtl anta
Ġmasquer ading
ĠOpen ID
Ġk ios
ĠSh ut
ĠRoy al
ĠLagrang ian
L ID
vic tim
ĠMont iArc
art ial
pro f
Ġconve ys
effic acy
40 2
I EEE
ad or
iment ary
Ġexpos ures
th ink
Ġrepl ied
40 6
Ġje opard
S K
Ġm unic
Ġinform ally
Ġur anium
ĠB atch
ens itivity
Ġfamiliar ity
il a
ĠS ab
18 3
U AV
Ġlib xml
urre nce
Ġcap s
0 24
ĠST M
sn mp
Ġsu ed
ĠB on
Ġunexpected ly
Ġoccup y
ĠFirewall s
Ġsemic onductor
ĠT urn
Ġperson a
Ġlot tery
Ġple thora
ĠConst itution
Ġuncond itional
Ġund irected
ag ios
ĠAtt empt
Ġillustr ative
ĠCar negie
for th
ĠB ody
Ġinters ections
Ġthrow ing
ĠInfo Sec
Ġwire t
A p
in cl
Ġeleg ant
Ġshut ting
A c
Ġd rew
Ġnumer ically
Ġvast ly
str ateg
co operative
p rediction
Ġwork shops
Ġdead lines
def ended
pe ople
Ġbeaut y
s hip
arch ive
dig ital
ĠF ord
ĠL inks
sol utions
ĠMob ility
ĠC ou
S he
ĠH ay
ĠMor gan
respons ive
Ġconcept ually
hand ling
ĠJ osh
Ġ19 81
ĠRepublic an
G O
m atic
ĠF O
Ġadapt ively
Res p
Ġp up
ov o
Ġexp ire
MS EC
ĠRel ay
Ġpro ud
Ġany time
The ore
ĠV ANET
, âĢĻ
G U
Ġpop ulate
Ġsne ak
ĠAS IC
29 4
' d
U se
Ġe lder
ak i
ift een
Y Y
ĠF ew
Ġab rupt
Ġoffsh ore
S ocket
Ġor ange
ĠNicol as
Ġtr aps
Ġproceed ing
Ġc ensor
Ġsub group
in ternal
ĠC Is
ĠG RO
sv g
w ind
comm ons
Ġprof ic
Ġ======== =====
lab s
gl ass
B ull
18 9
empl ates
ĠPen nsylvan
ĠEmp ire
ĠNav al
00 9
sc ription
ĠJT AG
C ipher
Ġl b
Ġf iring
et ers
ĠR ub
01 2
D Net
ad ium
Ġimp rison
ik ov
Ġf oo
ĠW ales
ĠJ D
ĠH orn
Ġplant ed
ut y
Ġcan ary
ĠH M
ĠHand ling
he ast
Ġdeter rence
S n
ere gr
L ow
IN S
em ons
Ġare na
Ġsens ible
ĠGener ate
Ġmaintain ers
ĠEngine ers
Ġtel esc
Ġlo b
Ġsk ipped
g lobal
habil itation
int he
Ġun att
ar ray
res ult
And roid
leg acy
Ġho ax
Ġpip el
e er
GN U
represent ed
Ġappro ve
ĠAr c
Ġpun ish
2 60
Ġcorrupt ions
" "
Ġunav oid
ĠMain tenance
P ublic
i ator
Ġ2 24
Ġword list
Ġblind ing
Ġspac ecraft
Ġarg uing
aud io
ĠN EC
ĠR ot
u er
ĠN FV
Ġcur l
ĠEnt ity
z ed
ĠG ithub
Ġdebug gers
Current Version
R ES
Ġjail break
r ule
direct ory
Ġspons ors
ĠC ast
ĠR ET
Ġv andal
Ġpass ports
Ġhost names
Ġexponent iation
eck er
Ġimp air
Ġsecret ary
ĠObject ive
Ġover run
Ġsimpl ifying
ĠSw ig
ĠiPh ones
ĠG ib
Ġar ts
Ġend less
ĠOPER ATING
ĠR N
RE AT
ĠEx ception
ont o
Ġoptim isation
n at
t ope
pr one
Ġdistort ed
ag ain
Ġstreng thening
ex it
Ġtri ps
led ged
Ġscr aping
pec ific
ric ane
ĠFin land
Ġsquee zing
Ġyou th
anc he
g ements
Ġbe ll
Ġmir rors
x ec
Ġhol iday
Ġv eter
ĠLe Net
ĠPal o
ĠL ik
Ġmanufact ure
control lable
A ug
Ġco erc
80 2
Ġmeant ime
Ġcopyright ed
P ost
Ġconnect or
D isc
ĠPennsylvan ia
Ġdisapp eared
70 8
ĠLog istic
ĠC ube
lp ia
Ġf ot
Ġwas ted
Ġslow ing
Ġback propagation
ĠRe vision
27 5
O ff
i ac
ĠR OS
Ġ| ----------
ĠVari able
Ġfr ustration
Ġir re
Ġem ission
UL T
OP C
ĠCho ose
ĠMalays ia
77 7
Ġeconom ies
X ML
Ġp g
Ġlogarith m
Ġde ploys
AS LR
ĠN oS
Ġtr unk
Ġfabric ated
ĠPoison ing
Ġenthus i
E MS
Ġd inner
Ġnon compliant
Ġmisbe havior
Ġa ids
ĠD ere
Ġelabor ated
Ġquiet ly
med iate
ere nt
urs or
W C
Ġwar s
ĠRT T
Ġoppos ing
V e
Mal ware
Ġprompt ing
ferent ial
Ġlabor atories
Ġliber al
Ġt issue
ĠS andbox
Ġut most
aaaaaaaa aaaaaaaa
ve y
urer s
ĠPort able
Ġhous ing
ĠO ak
ĠN ick
Ġvo ices
s ky
ĠSP E
stat us
ĠRev olution
ĠA round
Ġins ecurity
ĠG ates
ĠWh it
50 3
OD S
ĠBlack Berry
ĠTech Republic
Ġrain bow
G F
ĠSM E
01 6
te fact
ĠR CE
ĠEC X
ĠIOC TL
ĠCl am
our c
Ġrig id
Q R
ĠC ov
32 6
ans w
at isf
X P
int r
IF IC
ĠJ ama
Ġcondition ed
c reat
ĠT T
Ġg cc
Ġsp ikes
Ġsl icing
ĠFact ors
Met hod
ing e
im ag
Ġmin us
Ġ100 00
ĠO D
Ġtechn icians
V ol
M AP
al located
Ġm ild
Ġimp rec
ĠOn apsis
Ġmeaning less
ĠPar allel
Ġmic row
po ison
Ġtow er
x ulrunner
Ġst ocks
ĠF B
Ġcle arer
> :
Q C
U F
ĠP IR
ĠH KEY
Ġattend ees
u o
ĠA griculture
av is
te es
Ġsil ver
Ġflood s
Ġy esterday
Ġun controlled
ĠE HR
Ġsm arter
Ġprom iscuous
ĠBU FFER
Ġannoy ing
Ġa kin
Ġl ad
Ġem an
Ġ12 3
ĠDet ect
Ġroad map
ĠZh ou
Comput er
W ord
Ġpl ag
n ob
ĠC ry
ĠD ot
and ex
48 4
Ġout door
ian a
Ġprogress ion
ĠP SN
Ġlack ed
Ġmn emon
h idden
Ġwhe els
Ġref und
Ġ================================================================ ========
Ġmis used
ĠS Us
Ġconscious ness
ĠTele gram
ass uming
Ġ15 00
Ġnort hern
ĠB D
28 5
ĠP seud
Ġper miss
ĠPre par
Ġparent heses
pro ced
ver ter
Ġ( [
privile ge
Ġz er
Ġth rew
ĠN ak
ĠSophos Labs
Ġdefic iencies
Ġautonom ously
ĠM ath
ĠM en
ĠYe ah
d n
g io
Ġinstant aneous
ĠExploit able
ak is
Ġph re
CP A
Ġdis pro
port ion
Ġli bert
Ġrad ical
ĠLim bo
Ġsm ile
Ġdeclar ations
Ġy i
Ġret irement
Ġ ions
ed s
Ġpec uli
Ġa erospace
ol ly
ĠX ie
Ġsoon er
ĠCred entials
block s
Ġclo thes
Ġpercent ile
al igned
ĠD og
Ġtel ecom
Ġspons or
Ġblind ly
32 8
Ġreferen cing
ĠUt ility
IS H
bug s
Ġt apes
sh ort
Ġ< <
ĠSy ria
Bull Archive
ĠO BD
Ġrec re
ĠPl ans
ĠPR NG
g lsa
Ġmultipl icative
plex ity
ĠT ag
ĠSol idity
Ġsat ur
ĠG DB
N AME
ec d
ĠLi ang
ĠM OS
pe g
Ġnondeterm inistic
2 15
fl are
d B
h ook
Ġmistaken ly
or ne
ĠUn its
Ġincre ments
L ear
L US
ĠCol umn
Ġaver ages
Ġnet list
Ġpedest rian
ac ian
do i
ĠOS es
ĠCR S
[. ]
p ared
Ġexfiltr ated
Ġpass age
Ġclo aking
ĠNear ly
wit ting
Ġvac ation
ĠD re
dat abase
M ode
sec BullArchive
Ġmanage able
ĠEv idence
ĠC IP
ĠNum erous
ĠM ig
Ġ2 40
ĠCl aim
Ġprogress ively
rim ental
ĠSt one
Pass word
Ġoff ending
IC K
cond uct
Ġarr ange
2 30
b orn
Ġdown gr
ĠStat ement
Ġexha usted
G e
Ġs ig
ĠE MS
inc ent
ĠTim eline
P at
Ġpol es
Ġstri king
Ġecosystem s
ri age
Ġcardinal ity
ĠM X
Tr ue
ĠAnaly tic
click ing
. :
S IM
ĠSte aling
ĠCap abilities
ĠMit M
Ġdec oys
ĠBrazil ian
64 8
Ġexperiment ing
Ġcircuit ry
Ġkit chen
and estine
Ġvisual ized
Ġan ger
32 1
ĠProv iding
ĠRoot kit
Ġmand ated
ĠT error
ol ving
Ġpol itically
Ġhamm ering
ric hed
ĠC ORE
Ġair line
} =
Ġvolunte er
quant um
Ġign or
ĠC OR
inet ic
Ġun forge
ĠN F
ĠDo ctor
el a
ĠAl i
ĠAtl antic
ĠW orm
Ġupp ercase
Ġboost ing
4 10
40 3
Ex ploit
Ġgold en
L I
ly n
Ġendors ement
Ġsubt ree
ĠMus ic
( âĢĺ
in x
Cl ick
Ġlong itudinal
Ġloy alty
ĠDiff icult
OS P
ĠRES OLUTION
ĠD AC
aked own
Ġsv chost
16 2
Ġsu its
ĠVend ors
Ġch root
Ġcollabor ating
ĠDel ay
Ġat h
w get
ĠCP E
B as
il og
ĠR om
28 7
ĠPent agon
p he
Ġinterdepend encies
Ġspaw ned
V irtual
Ġco herence
ĠAnth ony
Ġd ur
Ġch ron
ĠCrypt ology
ĠFuzz y
onom ies
az a
SS ID
ĠAr ray
Ġevic ted
Ġrot or
Ġmoder ators
ĠG ig
lo p
200 1
M ed
s plit
ins ensitive
Cont ent
h ai
ĠS lack
Ġwa ited
Ġsp ans
Ġacc us
Ġtest im
Ġsix th
F ORM
Ġt anks
Ġn ave
ĠThom pson
L ee
Ġpo le
36 9
keep ers
Ġtele phony
Ġhierarch ies
Ġ ^
Ġ3 000
, ,
ĠK a
Ġmicro sc
T arget
Ġc b
Ġdet rimental
Ġuna uthor
ĠScen ic
S ym
g el
Ġs ick
ĠClass ic
ĠRB AC
ĠC um
Ġlegitimate ly
IG H
Ġfall back
C W
Ġinf osec
are to
Ġund ocumented
Ġcontrad iction
ĠPol and
Ġcount y
Ġdisturb ing
ĠL ind
ĠV ul
o W
Ġx ulrunner
ĠSte am
Ġstrug gling
ĠM ind
ins on
Ġt on
ser ial
ĠEXEC UT
t as
Ġfundament als
ĠSchne ier
Ġc ere
Ġrespect s
AC TIONS
c ategories
ar rival
ĠD D
gt k
ĠD um
ĠC AD
Ġpo isons
su fficient
ĠEnumer ation
N umber
ĠW ast
Ġshort ened
ĠOu alline
ĠHolly wood
part ic
Ġvict ory
2 86
Ġrandom ize
Ġenumer ating
Ġdepart ure
ER C
L i
ĠT FTP
ĠCap ability
re comm
Ġn atively
Ġmus cle
ĠCalc ulator
n ative
Ġcr u
Ġx org
Ġl ux
ĠTrans formation
ĠL p
35 5
ĠSte ven
ĠCount ry
Ġsecur ities
ilt ers
Ġcompar atively
Ġmut ations
ĠG row
80 6
ĠDS L
Ġsubscript ions
Ġur ge
ĠAr med
Ġstri ve
Ġb ump
Ġnormal ize
ĠLog s
ĠB rok
ĠO ri
li ver
am oto
In put
Ġprot ein
Ġlob by
ĠC el
or ous
ĠA st
uct ions
01 8
Ġnavig ating
s ingle
cont ained
ĠLot us
EN IX
ĠOut line
Ġab norm
Ġw izard
ĠW M
ĠBr ain
Ġun know
det ails
Ġdisass emble
Vulner able
9 11
od el
Ġintern als
compl iance
ĠActiv ities
Ġdem ographics
---------------------------------------------------------------- -
Ġse q
Ġind ucing
Ġstret ch
hou ette
ĠRow hammer
Ġtox ic
Ġenroll ment
Ġtim ings
ĠCrypto Locker
Ġex ert
r age
em e
Ġdoub led
o ving
as ets
Ġshuff le
ĠM other
Ġampl ified
ĠIll ustration
Ġretrans mission
ĠF oot
2 88
ĠBr ad
re pe
Ġout let
Ġpar liament
Ġadvantage ous
ĠMan age
ĠAr duino
Ġweb mail
ĠICS s
Ġden oting
ĠLog ging
ĠS ense
ab i
ĠHigh ly
Ġph ish
ĠCogn itive
Ġunauthor ised
ec ks
Ġre per
Ġcrowds ourcing
ĠSM Es
upl ication
ĠPrinc iples
ord an
() "
m icro
50 7
Ġen act
l ability
uck oo
Sc ope
ĠE p
25 3
r ather
Ġt ighter
lo e
Ġs q
Ġtechn ician
Ġdark net
Ġm ood
ĠP rize
ĠR ain
Ġad missible
Ġnecess it
ĠMod ules
Ġresol utions
Ġdro ve
ĠImportant ly
Ġglass es
indust ry
Ġp tr
V ec
ĠUn ique
Ġshe ets
76 8
C an
Ġtime frame
36 6
exploit s
ĠW iley
Ġport als
32 2
Ġm k
ĠD elta
ĠR atio
Ġpredomin antly
Ġabstract ed
Ġb s
ĠCAPTCH As
Ġf art
th al
FLO W
Ġt ort
64 0
Ġ19 79
Ġg aze
Ġproof ing
Ġlink age
ĠAN AL
Ġflight s
r ically
ĠMet ric
Ġbirth day
A H
] /
Ġst ressed
Ġinc ap
prior ity
Ġw inter
ĠE cl
former ly
Ġg lean
ĠEnter t
Ġcircumvent ed
ĠEnh anced
ĠNew ton
debug ging
Ġorigin ator
BF GS
o a
Ġlo ans
Ġall iance
Ġbind ings
ĠSt ef
H igh
ĠD uck
Ġun cor
net t
ĠSil icon
er ves
ĠResp ond
Ġmicro phones
G roup
ĠCS Cs
Ġstealth iness
ĠJ e
G ate
ro oms
Ġharm on
Ġwatch dog
ĠD ro
ĠU M
Ġfe ars
Ġsn ow
y i
Ġi j
ĠCor relation
ĠPrim ary
Ġlem mas
Ġshow case
Ġdirect ional
ver ify
ĠSur prisingly
ĠP ages
ĠD FA
S ER
ĠL am
Ġfill s
Ġdilem ma
iv est
Sm art
Ġconvenient ly
ers ey
Ġev ac
ĠBas ics
ĠEmpir ical
H ead
Ġh ammer
Ġpersu ade
Ġreg ulator
By te
Ġhypothes ize
b n
ĠA AD
Ġag ility
path s
Ġintermitt ent
Ġar tefact
ĠMe eting
on ge
ĠO m
def ender
7 55
Ġde ob
ĠP F
Z DI
Ġun witting
Ġmur d
AN A
Ġsp ell
F unction
ad oc
Ġtrans itive
ĠM IPS
Ġbo ots
33 3
ĠEv il
vi olent
Ġali ases
Ġ27 001
ĠEns emble
Ġintract able
Ġf f
Ġmet aph
Ġdemocr acy
ĠRein forcement
s ible
Ġattract ing
Ġsp awn
18 2
Ġden om
arent ly
uck s
Ġad mits
ĠUnder stand
ĠLaw rence
78 1
Ġnont rivial
ĠCy cle
channel s
tra ffic
Ġtransist or
h ave
Ġpir acy
ĠSA E
Ġpeace keeping
r ays
ĠCOMM AND
Ġp cap
ass y
Ġac y
ĠDoc uments
ĠSto chastic
ĠI ly
ĠM SS
ĠMotiv ated
Ġ Ã
Ġpermit ting
pay load
D ATA
ĠT ang
CR YPT
ĠFact or
s ent
Ġfict ional
Ġgrate ful
d ynamic
R andom
Ġc t
ĠD QN
Ġlogarith mic
us al
ĠN i
Ġcorrel ating
Ġclip board
d isco
igh th
ĠC oding
Ġdisc laim
Ġinvalid ate
Ġsubgraph s
D ER
ast y
Ġident ically
Ġalph anumeric
ĠG I
fo ot
ĠA OL
Ġrent al
Ġfif ty
Ġeb p
Ġlo ved
Ġanonym ization
Ġresidual s
ĠS ending
ĠG mb
ĠHT LC
ĠHot mail
su per
ĠCond uct
Ġenrich ment
Ġb at
Ġresp ected
ĠSMB s
Ġeth nic
Ġdoct rine
Ġrock et
low er
Ġste el
ĠFl ag
ĠTrans lation
Re LU
ĠMell on
V I
AP ACHE
ĠBP DA
il o
Ġsur gical
as ant
ĠDis ney
Ġsurre pt
h att
ĠPack ets
ĠLapl acian
Ġim itation
Ġcust ody
36 3
A ud
g un
ĠChar ter
Ġp id
Ġin hib
ĠF AR
host ed
ĠColor ado
Ġf ifteen
Ġw ine
Ġco ex
ĠS ocket
Ġi ii
ĠCold Fusion
ĠP arent
Sec ond
Con v
ĠCybercr ime
offic ial
Ġlow ering
es is
96 0
n ext
lock ing
ĠDes cript
O ct
Ġrepet ition
Ġk et
Ġten ants
aps es
ĠBL ACK
ic ators
Ġsyscall s
Ġfor tun
Ġspecific ity
f irmware
ĠC up
b row
e ing
Ġstr cpy
+--------------------------- |
Ġ1 17
m c
w ild
ĠV ent
Ġind iscrimin
b ee
-- |
ĠK o
ĠSR AM
ed ed
ĠIs lands
ĠH op
Ġq i
Ġsegment ed
Ġcounterex ample
Ġun biased
Ġencaps ulated
A pr
Ġnum b
Ġmar itime
ĠComm ands
Ġaven ue
OP S
Ġabsor b
Ġcompos ing
Ġsw ift
Ġelder ly
Ġouts ider
Ġcompre hend
m ates
Ġp added
Ġen emies
AS R
hp sc
Ġdefe ating
Ġentire ty
oz y
Ġis t
ĠSec re
ch i
Ġ10 9
Ġcorrupt ing
ĠQual comm
re ach
ĠO cean
ĠV ar
Ġpurs ued
ĠF SM
ĠPrinc iple
Ġblack out
CL USION
omb ies
66 7
Ġdiscontinu ed
ĠGmb H
in ates
ĠM ul
ET E
27 6
Comm on
ĠW MI
n odes
âĢĻ )
Ġab uses
ĠCD s
R ET
ro uting
Ġ10 7
26 5
ĠP ed
ĠCeleb A
ĠSA ML
Ġbil inear
Ġn p
Ġob ey
ĠLFS R
Ġatt ained
Ġbug gy
iff ing
ĠX R
ĠBusiness es
Ġsold iers
Ġrot ating
ĠUlt imate
ge x
ĠEntert ainment
Ġcl oned
22 7
Ġfore ground
p w
ĠR H
ĠRecommend ation
it te
Ġimport ing
Ġneg lected
Ġenvision ed
r r
Ġde put
ah n
ĠAcc eler
Ġrelay ing
Ġcom ic
P age
ON G
Ġche que
ĠPlatform s
23 3
ĠCon struction
Ġcompet ence
iv able
Ġass ists
ĠJ oomla
I BM
KL M
Ġfurther more
Ġn g
ĠSt rike
ed e
ip ras
ear s
Ġoverload ed
Ġrad ios
Ġconv ol
Ġdupl ication
ĠH W
ĠATTACK S
Ġam bit
ĠCamer a
Ġground ed
ĠN ature
ĠCP A
rupt ed
ĠMembers hip
Ġun law
Ġset uid
yn e
ĠHistor ically
ĠT err
resil ient
Sh are
ĠNor way
ĠDeterm ine
ut ch
Ġun classified
duct ive
Ġsol icit
Ġiter ates
et ter
ĠB oy
Ġcross ed
Ġstem ming
Ġun icast
if s
Ġr ud
80 3
ĠFD IA
ĠS ay
ĠR ick
build ing
vol ume
d p
Ġpre print
Ġro y
em ploy
Ġmil est
Ġtempt ing
Ġ13 1
ĠIOC s
Eng lish
Ġren aming
jail bait
F ore
i enced
Ġde re
Ġcal lee
ĠCer ber
Ġe ast
78 7
O v
Ġunlock ing
lig ible
ĠMIM O
P HP
U ZZ
L M
P OST
Ġm ilit
am ble
ĠIS C
Ġda unting
r hn
ĠMon th
Ġatmosp here
de ep
arg on
Ġvib ration
ĠBelg ium
ĠC z
Ġgr ass
29 5
m ess
ĠJust in
ĠF IR
Ġdec idable
35 9
Ã ¤
Ġtim eliness
ĠIN S
ĠBank ing
Ġfor ks
Ġsl ides
Ġ( *
r ality
Ġp df
Ġboot kit
Ġovere st
Ġeb x
f h
ic ulous
Ġcred ited
Al gorithm
ĠCh ip
Ġco pper
ĠRe venue
GDP R
Ġun e
ĠOS INT
ĠOlymp ic
ĠP AR
ast icity
Ġlit igation
app ers
Ġattach ing
ĠLabor atories
90 4
ĠP ot
Ġc ube
AN G
Ġblack listing
UL TS
ĠF NR
Ġcounter intelligence
Ġhom eland
ĠAM T
ĠMus lim
ĠOut side
ĠRequ ests
ĠMult ip
isp ens
Ġ[ ]
Ġbankrupt cy
C SS
ĠZ ombie
Ġintern ationally
ĠAust in
Ġaccum ulate
th ree
Ġillustr ating
N P
pk g
Ġmultip lying
Ġd word
ĠSM M
Ġh us
Ġun fortun
Ġ19 76
01 3
Ġg ut
St ore
R ad
ĠEx port
Ġreput able
ĠPop ular
Ġa cid
ri el
Ġim min
r aw
organ ization
he el
ass is
Ġfollow er
St rike
By tes
Ġmon olithic
AN GE
UT H
ĠPa ros
Ġanx iety
is dom
ĠB ra
ĠNon Stop
b roken
Ġbook mark
5 73
X E
Ġsimpl istic
Ġf ib
ĠR X
ĠPort s
Ġre str
ig mail
L ast
Ġwith hold
ell ish
ĠCluster ing
Ġwip ed
ĠEnt ropy
Ġin ception
inst ead
Ġb rib
ĠMAC s
ĠSham ir
Ġtrampol ine
Ġdetect ability
ĠEcl ipse
Ġnot icing
Ġleg s
BAS ED
loc ations
Ġw p
ĠAC T
Syn c
ĠK NN
26 6
SN E
ĠU pload
Ġal ters
Ġinterview ed
um ann
ĠCh loe
ne ighb
ĠOb fuscation
ĠW ong
ĠG enetic
ĠSh ang
c row
ĠM FA
ĠOS s
ĠInd ones
ĠMP E
Ġther most
ĠEsc alation
Ġcr azy
Ġautom obile
ra per
ĠSIP LUS
h alf
T alk
h is
Ġair plane
o ir
Ġwar ns
Ġland mark
ĠC U
ĠP ier
ĠD ictionary
Ġel astic
Ġoverl aps
Ġt ons
ĠS om
ad t
Ġ1 19
Ġinstruct s
ĠF ool
umb led
Ġresid ue
Ġrevis it
n one
ĠI van
um ble
ĠLight ning
ĠG as
ba um
ĠC lients
ĠM illion
Ġsn ake
ĠGuid ance
c ached
Ġad versely
Ġge ared
ĠExcell ence
h or
Ġb att
ĠT IME
Ġquant ifies
Ġth underbird
80 9
ĠProced ures
r and
ĠP ush
Ġad mission
ĠTh reshold
u w
Ġenumer ated
ĠManag ed
sun ami
Conn ect
Ġunfortun ate
z b
re use
ĠPS IRT
Ġpar as
Ġjud gement
ĠD Y
Ġrenew ed
incre asing
D addy
in j
ov ich
ĠEv asion
ĠK oh
IN ET
Ġsleep ing
n p
ĠWHO IS
Ġr st
Ġ1 48
Ġass isting
26 2
Ġconsolid ated
L ike
R el
Ġop acity
Ġimm utable
Ġfunction ally
Ġsem inal
ĠTS X
ĠPon emon
r pc
ĠF if
ĠW as
iss ued
Ġbright ness
Ġcomp artment
ĠP od
Ġ3 50
AL ID
ĠA BC
ĠS pl
ĠG ene
P II
ĠU m
ĠLo op
PR INT
ĠAppro aches
ĠD riven
ĠL iter
ĠTR ADES
ĠMag ic
ĠEl se
Ġinf ers
Ġintr iguing
Ġsm ug
f ig
Ġt ube
ĠVM M
ĠCost a
ad aptive
Ġde bian
Ġsound ed
M IME
26 8
Ġspeed up
ĠGe o
ĠSc ope
ung en
st on
Ġall ies
tern oon
Ġrelig ion
c ient
ĠJ udge
at ting
ĠTRANS ACTIONS
Ġpar sers
Ġgr avity
oun ces
UN C
H ence
Ġen acted
Ġjud ges
ĠRES ULTS
ĠW y
ĠMANET s
ck i
Ġinv asive
ĠEX E
Res Net
Ġpit falls
ĠPear son
ĠE ND
umer ical
ĠWar ren
direct ional
Ġ4 04
ĠExt ensive
Ġstrengthen ed
Ġunders core
Ġre fere
B ig
Ġb idding
Ġcare less
ĠHen ry
ĠW I
ak h
T ools
Ġsy bil
Ġw est
ĠG ap
bre w
ĠMir age
ĠAle ks
29 3
U AL
Ġb ure
Ġre trained
ĠW PS
Ġout source
33 9
Ġtouch ing
ight ed
w indow
look up
Ġsumm ation
Ġam ple
Ġhand ing
Ġinvari ance
Ġmand ates
Q P
Ġen rolled
32 9
Ġunavoid able
im pact
Ġcha otic
R et
Ġhaw k
Ġing est
Ġdivers ification
! !
Ġs word
in th
ĠCit rix
N AT
ĠAb use
Ġneighborhood s
[ ]
V is
Ġt ac
it on
il on
Ġ1 13
ĠL ang
str a
irc rack
j avascript
v im
Ġs ister
ĠJ RE
Ġtime outs
Ġdiscover ies
Ġcode base
S F
g al
gh an
Ġres ets
Ġconstruct ors
ĠAC CESS
Ġdelay ing
ext ract
all ed
Ġk ali
ĠFor ces
ĠW ould
n z
Ġminim ax
Ġnegot iations
Ġb ic
ĠChen g
Ġultr asonic
ĠVictim s
Ġcorrel ates
Ġdiscrep ancies
ĠR on
90 8
prem ise
Ġwhistle blow
ĠST EP
Ġc hest
Ġhistor ic
ĠOpt imal
Ġc up
ĠS alt
ĠP G
Ġfet ching
Ġpr ag
Out put
P GP
ĠS ources
Ġst rives
Ġun link
Ġce iling
ĠSC TP
ĠGovern ance
ĠLog ical
Ġ19 78
Ġsnoop ing
N AL
Ġlog ger
ĠFin n
D ir
50 8
LOC AL
Ġearthqu ake
ol der
Ġadmin istered
Ġcontract ual
Ġpreced ed
un ning
rastr uctures
Ġtreat ments
em ption
so f
col umn
Ġo xygen
Ġp acem
ĠG IF
ĠRed irect
Ġbub ble
Ġm ails
co hol
Ġanch ors
Ġmaneu ver
Ġo mn
Ġsan ity
Americ an
hatt an
A th
b eta
ĠP ub
vis ible
Ġcent uries
Ġ) :
Ġ1 14
rol ls
IN F
m aps
Ã Ń
Ġn c
38 9
Ġpropos itions
w hether
Ġcovert ly
ĠR I
ĠK az
amp s
Ġimpl anted
ĠO liver
t c
RO C
Ġmultipl ications
Ġtack ling
mit age
ĠZ ucker
Ġstre ets
Ġcou p
mp eg
ĠSat ur
ĠScient ology
M ix
avi o
Ġformul ae
ĠGL SA
ĠY ao
ĠPl ant
1414 141
Ġcust od
asser stein
R ob
Ġre train
Ġfro zen
ĠScot land
m ake
ĠF isher
ĠUn authorized
ĠOpen Shift
ĠTor onto
n ered
Ġb ath
ĠM W
Ġprogress ive
Ġorganis ational
a verage
Ġstud io
eth ical
Ġinterchange ably
ĠJ ersey
ĠStr ict
Ġtrace ability
hard ware
ĠChild ren
t ab
ĠF BS
Ġdesign ate
ers hip
ĠWe i
ĠExam ining
ĠIndividual s
ie h
Ġgrad ual
Ġundert ake
Ġw ing
Ġ2 20
Ġsatisf iability
ĠCommission er
ĠRecogn izing
ĠRece iver
ĠD iss
Ġdomin ating
ĠS ender
ĠGra ham
Y our
Ġ| ----------------
ĠST AT
ĠDisco ver
CH Q
Add itionally
Ġang ular
ĠLED s
B rowser
24 8
ĠSS O
Ġmer it
p f
ĠA riz
', '
ĠR aw
ĠLIN UX
ĠSp ider
Ġtransaction al
igu el
2 17
Ġeconom ically
ĠT ap
Ġsuper position
Ġp eregr
ĠIslam ic
St ar
oft he
Ġremind ed
c li
Ġd s
ĠN AA
sc aling
ĠCertific ates
Ġo k
Ġbomb ing
Ġcor ollary
Pro v
Tor ch
Ġassoci ating
Ġdisag ree
ind uced
Ġrang ed
ĠPubl ished
Ġpeculi ar
U K
Ġsub l
ĠK DC
Ġmyst er
ĠCRE ATE
v ideo
de ploy
IR ECT
Ġd ance
ĠTo y
Ġtradem arks
SY STEM
oub ted
n om
Ġdis information
Ġinf lation
Ġb ent
ph y
sub ject
ĠSynt ax
Ġun balanced
word press
55 55
Ġun le
Ġy ang
Ġshort cuts
m gr
ĠE lement
ĠIs abelle
Ġacknowled gement
Un der
ĠSe ason
Ġcar go
Ġcrypt om
Ġaggress ively
ic able
ĠP areto
ĠZ w
ĠPA SS
3 70
Ġinterpret ability
Ġr ural
ĠK P
ĠPro blems
Ġben e
filter ing
Ġmonot onic
ĠFul ly
Ġhob by
Ġtr aceroute
Ġcontrol lability
ĠAlex Net
Ġacy clic
ĠJ in
ĠSub section
ĠRO I
Ġworth y
ĠBot nets
inst ein
Ġreplay ed
ĠMQ TT
tt e
Ġem ulating
ĠOS Ns
cf g
3 48
Ġme at
pro blem
ĠGo og
ĠCloud flare
Ġcomprehens ively
un n
Ġdirect ing
Ġs led
ess ment
vers al
ĠRe ason
ĠMD M
S GD
k et
Ġrec reate
ĠDes cent
ung s
ĠX iao
Ġimpl ants
leg al
ĠUser name
Ġrigor ously
G iven
Cont ext
in ar
ors es
Ġind ispens
24 7
ĠOS X
upport ed
pract ices
ib s
ache lor
ĠReg istration
Ġadjust s
Ġmarket ed
Ġred istrib
OW N
Ġstick y
recomm ended
d rive
Ġd up
28 9
ĠBegin ners
ĠMc K
ĠSam pling
Des cription
ĠWay ne
Ġbipart ite
Ġcentr ally
ĠRi pper
p ur
is ations
ĠN u
ĠL T
AC C
ij acking
ĠCAP EC
os ity
Ġestim ations
G W
ĠAN SI
Ġcrypt analyst
40 9
Ġflo at
P AD
Ġst roke
Ġdismiss ed
t emp
06 7
ĠAriz ona
i q
inter pret
off set
ĠSy rian
ĠSt ake
Ġmain frame
ĠCon struct
ĠGo Daddy
Ġret al
m k
y an
ĠJohn ny
Ġbottlen ecks
H INE
ĠN ich
over flow
Ġrein force
ĠSen ator
kde graphics
' ),
f ight
IS E
Ġrecon n
ows ki
pro perty
90 5
Ġlif ted
oubted ly
ĠW a
) [
ĠD ad
Ġdefend ants
Ġfrag ile
Ġguard ed
f light
ĠA X
Ġ14 4
W N
Ġoptim izes
60 3
ĠP ip
head er
Ġcelebr ity
ĠNN M
Ġverb ose
if est
A Y
Ġspect ro
P art
ĠO LE
Ġactiv ates
Ġoverl ays
Ġprot e
Ġsub optimal
ĠTs ipras
ĠWil son
m art
Ġv table
ĠAss ets
ĠCIS SP
Ġcast ing
er onaut
y r
ĠS DP
Ġallow able
Ġw re
Ġwr ist
Ġdomin ates
Ġrevis ions
R uss
ĠP CS
ĠNot able
x org
ĠF light
log y
ĠLever aging
Ġins ured
ne ath
ĠSim pl
74 9
gu ide
Ġsel dom
Ġwitness es
ĠMount ain
Ġsell s
bal ancing
Ġearning s
Ġstr ands
ĠAn alog
ĠDes ai
pre fix
Ġ13 9
24 5
Ġn ut
ĠT aint
ĠA DP
Ġqu bit
ĠSmart Things
yp ical
75 3
mean ing
Ġdecl aring
ĠEr rors
ĠSel ected
ĠNv idia
ĠZucker berg
Ġen riched
Ġsandbox ed
Ġfree ze
aint iff
lib xml
Ġre ar
ĠThe ft
Ġbul b
Ġtoler ant
Ġquarant ine
Ġadd r
Ġshr ink
Ġfound ing
ĠStructure d
Ġscar ce
ĠWeb sites
ĠEnvironment al
Ġm map
ver ified
source forge
P olicy
ĠM EM
Ġcorrect ing
fund ed
ĠM iguel
ĠAccount s
Ġmot ions
or r
ĠD ick
Ġinv itation
Ġnuts hell
ll i
anc ers
/ ,
in ue
ĠR TL
ri ans
ĠEu ro
ĠCS F
ĠView er
ĠMic ronets
ol n
Ġpop s
Ġcomprehen sion
ĠSant a
Ã ³
AC S
Ġsmooth ly
B oss
a ug
ĠGP T
ili ans
ĠDom ains
Ġther m
vs ky
k h
Ġconce aled
EN SE
LO G
Ġdisag reement
ĠSym bolic
g lib
ĠPh oto
Ġdiv ul
Ġrail way
ĠSS D
ĠU AP
Ġstr angers
ĠSer ge
fr ac
Ġag ing
C IF
H ot
Ġboot ed
usp icious
Ġj ackson
ĠCounter measures
im odal
cre ated
Ġindispens able
ĠSUP PORT
> /
ĠO EP
Ġstr ide
80 7
Ġdpk gi
ec c
Ġmat hematic
ĠRet ur
Ġmolec ular
datab ind
p aper
ĠA aron
ef fort
Ġachieve ments
crib e
ĠMotor ola
p u
Ġdiv is
ĠG adget
Ġsur gery
char ging
Ġto ll
ĠMan hattan
Ġinstant iations
ĠTechn ique
27 8
=" /
ĠRog er
ĠDeterm ining
Ġsym metry
ĠMac Book
Ġsandbox es
ĠPer cept
Lib raries
ĠJ ordan
M OD
26 9
Car lini
' ;
S YS
Ġsc rew
ĠSt ev
Ġsacrific ing
dr agon
Ġfun c
opt ions
Ġnumb ered
Ġf ancy
Ġinvest or
fo o
Ġextraord inary
Ġsel ector
Ġ: :
Ġbrok ers
Ġexc ludes
C ent
se ver
ĠBe acon
Ġ19 75
Ġdispl acement
74 6
n ate
df und
ĠAust ria
Ġtr ails
Ġfact oring
Ġ@ @
Ġheart beat
ĠS ockets
Ġcy cl
Ġ( <
Ex ception
ĠBarb ara
Ġspecial ization
Ġannot ate
Ġprox imate
M AS
Ġsmoot hed
29 8
comp any
ĠMo on
Ġt ent
ĠVis it
ĠVehic les
Ġdesc end
match ing
Mult iple
Ġcow ork
T IA
Ġr c
ĠG O
me ga
ĠLe v
ĠVisual ization
S core
Ġlat encies
UND S
ple teness
99 8
ĠH ID
Ġass emble
ĠK ent
Ġs sl
Ġsuccess es
Ġreflect ive
Ġfriends hip
Ġ|------------+---------------- -----------
N on
in arily
Ġg ambling
Ġsystem ic
Ġver bal
U l
Ġf alcon
ist ency
Ġref ining
ha ul
ĠRe ve
Ġdiagn ostics
ĠW ave
Ġwavelength s
op ilot
S ecunia
Ġun defended
Ġsurround ed
Ġconstit uent
D on
Ġdiscour age
Ġreject ing
Ġfor t
ĠCamer on
Ġcl andestine
Ġwonder ful
Ġdes ires
ĠPro duction
az i
ver b
ĠFA W
ĠWorkaround s
Ġapp ar
sv n
ĠHum ans
Ġbur ning
YS IS
Ġt apping
ir rel
AC A
angu ages
ĠInt ers
ĠCo ast
H unter
od o
ĠAc ross
D OM
ig i
ĠN ull
Ġcle ans
Ġover see
it ance
H ard
ĠW onder
Ġunder pin
AV A
Ġampl ifier
iche ver
ĠC raft
ĠDr ug
Ġchip set
support ed
ĠI l
Ġst one
ĠSome one
al an
ĠS TP
ĠL U
erg us
Ġoutperform ed
ĠLive CD
Ġforest s
Or ig
S w
U t
25 7
Ġserial ization
Ġk idd
ark y
ĠAct ions
Ġun fore
so ever
Ġmin ister
Ġsh a
Ġpat ience
ins ert
ĠCho osing
Ġworry ing
ĠUl tra
y en
ĠI vy
Ġdirect s
ĠExt reme
Ġamate ur
l ings
Ġint el
OP EN
HTTP S
Ġvet ting
Ġhash tag
ĠA NNs
ud dy
op oly
ĠS addle
Ġref lex
ĠPr ice
Ġundec idable
Ġe X
Ġtyp os
ĠTik Tok
Ġg ym
iss ues
ĠRy uk
W INDOWS
le ak
requ ent
MC A
ĠLib raries
Ġtool kits
Ġad visor
ĠInsp ection
L o
ĠB arr
ĠPro be
ĠPS O
Inst ead
Ġx en
ĠBy tes
Ġsw apped
Ġten ant
Ġcl ique
struct ure
ĠDet ector
R ef
l ications
ĠN y
Ġout right
70 6
ĠCall er
ĠArab ic
k ill
in formed
IT ION
Ġhash tags
64 4
Ad obe
Ġsimpl ification
" ><
om orphism
Ġ( /
ĠG er
s ix
ĠR ED
ĠP USH
Ġinsp ire
Ġesc aped
B IN
ĠL ambda
fa q
NE SS
M in
Ġqu art
NN M
65 6
ĠBl ink
h ire
ĠT Y
Ġun comfort
Ġrec alc
re q
ag a
AP P
Ġpseud ocode
Ġhel ic
V AE
Ġt ended
Ġnegot iated
ĠN R
call s
Ġdens ities
CS FW
Ġsequ encing
ĠC ut
ĠBi ometrics
dest ination
ew ater
Ġreject s
organ ized
ĠE A
ĠPo inter
control lers
Ġgang s
ĠCob alt
ĠM ER
Ġwhat soever
Ġport ed
ĠTr igger
Ġbit wise
36 8
ox a
cr iminals
Ġth ief
Ġins ign
Ġdev iates
ĠCON CLUSION
ĠSEL inux
Ġ4 45
ib i
Ġgr ub
Ġcustom izable
ene z
Ġprohib its
Ġbu zz
st rom
ĠI RP
ĠM un
ĠCooper ative
Ġ ug
ĠE K
Ġdes per
ĠDe ath
Ġ12 6
35 6
Ġeduc ating
ur t
Ġsub mar
ĠCy berspace
t rip
Ġo cean
yn c
local host
ĠArbit rary
Ġclo thing
exec utable
lic enses
Ġn ose
x en
Ġw i
Ġdeleg ates
Ġhus band
Ġ| |
inc ide
33 7
uck et
s ector
Ġm x
Ġh ats
ope fully
Ġinst inct
Ġprotot yping
Eu rop
Ġmyst ery
Ġc rook
ĠOrig in
c ards
we ak
ĠClam AV
29 7
Ġo der
BU G
Ġchrom os
Y C
Ġcooper ating
v r
RE G
ĠDec lar
fr amework
---------- |
Ġcent res
76 7
ĠDen mark
Ġ! --
= (
n eed
ĠW asserstein
ĠRe place
ab in
Ġw iring
ĠL I
Ġstead ily
potential ly
3 20
ĠEmer ging
ĠCook ies
ropol itan
Ġmicrow ave
Theore m
Ġfor ging
Ġnow here
Ġs en
Ġste ep
Ġsuperior ity
ĠANAL YSIS
E very
Ġemerg ent
Ġmim ics
ĠCC A
Ġeigen value
ĠWast ewater
ĠOpen VPN
ĠS TS
Ġprep ares
comm unity
ĠLand scape
ĠB ry
Ġlast ed
ĠRestrict ed
ĠFeed back
Ġd ans
ous es
ĠX box
P aper
Ġuns ure
J RE
Ġc i
Ġdiv isions
O pt
int ro
Ġminim ally
Ġcrack ers
Ġwild card
M a
AR P
Ġdoub ling
ĠIs olation
ĠCCP A
Ġm erc
Ġdest abil
Ġreset ting
ĠR NNs
Ġres idence
79 7
Ġho pping
M ar
al ong
34 7
ĠY andex
Ġlat itude
ĠH il
ĠO OD
ĠXOR ed
approxim ation
Ġunder m
99 4
ĠPa vel
Ġaf ternoon
K EN
ĠW ars
m f
Ġob s
ef it
back ed
Ġfraud s
Ġp am
[...]
