{"<s>":0,"<pad>":1,"</s>":2,"<sep>":3,"<unk>":4,"<mask>":5,"!":6,"\"":7,"#":8,"$":9,"%":10,"&":11,"'":12,"(":13,")":14,"*":15,"+":16,",":17,"-":18,".":19,"/":20,"0":21,"1":22,"2":23,"3":24,"4":25,"5":26,"6":27,"7":28,"8":29,"9":30,":":31,";":32,"<":33,"=":34,">":35,"?":36,"@":37,"A":38,"B":39,"C":40,"D":41,"E":42,"F":43,"G":44,"H":45,"I":46,"J":47,"K":48,"L":49,"M":50,"N":51,"O":52,"P":53,"Q":54,"R":55,"S":56,"T":57,"U":58,"V":59,"W":60,"X":61,"Y":62,"Z":63,"[":64,"\\":65,"]":66,"^":67,"_":68,"`":69,"a":70,"b":71,"c":72,"d":73,"e":74,"f":75,"g":76,"h":77,"i":78,"j":79,"k":80,"l":81,"m":82,"n":83,"o":84,"p":85,"q":86,"r":87,"s":88,"t":89,"u":90,"v":91,"w":92,"x":93,"y":94,"z":95,"{":96,"|":97,"}":98,"~":99,"¡":100,"¢":101,"£":102,"¤":103,"¥":104,"¦":105,"§":106,"¨":107,"©":108,"ª":109,"«":110,"¬":111,"®":112,"¯":113,"°":114,"±":115,"²":116,"³":117,"´":118,"µ":119,"¶":120,"·":121,"¸":122,"¹":123,"º":124,"»":125,"¼":126,"½":127,"¾":128,"¿":129,"À":130,"Á":131,"Â":132,"Ã":133,"Ä":134,"Å":135,"Æ":136,"Ç":137,"È":138,"É":139,"Ê":140,"Ë":141,"Ì":142,"Í":143,"Î":144,"Ï":145,"Ð":146,"Ñ":147,"Ò":148,"Ó":149,"Ô":150,"Õ":151,"Ö":152,"×":153,"Ø":154,"Ù":155,"Ú":156,"Û":157,"Ü":158,"Ý":159,"Þ":160,"ß":161,"à":162,"á":163,"â":164,"ã":165,"ä":166,"å":167,"æ":168,"ç":169,"è":170,"é":171,"ê":172,"ë":173,"ì":174,"í":175,"î":176,"ï":177,"ð":178,"ñ":179,"ò":180,"ó":181,"ô":182,"õ":183,"ö":184,"÷":185,"ø":186,"ù":187,"ú":188,"û":189,"ü":190,"ý":191,"þ":192,"ÿ":193,"Ā":194,"ā":195,"Ă":196,"ă":197,"Ą":198,"ą":199,"Ć":200,"ć":201,"Ĉ":202,"ĉ":203,"Ċ":204,"ċ":205,"Č":206,"č":207,"Ď":208,"ď":209,"Đ":210,"đ":211,"Ē":212,"ē":213,"Ĕ":214,"ĕ":215,"Ė":216,"ė":217,"Ę":218,"ę":219,"Ě":220,"ě":221,"Ĝ":222,"ĝ":223,"Ğ":224,"ğ":225,"Ġ":226,"ġ":227,"Ģ":228,"ģ":229,"Ĥ":230,"ĥ":231,"Ħ":232,"ħ":233,"Ĩ":234,"ĩ":235,"Ī":236,"ī":237,"Ĭ":238,"ĭ":239,"Į":240,"į":241,"İ":242,"ı":243,"Ĳ":244,"ĳ":245,"Ĵ":246,"ĵ":247,"Ķ":248,"ķ":249,"ĸ":250,"Ĺ":251,"ĺ":252,"Ļ":253,"ļ":254,"Ľ":255,"ľ":256,"Ŀ":257,"ŀ":258,"Ł":259,"ł":260,"Ń":261,"Ġt":262,"Ġa":263,"in":264,"he":265,"re":266,"on":267,"er":268,"Ġthe":269,"at":270,"Ġs":271,"Ġc":272,"or":273,"es":274,"en":275,"it":276,"Ġo":277,"is":278,"ed":279,"Ġp":280,"Ġw":281,"ion":282,"al":283,"ing":284,"Ġan":285,"Ġf":286,"Ġin":287,"Ġb":288,"an":289,"Ġd":290,"Ġto":291,"ic":292,"Ġm":293,"Ġof":294,"ro":295,"ec":296,"ar":297,"Ġand":298,"le":299,"ac":300,"us":301,"Ġth":302,"as":303,"et":304,"Ġre":305,"ent":306,"Ġe":307,"Ġn":308,"om":309,"ation":310,"ou":311,"Ġh":312,"il":313,"Ġis":314,"st":315,"ĠT":316,"lo":317,"ut":318,"ly":319,"ve":320,"im":321,"--":322,"ur":323,"id":324,"ver":325,"ĠI":326,"Ġthat":327,"Ġpro":328,"ect":329,"Ġon":330,"ot":331,"ĠA":332,"ĠS":333,"Ġfor":334,"Ġbe":335,"ig":336,"un":337,"am":338,"ack":339,"ul":340,"Ġcon":341,"Ġ(":342,"el":343,"Ġl":344,"Ġus":345,"if":346,"ity":347,"ce":348,"ab":349,"Ġat":350,"Ġg":351,"Ġas":352,"od":353,"em":354,"ol":355,"ith":356,"Ġst":357,"ess":358,"ĠC":359,"Ġex":360,"Ġv":361,"Ġcom":362,"ow":363,"ct":364,"Ġal":365,"ĠThe":366,"ers":367,"ate":368,"ad":369,"Ġwith":370,"ĠR":371,"Ġwe":372,"ain":373,"ch":374,"Ġare":375,"se":376,"ter":377,"ure":378,"ag":379,"Ġit":380,"pp":381,"ir":382,"Ġatt":383,"Ġor":384,"ay":385,"ri":386,"----":387,"Ġde":388,"qu":389,"Ġwh":390,"Ġby":391,"her":392,"pt":393,"Ġattack":394,"Ġcan":395,"ĠF":396,"um":397,"ĠP":398,"ĠW":399,"ist":400,"ĠM":401,"ies":402,"ore":403,"Ġr":404,"Ġsu":405,"for":406,"Ġcomp":407,"Ġad":408,"ĠD":409,"ĠIn":410,"ive":411,"rom":412,"Ġtr":413,"Ġy":414,"ork":415,"est":416,"Ġnot":417,"ment":418,"ke":419,"res":420,"Ġthis":421,"nt":422,"ial":423,"iz":424,"form":425,"Ġ1":426,"ill":427,"and":428,"==":429,"are":430,"Ġ2":431,"cc":432,"Ġfrom":433,"yst":434,"ld":435,"per":436,"Ġyou":437,"Ġlo":438,"ystem":439,"Ġen":440,"ĠB":441,"ort":442,"Ġdat":443,"act":444,"ions":445,"Ġapp":446,"Ġcont":447,"able":448,"ĠH":449,"os":450,"etw":451,"ecur":452,"ant":453,"ere":454,"Ġne":455,"EF":456,"ecurity":457,"ple":458,"Ġsh":459,"Ġim":460,"ated":461,"ich":462,"Ġun":463,"Ġha":464,"art":465,"iv":466,"ĠE":467,"ication":468,"age":469,"Ġle":470,"Ġsystem":471,"ical":472,"Ġint":473,"ĠO":474,"ust":475,"all":476,"Ġwhich":477,"ĠN":478,"Ġres":479,"ĠREF":480,"ould":481,"ach":482,"low":483,"ff":484,"Ġch":485,"up":486,"Ġmod":487,"end":488,"ult":489,"oc":490,"ther":491,"ine":492,"00":493,"ire":494,"Ġhave":495,"ĠL":496,"âĢ":497,"ud":498,"Ġdata":499,"Ġsp":500,"Ġwhe":501,"ap":502,"vers":503,"ost":504,"igh":505,"ile":506,"ous":507,"ber":508,"ass":509,"Ġacc":510,"--------":511,"Ġse":512,"ign":513,"ail":514,"vic":515,"ble":516,"ard":517,"ection":518,"pl":519,"Ġper":520,"ĠTh":521,"abil":522,"etwork":523,"Ġcl":524,"ĠU":525,"ware":526,"uct":527,"ame":528,"Ġwas":529,"ge":530,"Ġwill":531,"Ġinc":532,"Ġsc":533,"ĠG":534,"ations":535,"Ġser":536,"so":537,"01":538,"Ġhe":539,"Ġhas":540,"ans":541,"Ġsecurity":542,"Ġnetwork":543,"'s":544,"Ġk":545,"fere":546,"gr":547,"ase":548,"our":549,"ner":550,"ary":551,"Ġdet":552,"ide":553,"ome":554,"formation":555,"der":556,"ime":557,"out":558,"ens":559,"Ġuse":560,"ance":561,"Ġmodel":562,"ech":563,"Ġpre":564,"Ġadd":565,"ind":566,"ual":567,"Ġcomm":568,"ug":569,"ĠWe":570,"ak":571,"Ġused":572,"Ġall":573,"ue":574,"Ġdo":575,"Ġman":576,"th":577,"Ġdis":578,"âĢĻ":579,"Ġtheir":580,"Ġev":581,"Ġother":582,"Ġ\"":583,"ased":584,"Ġab":585,"ord":586,"Ġso":587,"ry":588,"ents":589,"ĠThis":590,"cid":591,"Ġinformation":592,").":593,"plo":594,"ition":595,"ft":596,"Ġalso":597,"Ġmore":598,"ight":599,"ode":600,"ys":601,"Ġdif":602,"ors":603,"ck":604,"Ġdef":605,"ious":606,"Ġup":607,"nd":608,"ress":609,"ep":610,"Ġout":611,"Ġthey":612,"op":613,"ell":614,"Ġattacks":615,"ĠV":616,"own":617,"Ġour":618,"ence":619,"Ġact":620,"ip":621,"ability":622,"ulner":623,"Ġsuch":624,"cess":625,"Ġone":626,"ub":627,"str":628,"ie":629,"ates":630,"Ġbut":631,"Ġdes":632,"ast":633,"Ġpart":634,"rol":635,"ory":636,"ener":637,"Ġrequ":638,"Ġset":639,"port":640,"Ġob":641,"Ġprov":642,"Ġinter":643,"rib":644,"ace":645,"put":646,"Ġits":647,"Ġpl":648,"Ġrec":649,"ities":650,"ia":651,"get":652,"Ġag":653,"ite":654,"Ġass":655,"Ġusing":656,"yp":657,"Ġro":658,"Ġtime":659,"int":660,"Ġif":661,"Ġwork":662,"ected":663,"Ġme":664,"ex":665,"Ġthese":666,"Ġappl":667,"Ġfun":668,"aus":669,"Ġar":670,"Ġmet":671,"ok":672,"Ġvulner":673,"Ġstr":674,"Ġke":675,"Ġdiffere":676,"Ġover":677,"Ġcons":678,"Ġany":679,"av":680,"ict":681,"====":682,"Ġexam":683,"),":684,"echn":685,"Ġval":686,"Ġ3":687,"ong":688,"Ġaut":689,"Ġfe":690,"Ġwhen":691,"Ġnum":692,"Ġind":693,"ake":694,"vice":695,"one":696,"Ġmay":697,"Ġgener":698,"Ġonly":699,"ating":700,"Ġprocess":701,"Ġqu":702,"ident":703,"Ġprot":704,"ning":705,"tt":706,"Ġem":707,"Ġli":708,"lud":709,"Ġsome":710,"ces":711,"ms":712,"Ġsim":713,"ures":714,"Ġuser":715,"__":716,"ose":717,"ied":718,"Ġaccess":719,"riv":720,"ang":721,"Ġinto":722,"ution":723,"ount":724,"Ġgo":725,"red":726,"very":727,"Ġfunct":728,"ĠJ":729,"Ġtw":730,"Ġmal":731,"Ġ201":732,"Ġbeen":733,"Ġeach":734,"Ġj":735,"Ġcomput":736,"Ġtrans":737,"Ġdifferent":738,"com":739,"Ġspec":740,"ond":741,"Ġtechn":742,"ject":743,"ient":744,"Ġcontrol":745,"Ġanal":746,"ific":747,"Ġresult":748,"Ġkn":749,"ert":750,"Ġph":751,"ption":752,"Ġyour":753,"irst":754,"ĠFor":755,"ally":756,"ible":757,"Ġthan":758,"arch":759,"Ġthere":760,"Ġneed":761,"Ġinclud":762,"arget":763,"tern":764,"vices":765,"ages":766,"Ġinst":767,"ari":768,"Ġhow":769,"Ġnew":770,"Ġtwo":771,"hod":772,"Ġperform":773,"ise":774,"ree":775,"Ġpr":776,"Ġfol":777,"pos":778,"vel":779,"Ġsystems":780,"ound":781,"Ġwould":782,"Ġdisc":783,"Ġnumber":784,"Ġpos":785,"ffic":786,"ause":787,"Ġapplication":788,"gram":789,"Ġrel":790,"ize":791,"log":792,"Ġbec":793,"Ġsec":794,"Ġpo":795,"Ġclass":796,"Ġoper":797,"----------------":798,"ugh":799,"Ġno":800,"Ġtyp":801,"ĠIt":802,"Ġsign":803,"Ġwere":804,"ser":805,"Ġappro":806,"Ġsub":807,".,":808,"ĠK":809,"Ġmethod":810,"Ġdec":811,"Ġ4":812,"reat":813,"Ġcode":814,"Ġadvers":815,"Ġwhere":816,"ever":817,"Ġcy":818,"Ġfollow":819,"Ġtarget":820,"Ġcould":821,"Ġcr":822,"ization":823,"ced":824,"een":825,"Ġabout":826,"Ġcor":827,"Ġrem":828,"ss":829,"ments":830,"ify":831,"Ġunder":832,"du":833,"Ġattacker":834,"Ġfirst":835,"Ġident":836,"etween":837,"Ġdist":838,"ically":839,"rough":840,"Ġthen":841,"Ġweb":842,"aining":843,"igure":844,"Ġpat":845,"irect":846,"Ġbetween":847,"Ġfunction":848,"duct":849,"Ġ5":850,"Ġreg":851,"Ġprogram":852,"ĠSt":853,"Ġresp":854,"resent":855,"Ġexec":856,"fore":857,"ative":858,"Ġmost":859,"og":860,"Ġaddress":861,"Ġallow":862,"Ġlike":863,"ification":864,"//":865,"ular":866,"Ġinv":867,"Ġthem":868,"gor":869,"velo":870,"Ġexample":871,"Ġ0":872,"ftware":873,"ove":874,"ib":875,"Ġimp":876,"nce":877,"ploit":878,"Ġbot":879,"ttp":880,"ics":881,"Ġtest":882,"Ġcall":883,"ffect":884,"hes":885,"Ġent":886,"://":887,"Ġkey":888,"Ġprovid":889,"led":890,"Ġusers":891,"Ġshould":892,"ear":893,"nel":894,"ized":895,"ows":896,"erm":897,"ubl":898,"Ġrun":899,"Ġav":900,"Ġconf":901,"hed":902,"ix":903,"olog":904,"Ġgr":905,"Ġthrough":906,"Ġloc":907,"gan":908,"ks":909,"Ġsame":910,"ice":911,")(":912,"ful":913,"Ġagain":914,"iqu":915,"ings":916,"ext":917,"Ġpass":918,"86":919,"Ġform":920,"Ġext":921,"velop":922,"Ġmem":923,"Ġenc":924,"ĠAl":925,"und":926,"enc":927,"Ġpriv":928,"acy":929,"Ġfile":930,"aw":931,"fter":932,"ays":933,"gh":934,"ob":935,"Ġfil":936,"Ġ[":937,"Ġhttp":938,"Ġcommun":939,"te":940,"de":941,"ets":942,"Ġinf":943,"64":944,"Ġcre":945,"ough":946,"Ġbased":947,"Ġsupp":948,"ential":949,"ĠAn":950,"Ġcol":951,"ues":952,"ĠPro":953,"abilities":954,"Ġsm":955,"Ġoff":956,"Ġrequire":957,"ved":958,"ote":959,"Ġexploit":960,"ish":961,"ĠAs":962,"Ġdevelop":963,"ĠIf":964,"gorith":965,"VE":966,"ons":967,"ified":968,"rypt":969,"ysis":970,"ature":971,"Ġsoftware":972,"ocol":973,"les":974,"Ġco":975,"Ġprev":976,"Ġconn":977,"Ġposs":978,"ick":979,"Ġlear":980,"Ġdesign":981,"ĠTo":982,"Ġadversar":983,"iew":984,"inal":985,"Ġrep":986,"Ġdoes":987,"ange":988,"Ġbu":989,"lock":990,"Ġtool":991,"Ġfr":992,"Ġhigh":993,"aph":994,"ource":995,"Ġwho":996,"Ġlog":997,"iss":998,"Ġpack":999,"Ġagainst":1000,"plement":1001,"Ġproble":1002,"Ġpubl":1003,"Ġmess":1004,"ement":1005,"10":1006,"Ġexp":1007,"Ġdirect":1008,"Ġsol":1009,"Ġwell":1010,"Ġconsid":1011,"uring":1012,"bers":1013,"Ġmany":1014,"Ġserver":1015,"Ġorgan":1016,"Ġi":1017,"row":1018,"ark":1019,"Ġcomple":1020,"ples":1021,"Ġmult":1022,"Ġwhat":1023,"hen":1024,"ĠY":1025,"struct":1026,"201":1027,"icious":1028,"Ġinput":1029,"ĠHow":1030,"its":1031,"Ġvers":1032,"Ġhad":1033,"ink":1034,"based":1035,"Ġback":1036,"Ġboth":1037,"Ġimplement":1038,"Ġeffect":1039,"Ġbecause":1040,"word":1041,"cept":1042,"Ġ6":1043,"ĠâĢ":1044,"ĠCom":1045,"Ġalgorith":1046,"Ġknow":1047,"Ġpoint":1048,"Ġreal":1049,"ained":1050,"ases":1051,"Ġexper":1052,"ten":1053,"Ġlar":1054,"Ġreport":1055,"iven":1056,"Ġpar":1057,"ered":1058,"ĠFigure":1059,"Ġcyber":1060,"ploy":1061,"pen":1062,"Ġanalysis":1063,"Ġadversarial":1064,"ense":1065,"ier":1066,"Ġsa":1067,"ince":1068,"heck":1069,"load":1070,"ines":1071,"bo":1072,"ĠUn":1073,"ade":1074,"ont":1075,"Ġprotocol":1076,"Ġavail":1077,"ually":1078,"urre":1079,"ational":1080,"Ġam":1081,"vis":1082,"Ġvari":1083,"Ġcase":1084,"ute":1085,"ph":1086,"ility":1087,"ains":1088,"inu":1089,"Ġpol":1090,"Ġdevices":1091,"ving":1092,"Ġfind":1093,"Ġfollowing":1094,"Ġsee":1095,"Ġeven":1096,"uch":1097,"Ġstate":1098,"Ġrese":1099,"pm":1100,"Ġresults":1101,"____":1102,"Ġ7":1103,"Ġpartic":1104,"ĠOn":1105,"ĠHowever":1106,"Ġins":1107,"Ġmake":1108,"of":1109,"ccess":1110,"Ġmain":1111,"Ġvulnerability":1112,"Ġac":1113,"ined":1114,"Ġcert":1115,"ĠCh":1116,"Ġpe":1117,"pr":1118,"Ġbeh":1119,"Ġtechniqu":1120,"Ġstud":1121,"Ġupd":1122,"Ġpers":1123,"Ġtra":1124,"Ġbeing":1125,"Ġma":1126,"Ġdesc":1127,"ness":1128,"ting":1129,"Ġmat":1130,"Ġhis":1131,"Ġincre":1132,"Ġiss":1133,"Ġ8":1134,"========":1135,"ts":1136,"Ġwhile":1137,"Ġpa":1138,"Ġmalicious":1139,"rpm":1140,"ract":1141,"ower":1142,"Ġway":1143,"Ġhand":1144,"Ġ200":1145,"tur":1146,"Ġlist":1147,"Ġwr":1148,"Ġmach":1149,"Ġcompan":1150,"Ġvalue":1151,"Ġmeas":1152,"ian":1153,"20":1154,"Ġlevel":1155,"Ġmalware":1156,"Ġservice":1157,"ator":1158,"Ġmulti":1159,"Ġavailable":1160,"Ġtraining":1161,"IS":1162,"ilar":1163,"ef":1164,"Ġcheck":1165,"Ġsupport":1166,"ĠAd":1167,"roup":1168,"Ġorder":1169,"Ġthreat":1170,"orm":1171,"Ġget":1172,"Ġris":1173,"Ġmemory":1174,"itive":1175,"posed":1176,"err":1177,"Ġet":1178,"read":1179,"ĠX":1180,"Ġsens":1181,"Ġexist":1182,"line":1183,"Ġvulnerabilities":1184,"other":1185,"yn":1186,"Ġimport":1187,"ology":1188,"Ġmon":1189,"SS":1190,"Ġmin":1191,"Ġfound":1192,"atures":1193,"ĠEx":1194,"Ġafter":1195,"ency":1196,"uss":1197,"Ġapproach":1198,"Ġmodels":1199,"Ġpossible":1200,"Ġopt":1201,"ĠSecurity":1202,"Ġdetection":1203,"ĠRe":1204,"Ġshow":1205,"Ġmanag":1206,"Ġproper":1207,"lect":1208,"Ġdown":1209,"Ġpassword":1210,"ger":1211,"Ġaddition":1212,"Ġstat":1213,"Ġpresent":1214,"round":1215,"urrent":1216,"Ġsel":1217,"ateg":1218,"ward":1219,"Ġlat":1220,"lp":1221,"ild":1222,"Ġread":1223,"Ġdistrib":1224,"Ġdevice":1225,"Ġblock":1226,"ĠThere":1227,"ript":1228,"als":1229,"Ġdom":1230,"Ġrece":1231,"andom":1232,"Ġthose":1233,"Ġhard":1234,"Ġgu":1235,"The":1236,"ited":1237,"urther":1238,"Ġproblem":1239,"Ġmust":1240,"Ġevery":1241,"alu":1242,"Ġstart":1243,"Ġdetect":1244,"ym":1245,"Ġwithout":1246,"ople":1247,"ER":1248,"fer":1249,"vir":1250,"ared":1251,"Ġproduct":1252,"11":1253,"Ġsend":1254,"Ġaccount":1255,"Ġwithin":1256,"apt":1257,"Ġsam":1258,"Ġ==":1259,"Ġrele":1260,"Ġnon":1261,"ily":1262,"Ġfiles":1263,"Ġprovide":1264,"ns":1265,"old":1266,"Ġlook":1267,"Ġhelp":1268,"ives":1269,"Ġbo":1270,"ustom":1271,"Ġest":1272,"Ġbefore":1273,"Ġrequest":1274,"Ġfact":1275,"Ġchar":1276,"Ġdep":1277,"hent":1278,"ucture":1279,"Ġ19":1280,"Ġnetworks":1281,"Ġcommand":1282,"Ġ9":1283,"amet":1284,"Ġcommunication":1285,"Ġend":1286,"Ġvery":1287,"ails":1288,"ention":1289,"ĠIntern":1290,"ww":1291,"ves":1292,"Ġjust":1293,"aking":1294,"Ġow":1295,"Ġ10":1296,"Ġcomputer":1297,"Ġable":1298,"Ġlow":1299,"Ġ|":1300,"Ġver":1301,"Ġobject":1302,"Ġpolic":1303,"Ġpeople":1304,"Ġactiv":1305,"ĠIP":1306,"iel":1307,"Ġstand":1308,"Ġlarge":1309,"Ġpublic":1310,"Ġobser":1311,"Ġconc":1312,"Ġinstall":1313,"indows":1314,"ll":1315,"orld":1316,"Ġevalu":1317,"Ġapplications":1318,"Ġlearning":1319,"Ġsuccess":1320,"eng":1321,"co":1322,"Ġproposed":1323,"avi":1324,"Ġtraffic":1325,"Ġgroup":1326,"Ġincluding":1327,"12":1328,"Ġx":1329,"hem":1330,"Ġeas":1331,"sc":1332,"br":1333,"ash":1334,"viron":1335,"ĠWh":1336,"Ġhost":1337,"ĠCVE":1338,"Ġprob":1339,"Ġperformance":1340,"Ġtype":1341,"Ġsimilar":1342,"less":1343,"odes":1344,"Ġmethods":1345,"Ġpower":1346,"Ġspecific":1347,"Ġ.":1348,"Ġopen":1349,"Ġcompon":1350,"Ġpred":1351,"tr":1352,"AC":1353,"Ġrandom":1354,"icro":1355,"Ġmachine":1356,"Ġcorre":1357,"not":1358,"Ġhack":1359,"Ġdescrib":1360,"Ġauth":1361,"Ġlim":1362,"ield":1363,"ross":1364,"Ġgiven":1365,"Ġthree":1366,"ecun":1367,"ecunia":1368,"inux":1369,"Ġlay":1370,"net":1371,"ering":1372,"ively":1373,"Ġchang":1374,"Ġstep":1375,"Ġcurrent":1376,"iness":1377,"Ġalgorithm":1378,"ivid":1379,"Ġfeatures":1380,"Ġsection":1381,"ference":1382,"ĠWhen":1383,"Ġequ":1384,"Ġte":1385,"Ġenviron":1386,"Ġfl":1387,"Ġversion":1388,"AT":1389,"Ġautom":1390,"akes":1391,"Ġbehavi":1392,"ĠEn":1393,"Ġsever":1394,"Ġ*":1395,"Ġperson":1396,"Ġbr":1397,"imate":1398,"Ġassum":1399,"Ġcap":1400,"Ġport":1401,"Ġsmall":1402,"Ġsoc":1403,"Ġparamet":1404,"Ġeng":1405,"itor":1406,"pec":1407,"Ġsecure":1408,"Ġimpro":1409,"po":1410,"Ġrisk":1411,"Ġoutput":1412,"ted":1413,"ality":1414,"Ġyear":1415,"Ġsecond":1416,"omet":1417,"Ġpract":1418,"pro":1419,"Ġparticular":1420,"Ġimportant":1421,"Ġshown":1422,"ĠThese":1423,"Ġbus":1424,"Ġerr":1425,"imes":1426,"Ġservices":1427,"Ġdiscuss":1428,"ision":1429,"Ġlong":1430,"Ġmight":1431,"ric":1432,"Ġcommon":1433,"Ġtake":1434,"Ġdeterm":1435,"Ġdatas":1436,"itical":1437,"Ġname":1438,"ources":1439,"ysical":1440,"Ġorig":1441,"Ġlead":1442,"min":1443,"Ġauthent":1444,"ernel":1445,"echan":1446,"--------------------------------":1447,"Ġexecut":1448,"otential":1449,"view":1450,"Ġtools":1451,"Ġsource":1452,"ĠSer":1453,"Ġtechniques":1454,"the":1455,"Ġduring":1456,"Ġline":1457,"ĠHe":1458,"ned":1459,"ingle":1460,"Ġsur":1461,"Ġresearch":1462,"ĠWindows":1463,"Ġaccur":1464,"ra":1465,"bit":1466,"ially":1467,"Ġvalues":1468,"Ġmessage":1469,"ument":1470,"ites":1471,"over":1472,"Ġsince":1473,"Ġstandard":1474,"Ġinte":1475,"ĠInternet":1476,"Ġrepresent":1477,"Ġoptim":1478,"Ġmeasure":1479,"ĠSection":1480,"Ġinit":1481,"Ġstill":1482,"Ġpotential":1483,"Ġmuch":1484,"stand":1485,"ocus":1486,"mit":1487,"Ġadv":1488,"itect":1489,"Ġknown":1490,"work":1491,"Ġmultiple":1492,"Ġstore":1493,"Ġcustom":1494,"ural":1495,"AN":1496,"Ġstrateg":1497,"ata":1498,"miss":1499,"Ġwebs":1500,"Ġcost":1501,"Ġdem":1502,"Ġmechan":1503,"15":1504,"annel":1505,"Ġwant":1506,"ĠApp":1507,"por":1508,"pect":1509,"ictim":1510,"Ġlocal":1511,"ables":1512,"Ġarch":1513,"Ġanaly":1514,"Ġprevious":1515,"ently":1516,"oun":1517,"000":1518,"Ġpaper":1519,"TP":1520,"Ġoften":1521,"Ġanother":1522,"Ġsingle":1523,"to":1524,"Ġvia":1525,"Ġremote":1526,"rast":1527,"Ġseveral":1528,"IN":1529,"Ġuses":1530,"ov":1531,"li":1532,"Ġvar":1533,"ault":1534,"Ġbas":1535,"duce":1536,"par":1537,"ulation":1538,"ule":1539,"AR":1540,"Ġframe":1541,"Ġvictim":1542,"ames":1543,"Ġimage":1544,"Ġpur":1545,"Ġown":1546,"oud":1547,"Ġobt":1548,"Ġrob":1549,"Ġcalled":1550,"Ġtas":1551,"Ġallows":1552,"Ġens":1553,"Ġdepend":1554,"deb":1555,"Ġpredict":1556,"erest":1557,"Ġed":1558,"Ġdel":1559,"Ġidentify":1560,"Ġful":1561,"Ġfocus":1562,"Ġbre":1563,"ience":1564,"ledge":1565,"Ġlab":1566,"ON":1567,"Ġintro":1568,"utions":1569,"Ġpay":1570,"Ġinvest":1571,"Ġtop":1572,"Ġcoll":1573,"ird":1574,"itions":1575,"Ġconsider":1576,"Ġprivacy":1577,"ording":1578,"ĠAnd":1579,"ended":1580,"ee":1581,"ling":1582,"Ġmechanis":1583,"ĠSo":1584,"omm":1585,"ĠTr":1586,"ules":1587,"Ġnow":1588,"Ġemploy":1589,"Ġcle":1590,"Ġinclude":1591,"onse":1592,"Ġdoc":1593,"Ġindivid":1594,"istic":1595,"fficient":1596,"irt":1597,"ither":1598,"Ġconnect":1599,"Ġexpl":1600,"rop":1601,"Ġgeneral":1602,"Ġvalid":1603,"Ġkernel":1604,"verage":1605,"anc":1606,"Ġinstruct":1607,"elf":1608,"wit":1609,"ead":1610,"ised":1611,"Ġexecution":1612,"Ġcompany":1613,"xt":1614,"ety":1615,"Ġimpact":1616,"Ġshows":1617,"ather":1618,"Ġprovides":1619,"ax":1620,"IT":1621,"ĠID":1622,"Ġcomprom":1623,"Ġdue":1624,"Ġexamples":1625,"ĠAP":1626,"Ġsize":1627,"atform":1628,"Ġbl":1629,"chie":1630,"Ġleg":1631,"Ġnodes":1632,"igur":1633,"Ġenvironment":1634,"action":1635,"16":1636,"Ġindividual":1637,"Ġgraph":1638,"Ġmed":1639,"Ġdefense":1640,"Ġorganization":1641,"ank":1642,"Ġ,":1643,"Ġexperim":1644,"ĠZ":1645,"Ġprof":1646,"Ġcannot":1647,"ators":1648,"Ġ/":1649,"Ġsignific":1650,"OS":1651,"ĠLinux":1652,"Ġbusiness":1653,"oci":1654,"Ġchange":1655,"Ġrunning":1656,"ital":1657,"ret":1658,"Ġachie":1659,"Ġpropert":1660,"Ġscen":1661,"OR":1662,"resp":1663,"Ġtypes":1664,"Ġcomb":1665,"Ġcertain":1666,"Ġmade":1667,"angu":1668,"Ġmeans":1669,"ĠMan":1670,"14":1671,"ryption":1672,"ession":1673,"Ġvarious":1674,"Ġinterest":1675,"Ġunderstand":1676,"graph":1677,"Ġarchitect":1678,"SA":1679,"izations":1680,"EC":1681,"ĠâĢĵ":1682,"ires":1683,"Ġintegr":1684,"Ġcond":1685,"Ġocc":1686,"Ġz":1687,"Ġdid":1688,"Ġrate":1689,"ination":1690,"Ġpage":1691,"Ġreas":1692,"Ġdatab":1693,"Ġchannel":1694,"Ġdomain":1695,"ru":1696,"ories":1697,"Ġbet":1698,"Ġattackers":1699,"hip":1700,"ES":1701,"org":1702,"Ġphysical":1703,"cl":1704,"Ġclo":1705,"ĠQ":1706,"Ġmanagement":1707,"Ġvis":1708,"Ġclient":1709,"aches":1710,"Ġless":1711,"Ġretur":1712,"Ġbuild":1713,"Ġfix":1714,"Ġshe":1715,"ynam":1716,"Ġcreate":1717,"empt":1718,"Ġbrow":1719,"ector":1720,"ĠCon":1721,"Ġcorrect":1722,"Ġwhether":1723,"Ġpres":1724,"ID":1725,"ĠYou":1726,"Ġschem":1727,"Ġcomplex":1728,"19":1729,"Ġ'":1730,"ĠGo":1731,"Ġrespect":1732,"Ġsignificant":1733,"32":1734,"Ġknowledge":1735,"gest":1736,"acter":1737,"Ġright":1738,"Ġsocial":1739,"Ġmark":1740,"Ġsearch":1741,"ven":1742,"Ġ===":1743,"Ġtrust":1744,"ĠSc":1745,"ĠTable":1746,"Ġindic":1747,"ĠRes":1748,"hing":1749,"Ġben":1750,"ĠDe":1751,"Ġnode":1752,"Ġadversary":1753,"ivers":1754,"Ġspace":1755,"Ġpath":1756,"ler":1757,"Ġinvol":1758,"pose":1759,"ĠHT":1760,"Ġhum":1761,"io":1762,"bersecurity":1763,"ants":1764,"Ġ20":1765,"Ġstudy":1766,"ished":1767,"Ġgood":1768,"Ġupdate":1769,"unt":1770,"Ġfunctions":1771,"Ġabove":1772,"Ġcho":1773,"Ġchall":1774,"obile":1775,"Ġcount":1776,"Ġden":1777,"Ġsaid":1778,"Ġrequired":1779,"Ġengine":1780,"Ġfeature":1781,"ache":1782,"iting":1783,"Ġcar":1784,"Ġcases":1785,"arc":1786,"ron":1787,"Ġfew":1788,"Ġnorm":1789,"istr":1790,"Ġquer":1791,"ĠSystem":1792,"Ġut":1793,"rior":1794,"med":1795,"Ġfurther":1796,"Ġworld":1797,"ew":1798,"Ġcontent":1799,"13":1800,"ged":1801,"sh":1802,"Ġframework":1803,"ords":1804,"Ġfield":1805,"Ġfin":1806,"Ġlink":1807,"Ġpolicy":1808,"Ġanalyz":1809,"Ġ12":1810,"Ġrelated":1811,"ĠWeb":1812,"Ġbest":1813,"Ġscenari":1814,"respond":1815,"Ġbehavior":1816,"ived":1817,"Ġbetter":1818,"tic":1819,"ĠIm":1820,"ecess":1821,"Ġrout":1822,"In":1823,"Ġhig":1824,"Ġpop":1825,"CP":1826,"security":1827,"Ġeither":1828,"Ġes":1829,"aces":1830,"Ġflow":1831,"ĠCP":1832,"________":1833,"Ġfre":1834,"Ġdiff":1835,"Ġnext":1836,"Ġconsist":1837,"Ġear":1838,"ishing":1839,"ave":1840,"irtual":1841,"Ġprotect":1842,"duced":1843,"ogn":1844,"ograph":1845,"Ġpost":1846,"Ġcharacter":1847,"Ġemail":1848,"Ġconfigur":1849,"Ġrobust":1850,"Ġlangu":1851,"ately":1852,"Ġteam":1853,"Ġcorrespond":1854,"Ġgover":1855,"Ġplatform":1856,"ĠDN":1857,"play":1858,"EE":1859,"Ġimages":1860,"overed":1861,"Ġmessages":1862,"face":1863,"Ġdataset":1864,"usion":1865,"Ġview":1866,"though":1867,"Ġsaf":1868,"ins":1869,"Ġload":1870,"oT":1871,"Ġattempt":1872,"ries":1873,"Ġsent":1874,"fo":1875,"Ġref":1876,"ison":1877,"bed":1878,"18":1879,"Ġcent":1880,"Ġmonitor":1881,"Ġaccuracy":1882,"Ġcrypt":1883,"inc":1884,"ellig":1885,"Ġbel":1886,"Ġoriginal":1887,"Ġonline":1888,"Ġfail":1889,"17":1890,"Ġdynam":1891,"amp":1892,"Ġerror":1893,"Ġel":1894,"time":1895,"Ġsuccessful":1896,"Ġterm":1897,"atch":1898,"Ġauthentication":1899,"mer":1900,"Ġ$":1901,"xim":1902,"con":1903,"Ġsmart":1904,"Ġauthor":1905,"secunia":1906,"Ġquest":1907,"ogle":1908,"Ġdeploy":1909,"pping":1910,"Ġevent":1911,"ances":1912,"ibility":1913,"Ġlabel":1914,"soft":1915,"Ġcontext":1916,"ĠMicro":1917,"Ġvulnerable":1918,"CS":1919,"Ġdig":1920,"Ġide":1921,"ĠCont":1922,"Ġgovern":1923,"ĠOne":1924,"Ġcause":1925,"box":1926,"Ġcritical":1927,"ĠCl":1928,"Ġrecomm":1929,"Ġcred":1930,"Ġproject":1931,"Ġsomet":1932,"Ġassoci":1933,"Ġloss":1934,"Ġinvestig":1935,"hers":1936,"Ġprovided":1937,"Ġtechnology":1938,"Ġscript":1939,"Ġprior":1940,"Ġexisting":1941,"ĠThey":1942,"Ġintern":1943,"rastr":1944,"Ġbound":1945,"ale":1946,"25":1947,"Ġlater":1948,"ĠOur":1949,"Ġminim":1950,"Ġele":1951,"ges":1952,"ifier":1953,"Ġoperating":1954,"ava":1955,"Ġresponse":1956,"ways":1957,"irc":1958,"200":1959,"Ġcal":1960,"icult":1961,"Ġadditional":1962,"Ġsequ":1963,"Ġresources":1964,"Ġcomplete":1965,"Ġdatabase":1966,"24":1967,"eed":1968,"Ġchanges":1969,"Ġnecess":1970,"RL":1971,"REF":1972,"Ġdistribution":1973,"here":1974,"jor":1975,"Ġdetails":1976,"Ġissue":1977,"Ġdownload":1978,"Ġhardware":1979,"Ġstructure":1980,"uted":1981,"Ġcomponents":1982,"isco":1983,"Ġsimple":1984,"Ġimplementation":1985,"Ġkeep":1986,"Ġcloud":1987,"Ġprevent":1988,"ĠWhile":1989,"Ġcop":1990,"Ġlit":1991,"Ġter":1992,"Ġsite":1993,"Ġencrypt":1994,"oid":1995,"Ġtext":1996,"Ġgenerated":1997,"Ġgreat":1998,"lying":1999,"Ġpattern":2000,"Ġmy":2001,"untu":2002,"ches":2003,"oS":2004,"Ġoperations":2005,"Ġalgorithms":2006,"AP":2007,"Ġscan":2008,"Ġsamples":2009,"Ġyears":2010,"man":2011,"sing":2012,"IP":2013,"Ġpertur":2014,"Ġorganizations":2015,"epend":2016,"Ġsolution":2017,"Ġpacket":2018,"ĠAtt":2019,"ĠRed":2020,"erg":2021,"Ġconsidered":2022,"Ġencryption":2023,"ready":2024,"me":2025,"Ġcaus":2026,"uture":2027,"ĠWith":2028,"Ġindust":2029,"uc":2030,"mission":2031,"Ġneeds":2032,"Ġhuman":2033,"Ġimprove":2034,"Ġmobile":2035,"Ġprivate":2036,"Ġleast":2037,"Ġissues":2038,"way":2039,"Ġtry":2040,"alth":2041,"Ġdifficult":2042,"ably":2043,"Ġlayer":2044,"ĠUS":2045,"ĠCy":2046,"ired":2047,"Ġmajor":2048,"onstr":2049,"ĠGoogle":2050,"Ġreason":2051,"Ġlast":2052,"ral":2053,"50":2054,"Ġalready":2055,"inary":2056,"Ġparameters":2057,"Ġrepl":2058,"Ġamount":2059,"Ġcapt":2060,"Ġdefin":2061,"Ġfree":2062,"Ġacross":2063,"Ġrequires":2064,"ĠAfter":2065,"Ġtesting":2066,"Ġservers":2067,"Ġcontains":2068,"Ġadmin":2069,"ĠIoT":2070,"uth":2071,"aint":2072,"Ġcybersecurity":2073,"ices":2074,"================":2075,"Ġdemonstr":2076,"Ġinitial":2077,"Ġplay":2078,"abl":2079,"IC":2080,"Ġterms":2081,"ĠInt":2082,"rary":2083,"Ġdri":2084,"ĠNetwork":2085,"Ġwebsite":2086,"Ġmean":2087,"Ġrespons":2088,"Ġdevelopment":2089,"Ġdocument":2090,"illion":2091,"Ġaround":2092,"Ġarchitecture":2093,"ION":2094,"90":2095,"Ġhead":2096,"loc":2097,"acking":2098,"Ġthough":2099,"iver":2100,"ĠBy":2101,"Ġinstance":2102,"Ġaff":2103,"Ġcompanies":2104,"Ġthus":2105,"prise":2106,"80":2107,"Ġfrequ":2108,"Ġextract":2109,"ML":2110,"att":2111,"itig":2112,"Ġinfrastr":2113,"Ġassess":2114,"Ġlocation":2115,"Ġaddresses":2116,"ĠBut":2117,"Ġ=":2118,"Ġplan":2119,"Ġla":2120,"Ġprotection":2121,"Ġdesigned":2122,"Ġconstruct":2123,"Ġdefined":2124,"Ġthird":2125,"Ġlikely":2126,"idd":2127,"ensive":2128,"Ġlaw":2129,"Ġoccur":2130,"Ġprograms":2131,"Ġeffective":2132,"Ġ<":2133,"Ġalways":2134,"olution":2135,"Ġhigher":2136,"ET":2137,"Ġdirectly":2138,"elligence":2139,"ounter":2140,"Ġtur":2141,"asing":2142,"Ġfuture":2143,"Ġhere":2144,"Ġdescribed":2145,"izing":2146,"do":2147,"Ġcontain":2148,"Ġensure":2149,"Ġret":2150,"Ġmaking":2151,"nces":2152,"ĠMicrosoft":2153,"Ġcalc":2154,"Ġplace":2155,"ĠSince":2156,"vert":2157,"MD":2158,"Ġprocesses":2159,"ients":2160,"Ġscore":2161,"itional":2162,"Ġperturb":2163,"ming":2164,"lob":2165,"idence":2166,"Ġconfiguration":2167,"Ġcreated":2168,"Ġclassification":2169,"Ġresearc":2170,"alse":2171,"Ġtimes":2172,"upp":2173,"oot":2174,"Ġher":2175,"Ġmakes":2176,"Ġfull":2177,"onom":2178,"level":2179,"Ġvirtual":2180,"apter":2181,"Ġhowever":2182,"30":2183,"Ġthreats":2184,"af":2185,"Ġstre":2186,"Ġsk":2187,"Ġworks":2188,"ero":2189,"Ġdr":2190,"book":2191,"ĠAr":2192,"ED":2193,"Ġfour":2194,"EN":2195,"ern":2196,"pped":2197,"Ġfac":2198,"Ġgame":2199,"Ġprivile":2200,"ood":2201,"Ġreported":2202,"Ġprotocols":2203,"Ġbit":2204,"cent":2205,"AS":2206,"Ġstrong":2207,"ulated":2208,"Ġpackets":2209,"aring":2210,"Ġrecogn":2211,"Ġappear":2212,"Ġcard":2213,"Ġlanguage":2214,"Ġnormal":2215,"sequ":2216,"Ġdetermine":2217,"ply":2218,"aps":2219,"Ġprobability":2220,"ees":2221,"Ġbug":2222,"ences":2223,"day":2224,"Ġrules":2225,"visories":2226,".\"":2227,"Ġamong":2228,"flow":2229,"ĠMore":2230,"Ġgenerate":2231,"Ġhim":2232,"Ġdefend":2233,"ump":2234,"Ġestabl":2235,"Ġversions":2236,"ĠAt":2237,"Ġarbit":2238,"48":2239,"Ġbro":2240,"Ġ&":2241,"gin":2242,"Ġconstr":2243,"irm":2244,"Ġdone":2245,"Ġtechnique":2246,"Ġdeveloped":2247,"Ġtask":2248,"Ġevents":2249,"Ġconsum":2250,"Ġitself":2251,"ension":2252,"Ġautomat":2253,"Ġincrease":2254,"Ġbrowser":2255,"ĠFurther":2256,"ĠâĢĶ":2257,"Ġmitig":2258,"ffer":2259,"AA":2260,"hold":2261,"utes":2262,"Ġreview":2263,"Ġstrategy":2264,"roid":2265,"hat":2266,"vant":2267,"ising":2268,"acks":2269,"Ġconduct":2270,"Ġsensitive":2271,"Ġsat":2272,"Ġstring":2273,"Ġchecks":2274,"Ġrange":2275,"ffor":2276,"lu":2277,"Ġconnection":2278,"ĠSec":2279,"ember":2280,"ĠAll":2281,"Ġproblems":2282,"ĠNote":2283,"ĠSh":2284,"()":2285,"ends":2286,"40":2287,"iod":2288,"Ġgovernment":2289,"Ġassign":2290,"icated":2291,"ched":2292,"Ġestim":2293,"Ġaction":2294,"let":2295,"Ġoperation":2296,"Ġpersonal":2297,"use":2298,"ique":2299,"AD":2300,"Ġconcept":2301,"Ġpoints":2302,"Ġunt":2303,"ubuntu":2304,"Ġassociated":2305,"Ġinstead":2306,"**":2307,"Ġelect":2308,"Ġ#":2309,"ĠOS":2310,"Ġarg":2311,"Ġroot":2312,"70":2313,"light":2314,"Ġsit":2315,"ologies":2316,"anced":2317,"Ġshort":2318,"22":2319,"by":2320,"Ġfore":2321,"Ġred":2322,"Ġprim":2323,"Ġusually":2324,"Ġlibr":2325,"ĠDes":2326,"Ġaverage":2327,"ĠURL":2328,"Ġpresented":2329,"Ġfire":2330,"Ġcour":2331,"side":2332,"Ġapplied":2333,"inally":2334,"Ġclear":2335,"ulate":2336,"Ġdecision":2337,"Ġmis":2338,"ne":2339,"Ġintr":2340,"Ġkeys":2341,"ĠBe":2342,"Ġmaxim":2343,"force":2344,"Ġproducts":2345,"Ġcirc":2346,"Ġseen":2347,"Ġinfrastructure":2348,"ength":2349,"Ġsimply":2350,"AL":2351,"Ġavoid":2352,"Ġmaint":2353,"IST":2354,"Ġaccording":2355,"ĠData":2356,"Ġtrig":2357,"QL":2358,"Ġexecute":2359,"Ġattrib":2360,"Ġtem":2361,"Ġmechanism":2362,"ĠComm":2363,"Ġthink":2364,"strict":2365,"Ġactions":2366,"ĠHTTP":2367,"hic":2368,"Ġdefault":2369,"set":2370,"Ġutil":2371,"Ġtargeted":2372,"ceed":2373,"Ġrequirements":2374,"Ġsepar":2375,"ĠDef":2376,"Ġrest":2377,"Ġste":2378,"Ġinj":2379,"www":2380,"Ġtot":2381,"Ġsug":2382,"air":2383,"Ġcorresponding":2384,"ĠJava":2385,"Ġincludes":2386,"Ġcache":2387,"AM":2388,"Ġentire":2389,"Ġblack":2390,"ĠOpen":2391,"Ġactivity":2392,"96":2393,"Ġproced":2394,"Ġregard":2395,"mail":2396,"Ġbecome":2397,"aster":2398,"Ġadministr":2399,"pri":2400,"Ġscheme":2401,"Ġapproaches":2402,"Ġcomponent":2403,"Ġneeded":2404,"actions":2405,"Ġaud":2406,"88":2407,"Ġconnected":2408,"Ġfalse":2409,"sp":2410,"Ġtable":2411,"Ġdiscovered":2412,"Ġsuggest":2413,"Ġdigital":2414,"cing":2415,"Ġperiod":2416,"Ġselect":2417,"Ġenough":2418,"Ġsem":2419,"ration":2420,"Ġmarket":2421,"CVE":2422,"Ġability":2423,"Ġdetail":2424,"Ġbelow":2425,"Ġlaun":2426,"istics":2427,"Ġcertific":2428,"Ġwar":2429,"irus":2430,"Ġkind":2431,"Ġvend":2432,"ĠIT":2433,"Ġsolutions":2434,"Ġstates":2435,"Ġtoo":2436,"Ġaffected":2437,"RO":2438,"Ġbelie":2439,"ock":2440,"Ġarbitrary":2441,"Ġidentified":2442,"Ġchalleng":2443,"Ġside":2444,"ĠTherefore":2445,"ĠOr":2446,"Ġquant":2447,"iversity":2448,"Ġnecessary":2449,"wall":2450,"Ġstored":2451,"ription":2452,"val":2453,"Ġhaving":2454,"LE":2455,"Ġlimited":2456,"Ġparticip":2457,"Ġhapp":2458,"ool":2459,"Ġuseful":2460,"Ġsus":2461,"ilt":2462,"Ġ)":2463,"reen":2464,"Ġtransfer":2465,"MS":2466,"ĠHat":2467,"Ġspecial":2468,"Ġstor":2469,"Ġgrad":2470,"Ġpasswords":2471,"erc":2472,"ĠHP":2473,"part":2474,"Ġgoal":2475,"Ġgive":2476,"Ġlimit":2477,"kn":2478,"Ġeasily":2479,"rupt":2480,"23":2481,"Ġsum":2482,"Ġexperiment":2483,"Ġcontract":2484,"ĠAcc":2485,"ĠSome":2486,"Ġvector":2487,"Ġmiss":2488,"60":2489,"tle":2490,"Ġpopular":2491,"Ġvol":2492,"alk":2493,"ath":2494,"aries":2495,"uments":2496,"ĠAPI":2497,"Ġetc":2498,"ĠInst":2499,"Ġcounter":2500,"Ġve":2501,"Ġeffor":2502,"Ġproperties":2503,"inter":2504,"Ġ15":2505,"Ġsetting":2506,"head":2507,"Ġdest":2508,"Ġconst":2509,"ĠSim":2510,"Ġbase":2511,"Ġproof":2512,"Ġinternal":2513,"Ġlet":2514,"aim":2515,"Ġleak":2516,"Ġrequests":2517,"Ġcompromised":2518,"Ġswit":2519,"ging":2520,"Ġprom":2521,"VSS":2522,"ternal":2523,"ST":2524,"Ġsym":2525,"Ġinterface":2526,"Ġworking":2527,"Ġrather":2528,"iminal":2529,"izes":2530,"Ġvide":2531,"lobal":2532,"Ġsignal":2533,"Ġhttps":2534,"ĠPl":2535,"Ġrestrict":2536,"Ġneg":2537,",\"":2538,"Ġaccept":2539,"fact":2540,"ifically":2541,"Ġalong":2542,"Ġfixed":2543,"Ġcontinu":2544,"ĠMod":2545,"Ġfam":2546,"ifi":2547,"Ġsay":2548,"orth":2549,"Ġwide":2550,"ansom":2551,"Ġseem":2552,"Ġsecret":2553,"ĠPh":2554,"ype":2555,"Ġsitu":2556,"ĠAdd":2557,"Ġperformed":2558,"NN":2559,"back":2560,"itimate":2561,"Ġactivities":2562,"Ġtim":2563,"Ġtrad":2564,"Ġrelations":2565,"Ġnumbers":2566,"ium":2567,"Ġgoing":2568,"RE":2569,"Ġobtain":2570,"Ġopp":2571,"ĠThus":2572,"Ġuntil":2573,"Ġhy":2574,"Ġprocessing":2575,"Ġtotal":2576,"wise":2577,"Ġexpress":2578,"Ġothers":2579,"pass":2580,"Ġquery":2581,"iate":2582,"enet":2583,"ching":2584,"atively":2585,"Ġimplemented":2586,"Ġphone":2587,"ik":2588,"Ġpolicies":2589,"aken":2590,"IF":2591,"Ġsomething":2592,"reg":2593,"sw":2594,"lib":2595,"Ġdistributed":2596,"Ġparameter":2597,"onym":2598,"Ġunique":2599,"Ġwrite":2600,"be":2601,"Ġask":2602,"ĠSS":2603,"ĠII":2604,"Ġapps":2605,"pecially":2606,"Ġdynamic":2607,"Ġachieve":2608,"):":2609,"Ġarea":2610,"icate":2611,"az":2612,"Ġenter":2613,"Ġ100":2614,"Ġthings":2615,"\",":2616,"Ġcare":2617,"Ġsteps":2618,"Th":2619,"cr":2620,"MP":2621,"Ġwrit":2622,"point":2623,"ireless":2624,"Ġwords":2625,"Ġvehic":2626,"iving":2627,"Ġcompared":2628,"Ġill":2629,"Ġaim":2630,"Ġmedia":2631,"Ġactually":2632,"ides":2633,"Ġcustomers":2634,"Ġput":2635,"most":2636,"Ġclassifier":2637,"Ġcollect":2638,"Ġclick":2639,"Ġencrypted":2640,"ĠSe":2641,"tes":2642,"Ġrespectively":2643,"Ġcapture":2644,"Ġaware":2645,"Net":2646,"ĠServer":2647,"ĠVulner":2648,"Ġbinary":2649,"Ġresearchers":2650,"SP":2651,"Ġinstructions":2652,"wards":2653,"Ġsample":2654,"Ġsubject":2655,"pd":2656,"enses":2657,"Ġreturn":2658,"thing":2659,"Ġefficient":2660,"Ġphase":2661,"Ġvi":2662,"visory":2663,"Ġlearn":2664,"Ġeasy":2665,"35":2666,"opt":2667,"Ġder":2668,"Ġ:":2669,"\".":2670,"Ġtre":2671,"Ġreceived":2672,"Ġfollows":2673,"26":2674,"Ġadvant":2675,"Ġbasic":2676,"ĠOnce":2677,"icit":2678,"ope":2679,"Ġcomputers":2680,"ĠNot":2681,"Ġprinc":2682,"Ġlegitimate":2683,"Ġmillion":2684,"ĠAndroid":2685,"Ġquick":2686,"bedd":2687,"ĠComput":2688,"Ġmechanisms":2689,"99":2690,"Ġfar":2691,"Ġmode":2692,"Ġbook":2693,"ĠTechn":2694,"we":2695,"Ġlower":2696,"Ġcryptograph":2697,"ivity":2698,"uz":2699,"encies":2700,"Ġcopy":2701,"Ġways":2702,"ĠDNS":2703,"Ġday":2704,"Ġlif":2705,"Ġscenario":2706,"ĠAlthough":2707,"Ġrecord":2708,"Ġsession":2709,"Ġstack":2710,"Ġreve":2711,"Ġvariables":2712,"like":2713,"Ġaffect":2714,"Ġadded":2715,"gether":2716,"ĠFirst":2717,"ĠSecunia":2718,"ilit":2719,"Ġrecent":2720,"ĠRec":2721,"Ġinputs":2722,"Ġ16":2723,"Ġmembers":2724,"AB":2725,"inks":2726,"ĠSize":2727,"Ġtasks":2728,"Ġrefer":2729,"ĠInformation":2730,"pool":2731,"Ġbenef":2732,"Ġevaluate":2733,"Ġtakes":2734,"Ġauthors":2735,"ĠThen":2736,"Ġdeep":2737,"ĠProt":2738,"ĠCisco":2739,"Ġlength":2740,"Ġcalls":2741,"ater":2742,"Ġapply":2743,"Ġcomputing":2744,"aging":2745,"Ġmot":2746,"28":2747,"Ġnames":2748,"arant":2749,"Ġcontin":2750,"Ġmove":2751,"Ġaccounts":2752,"Ġhold":2753,"ining":2754,"ications":2755,"Ġmonitoring":2756,"Ġtypically":2757,"ists":2758,"ipher":2759,"Ġonce":2760,"Ġdiscussed":2761,"Ġmeasures":2762,"Ġoption":2763,"Ġphishing":2764,"Ġprec":2765,"Ġnever":2766,"Ġevaluation":2767,"Ġclaim":2768,"27":2769,"app":2770,"Ġsets":2771,"Ġformat":2772,"DP":2773,"Ġassume":2774,"ategor":2775,"Ġpercent":2776,"pre":2777,"Ġsurve":2778,"ng":2779,"Ġimpl":2780,"Ġincreasing":2781,"ored":2782,"see":2783,"oney":2784,"Ġvariable":2785,"Ġclose":2786,"Ġiter":2787,"ane":2788,"ises":2789,"Ġverify":2790,"Ġsites":2791,"Ġshared":2792,"ĠCVSS":2793,"Ġant":2794,"Ġidea":2795,"Ġexploited":2796,"yth":2797,"IG":2798,"Ġappropri":2799,"Ġnoise":2800,"Ġransom":2801,"Ġgrow":2802,"Ġgain":2803,"Ġbig":2804,"Ġ2018":2805,"known":2806,"aly":2807,"ĠInd":2808,"Ġneural":2809,"lation":2810,"Ġsequence":2811,"Ġlot":2812,"ĠFace":2813,"ĠNew":2814,"Ġactive":2815,"Ġ2017":2816,"Ġsure":2817,"ĠAss":2818,"Ġinstruction":2819,"Ġregular":2820,"Ġtrained":2821,"Ġexpected":2822,"Ġespecially":2823,"porate":2824,"ands":2825,"Ġquestion":2826,"Ġexperiments":2827,"Ġec":2828,"Ġweak":2829,"Ġobserv":2830,"ĠCyber":2831,"Ġfunctionality":2832,"ody":2833,"ĠLe":2834,"arm":2835,"sec":2836,"Ġproperty":2837,"ider":2838,"Ġcredential":2839,"Ġtechnical":2840,"iveness":2841,"34":2842,"Ġstorage":2843,"ĠEnter":2844,"ĠTCP":2845,"Ġmention":2846,"abled":2847,"main":2848,"oding":2849,"Ġshare":2850,"arily":2851,"55":2852,"Ġreduce":2853,"Ġincor":2854,"Ġcontact":2855,"Ġpair":2856,"Ġsy":2857,"Ġ14":2858,"Ġcompar":2859,"Ġbreak":2860,"Ġexternal":2861,"isf":2862,"Ġrobustness":2863,"emb":2864,"Ġbuffer":2865,"atic":2866,"ml":2867,"Ġactual":2868,"SM":2869,"Ġ11":2870,"Ġmodule":2871,"ached":2872,"Ġgeneration":2873,"Ġbi":2874,"Ġintroduced":2875,"Ġrelease":2876,"Ġobserved":2877,"ĠThat":2878,"Ġfirewall":2879,"21":2880,"iation":2881,"Ġflaw":2882,"Ġcontrib":2883,"Ġcommands":2884,"ĠSoftware":2885,"Ġembedd":2886,"Ġobtained":2887,"Ġincluded":2888,"ĠAct":2889,"info":2890,"Ġautomatically":2891,"aling":2892,"ĠAut":2893,"AV":2894,"cy":2895,"Ġbecom":2896,"Ġcommunity":2897,"Ġguarant":2898,"IM":2899,"wh":2900,"Ġconditions":2901,"Ġindustry":2902,"Ġresource":2903,"ependent":2904,"Ġann":2905,"ĠFig":2906,"ĠUnited":2907,"Ġtrue":2908,"ĠAttack":2909,"more":2910,"Ġtherefore":2911,"ĠMet":2912,"cript":2913,"Ġfilter":2914,"ifies":2915,"ĠFinally":2916,"ython":2917,"Ġzero":2918,"Ġinstalled":2919,"Ġhome":2920,"Ġartic":2921,"met":2922,"Ġwebsites":2923,"Ġgroups":2924,"Ġ{":2925,"Ġcategor":2926,"Ġpractice":2927,"Ġconv":2928,"Ġengineering":2929,"Ġcore":2930,"ĠAC":2931,"ones":2932,"Ġglobal":2933,"Ġmanip":2934,"Ġcapabilities":2935,"name":2936,"Ġtri":2937,"Ġadapt":2938,"Ġdefine":2939,"tings":2940,"oint":2941,"aft":2942,"Ġ2016":2943,"Ġregist":2944,"Ġtaken":2945,"Ġbroad":2946,"los":2947,"Ġwind":2948,"lier":2949,"Ġrelevant":2950,"aced":2951,"Ġbuilt":2952,"ferences":2953,"Ġenerg":2954,"Ġtogether":2955,"Ġintelligence":2956,"36":2957,"print":2958,"Ġcross":2959,"Ġrole":2960,"ĠSQL":2961,"ĠControl":2962,"Ġidentity":2963,"uzz":2964,"Ġsensor":2965,"ĠEach":2966,"LS":2967,"Ġsafety":2968,"ĠManag":2969,"Ġmonth":2970,"Ġsafe":2971,"gress":2972,"Ġsatisf":2973,"Ġagent":2974,"Ġhackers":2975,"yle":2976,"Ġreli":2977,"Ġlarger":2978,"Ġhist":2979,"Ġdirectory":2980,"Ġpurpose":2981,"ĠFacebook":2982,"abor":2983,"Ġdomains":2984,"Ġleft":2985,"Ġupdates":2986,"Ġconcer":2987,"verse":2988,"Ġfund":2989,"Ġtechnologies":2990,"ĠCPU":2991,"Ġexact":2992,"md":2993,"Ġbegin":2994,"Ġenergy":2995,"Ġcamp":2996,"Ġwireless":2997,"Ġhash":2998,"uster":2999,"84":3000,"Ġdetected":3001,"Ġexecuted":3002,"Ġstrategies":3003,"olic":3004,"Ġinjection":3005,"Ġdifference":3006,"rix":3007,"Ġreach":3008,"Ġwhy":3009,"Ġmo":3010,"Ġreleased":3011,"Ġcraft":3012,"Ġpropose":3013,"ustr":3014,"Ġ13":3015,"Ġrelationship":3016,"reshold":3017,"Ġlevels":3018,"Ġskill":3019,"ĠAS":3020,"Ġmicro":3021,"Ġappropriate":3022,"Ġpayload":3023,"Ġdistance":3024,"ND":3025,"mod":3026,"def":3027,"Ġdam":3028,"mitted":3029,"amed":3030,"Ġpages":3031,"upd":3032,"ĠFr":3033,"Ġscenarios":3034,"Ġpatterns":3035,"Ġwor":3036,"ifications":3037,"ĠDet":3038,"Ġdisplay":3039,"74":3040,"ĠEng":3041,"go":3042,"Ġreally":3043,"arent":3044,"ception":3045,"poses":3046,"ectors":3047,"ams":3048,"lated":3049,"Ġcomputation":3050,"ism":3051,"Ġsemant":3052,"Ġnear":3053,"LL":3054,"Ġvideo":3055,"Ġinside":3056,"Ġcome":3057,"Ġpotentially":3058,"Ġansw":3059,"Ġparty":3060,"ufact":3061,"bug":3062,"Ġmachines":3063,"Ġcontrols":3064,"ĠNow":3065,"85":3066,"rics":3067,"debug":3068,"overy":3069,"Ġself":3070,"ister":3071,");":3072,"Ġsignature":3073,"Ġreceive":3074,"Ġuns":3075,"ancial":3076,"OM":3077,"Ġcondition":3078,"Ġforward":3079,"aints":3080,"Ġsynt":3081,"ĠAD":3082,"Ġcourse":3083,"Ġviol":3084,"04":3085,"ground":3086,"ĠEnterprise":3087,"change":3088,"wr":3089,"75":3090,"Ġelements":3091,"Ġpreviously":3092,"Ġresulting":3093,"##":3094,"ĠSp":3095,"29":3096,"Ġaspect":3097,"Ġcomplexity":3098,"Ġfinal":3099,"enge":3100,"ĠPC":3101,"ah":3102,"Ġbackdo":3103,"Ġlight":3104,"mar":3105,"Ġsources":3106,"Ġlittle":3107,"Ġold":3108,"aud":3109,"lex":3110,"Ġclasses":3111,"Ġallowed":3112,"ĠGr":3113,"Ġpast":3114,"Ġinflu":3115,"Ġess":3116,"Ġshell":3117,"Ġfeed":3118,"Ġdefenses":3119,"Ġobjects":3120,"ook":3121,"Ġrespond":3122,"Ġrisks":3123,"ĠAnother":3124,"cont":3125,"lease":3126,"off":3127,"Ġemployees":3128,"Ġbehind":3129,"Ġchallenges":3130,"Ġpractices":3131,"Ġpatch":3132,"Ġwritten":3133,"Ġcommunications":3134,"Ġthreshold":3135,"PN":3136,"Ġweight":3137,"Ġoptimization":3138,"Ġhealth":3139,"Ġlibrary":3140,"Ġoffic":3141,"ifying":3142,"Ġword":3143,"Ġ2019":3144,"________________":3145,"ingu":3146,"aign":3147,"Ġdeg":3148,"Ġformal":3149,"Ġfirm":3150,"Ġsn":3151,"Ġconnections":3152,"ously":3153,"Ġverification":3154,"imin":3155,"Ġcompil":3156,"unct":3157,"Ġremo":3158,"Ġexplo":3159,"Ġsimpl":3160,"advisories":3161,"Ġjob":3162,"ĠHere":3163,"Ġones":3164,"oring":3165,"Ġanom":3166,"Ġenable":3167,"Ġbank":3168,"ĠSystems":3169,"ĠSP":3170,"Ġrule":3171,"ĠService":3172,"Ġlinks":3173,"ĠUsing":3174,"Ġoptimal":3175,"Ġspeed":3176,"Ġintegrity":3177,"ull":3178,"eline":3179,"DoS":3180,"duces":3181,"Ġu":3182,"aa":3183,"Ġmoney":3184,"Ġstatic":3185,"Ġtag":3186,"Ġexploits":3187,"uthor":3188,"ĠUniversity":3189,"Ġpositive":3190,"Ġdatasets":3191,"ape":3192,"Ġtrack":3193,"ĠVM":3194,"uary":3195,"Ġalert":3196,"code":3197,"Ġlayers":3198,"586":3199,"Ġdefinition":3200,"Ġillustr":3201,"Ġbits":3202,"Ġadvantage":3203,"Ġearly":3204,"Ġdon":3205,"ĠFrom":3206,"79":3207,"Ġsuper":3208,"Ġsubst":3209,"cert":3210,"ĠComp":3211,"Ġcompromise":3212,"Ġalmost":3213,"ĠStates":3214,"Ġcur":3215,"Ġbuilding":3216,"Ġlinear":3217,"ĠGP":3218,"Ġanalyze":3219,"na":3220,"ecause":3221,"xy":3222,"Ġsettings":3223,"Ġrad":3224,"Ġseries":3225,"Ġlonger":3226,"Ġcredentials":3227,"Ġalloc":3228,"ots":3229,"top":3230,"ival":3231,"Ġupdated":3232,"Ġtok":3233,"Ġart":3234,"Ġassessment":3235,"UT":3236,"ĠAg":3237,"ars":3238,"Ġlogic":3239,"els":3240,"----------------------------------------------------------------":3241,"Ġsignificantly":3242,"Ġ2015":3243,"Ġsensors":3244,"ina":3245,"Ġwindow":3246,"idential":3247,"ĠKe":3248,"Ġdele":3249,"Ġdevelopers":3250,"Ġhighly":3251,"inger":3252,"Ġdescribe":3253,"Ġnote":3254,"Ġspo":3255,"Ġtargets":3256,"Ġprediction":3257,"Ġentry":3258,"Ġpublished":3259,"OC":3260,"Ġchoose":3261,"Ġunderstanding":3262,"redhat":3263,"Ġtell":3264,"Ġinteract":3265,"Ġclients":3266,"ĠSpec":3267,"Ġqueries":3268,"ĠICS":3269,"Ġinvolved":3270,"Ġpenet":3271,"Ġexperience":3272,"chain":3273,"Ġcompet":3274,"Ġupon":3275,"Ġfive":3276,"elves":3277,"aves":3278,"Ġcampaign":3279,"Ġlooking":3280,"Ġransomware":3281,"dis":3282,"ĠAccording":3283,"Ġoverall":3284,"ections":3285,"sers":3286,"33":3287,"une":3288,"oll":3289,"Ġdi":3290,"76":3291,"ĠNo":3292,"ements":3293,"Ġnat":3294,"ton":3295,"Ġselected":3296,"ĠOther":3297,"ifiers":3298,"Ġop":3299,"Ġadopt":3300,"idden":3301,"Ġchannels":3302,"ĠAm":3303,"Ġrecon":3304,"Ġclean":3305,"Ġfully":3306,"Ġreports":3307,"Ġconfigure":3308,"Ġsends":3309,"ĠMoreover":3310,"ili":3311,"âĢĶ":3312,"duction":3313,"Ġstudies":3314,"roj":3315,"Ġtrigger":3316,"rc":3317,"Ġmaximum":3318,"Ġ25":3319,"We":3320,"VM":3321,"Ġsuccessfully":3322,"ĠRep":3323,"ĠSC":3324,"Ġacqu":3325,"iles":3326,"Ġ2014":3327,"Ġproviding":3328,"Ġ18":3329,"atory":3330,"Ġbytes":3331,"Ġtraditional":3332,"now":3333,"Ġsufficient":3334,"witter":3335,"Ġquestions":3336,"Ġlines":3337,"US":3338,"Ġevidence":3339,"eder":3340,"This":3341,"ume":3342,"Ġinteresting":3343,"Ġ30":3344,"ĠEu":3345,"Ġlock":3346,"ask":3347,"oper":3348,"Ġtrusted":3349,"ole":3350,"ibly":3351,"rial":3352,"Ġchallenge":3353,"Ġsusp":3354,"ĠâĢĺ":3355,"Ġexpect":3356,"cle":3357,"ober":3358,"Ġenforce":3359,"Ġhour":3360,"Ġproperly":3361,"Ġyet":3362,"IL":3363,"ude":3364,"78":3365,"Ġcontroller":3366,"erson":3367,"Ġdenial":3368,"Ġdoing":3369,"Ġoutside":3370,"ĠDec":3371,"iter":3372,"Ġbox":3373,"erial":3374,"Ġquality":3375,"ouse":3376,"ĠBr":3377,"ĠAlso":3378,"Ġconstraints":3379,"Ġfault":3380,"ending":3381,"Ġmentioned":3382,"Ġseg":3383,"ĠCent":3384,"OP":3385,"ĠLi":3386,"Ġupgr":3387,"Ġconstant":3388,"CC":3389,"Ġfrequency":3390,"ĠIN":3391,"Ġtrain":3392,"0000":3393,"exe":3394,"Ġcomes":3395,"lack":3396,"Ġsymb":3397,"Ġrecords":3398,"Ġfinancial":3399,"Ġitem":3400,"Ġliter":3401,"Ġareas":3402,"Ġcertificate":3403,"Ġearlier":3404,"vious":3405,"Ġprivileges":3406,"meric":3407,"Ġdate":3408,"Ġspe":3409,"Ġmanufact":3410,"Ġposition":3411,"ĠWhat":3412,"Ġdays":3413,"66":3414,"Ġ2013":3415,"ulations":3416,"Ġwhole":3417,"Ġcustomer":3418,"Ġcell":3419,"resents":3420,"Ġpi":3421,"95":3422,"Ġcreating":3423,"Ġallowing":3424,"Ġprofession":3425,"Ġenh":3426,"Ġreveal":3427,"44":3428,"Ġlack":3429,"Ġface":3430,"Ġquickly":3431,"missions":3432,"Ġconsists":3433,"Ġmatrix":3434,"Ġspoof":3435,"Ġtheore":3436,"Ġ50":3437,"Ġturn":3438,"Ġhappen":3439,"Ġessential":3440,"ĠLet":3441,"Ġloop":3442,"Ġfake":3443,"dd":3444,"Ġagents":3445,"Ġgrid":3446,"alf":3447,"ducing":3448,"down":3449,"Ġcompos":3450,"Ġstruct":3451,"Ġgives":3452,"Ġrepresents":3453,"Ġinternet":3454,"Ġpoison":3455,"Ġaltern":3456,"ĠBecause":3457,"isions":3458,"Ġsending":3459,"Ġtransform":3460,"Ġcontaining":3461,"artment":3462,"ĠFire":3463,"Ġgenerally":3464,"Ġstarted":3465,"Ġprint":3466,"Ġincident":3467,"Ġwee":3468,"ii":3469,"Ġnature":3470,"ublic":3471,"--------------------------------------------------------------------":3472,"Ġcollected":3473,"ards":3474,"ĠApple":3475,"Ġdetailed":3476,"Ġprotected":3477,"osen":3478,"ortun":3479,"Ġvendor":3480,"aged":3481,"rie":3482,"Ġcriminal":3483,"Ġplatforms":3484,"ĠTrans":3485,"ĠFurthermore":3486,"no":3487,"Ġ2010":3488,"Ġperturbation":3489,"Ġimmed":3490,"cast":3491,"ĠAmeric":3492,"ĠAT":3493,"Ġerrors":3494,"ued":3495,"class":3496,"ners":3497,"ray":3498,"Ġoverhead":3499,"Ġwhose":3500,"ĠMost":3501,"Ġindividuals":3502,"Ġcipher":3503,"Ġeffectiveness":3504,"Ġattention":3505,"ean":3506,"Ġpackage":3507,"Ġgradient":3508,"ĠPre":3509,"ĠPriv":3510,"Ġcentral":3511,"Ġcluster":3512,"Ġtransaction":3513,"Ġchain":3514,"Ġlife":3515,"Ġguid":3516,"77":3517,"Ġsomeone":3518,".)":3519,"uit":3520,"ĠRem":3521,"Ġvariety":3522,"Ġscreen":3523,"ĠGener":3524,"Ġsignals":3525,"ĠMany":3526,"aving":3527,"erous":3528,"amer":3529,"ĠChapter":3530,"Ġautomated":3531,"ĠOb":3532,"ĠCr":3533,"Ġcurrently":3534,"Ġbad":3535,"Ġintroduce":3536,"php":3537,"aff":3538,"Ġoverflow":3539,"Ġhandle":3540,"Ġblocks":3541,"Ġthems":3542,"iency":3543,"ĠAI":3544,"Ġpractical":3545,"Ġ80":3546,"Ġthemselves":3547,"Ġdocuments":3548,"98":3549,"Ġprogramming":3550,"Ġsharing":3551,"ilities":3552,"ional":3553,"ynch":3554,"Ġmag":3555,"Ġpatches":3556,"Ġbypass":3557,"Ġhacking":3558,"Ġdecre":3559,"Ġassigned":3560,"TS":3561,"Ġmeet":3562,"ĠSM":3563,"Ġtaking":3564,"St":3565,"right":3566,"Ġpresence":3567,"Ġanonym":3568,"earch":3569,"vent":3570,"ĠSub":3571,"Ġtheory":3572,"Ġchecksum":3573,"Ġinfected":3574,"Ġoffer":3575,"greg":3576,"IA":3577,"Ġdriv":3578,"Ġdev":3579,"Ġcryptographic":3580,"Ġintended":3581,"Ġschemes":3582,"ips":3583,"38":3584,"Ġrecommend":3585,"Ġdeal":3586,"Ġ2012":3587,"Ġreference":3588,"Ġcountries":3589,"oh":3590,"Ġmetrics":3591,"ĠCPS":3592,"Ġbecomes":3593,"Ġincreases":3594,"Ġdelay":3595,"Ġbreach":3596,"ps":3597,"ĠPart":3598,"text":3599,"ty":3600,"Ġconsequ":3601,"Ġfigure":3602,"Ġthing":3603,"Ġcolum":3604,"ighb":3605,"oded":3606,"ht":3607,"reme":3608,"ffice":3609,"Ġcaused":3610,"Ġstop":3611,"Ġdeployed":3612,"Ġmeaning":3613,"ĠNational":3614,"oth":3615,"EEE":3616,"GP":3617,"Ġphot":3618,"ĠTwitter":3619,"ux":3620,"386":3621,"Ġspecified":3622,"Ġscale":3623,"Ġproduce":3624,"pag":3625,"ĠStr":3626,"Ġnews":3627,"ĠEven":3628,"ĠEurop":3629,"Ġclos":3630,"Ġ====":3631,"uck":3632,"debuginfo":3633,"Ġeffort":3634,"imension":3635,"Ġparties":3636,"Ġoptions":3637,"Ġ>":3638,"RP":3639,"Ġparts":3640,"Ġsense":3641,"Ġhacker":3642,"Ġfactors":3643,"ynchron":3644,"Ġmeasurements":3645,"Ġpackages":3646,"Ġq":3647,"Ġ2011":3648,"ĠSimilar":3649,"Ġstandards":3650,"Ġvalidation":3651,"Ġwriting":3652,"Ġuna":3653,"ĠFe":3654,"Script":3655,"Ġround":3656,"Ġcollection":3657,"Ġ17":3658,"Ġattempts":3659,"Ġadding":3660,"Ġfollowed":3661,"Ġadvert":3662,"acle":3663,"debian":3664,"Ġsupported":3665,"Ġcontinue":3666,"iff":3667,"Ġcommit":3668,"As":3669,"acters":3670,"Ġbackdoor":3671,"Ġpenetration":3672,"Ġbelieve":3673,"Ġarticle":3674,"ĠUpd":3675,"Ġconver":3676,"Ġhosts":3677,"Ġcover":3678,"Ġusage":3679,"Ġspam":3680,"Ġlatest":3681,"Ġspecifically":3682,"Ġdemonstrate":3683,"Ġpiec":3684,"Ġvisual":3685,"45":3686,"pack":3687,"Ġseparate":3688,"ĠAppl":3689,"Ġeffic":3690,"illa":3691,"orn":3692,"Ġinstances":3693,"ERT":3694,"Ġeconom":3695,"ression":3696,"Ġspread":3697,"Ġdegree":3698,"Ġ2009":3699,"EM":3700,"Ġwhite":3701,"Ġlib":3702,"ĠComputer":3703,"LC":3704,"Ġequival":3705,"Ġabstr":3706,"oss":3707,"Ġcrash":3708,"ayer":3709,"Ġquite":3710,"Ġparticipants":3711,"Ġtransactions":3712,"Ġobserve":3713,"Ġdriver":3714,"Ġindex":3715,"Ġslow":3716,"ĠSm":3717,"Ġexplicit":3718,"Ġtrying":3719,"Ġexists":3720,"Ġstage":3721,"usted":3722,"Ġincreased":3723,"itute":3724,"Ġlocations":3725,"Ġsmaller":3726,"idth":3727,"Ġprinci":3728,"ĠNe":3729,"Ġprocedure":3730,"Ġcorrectly":3731,"Ġinference":3732,"Ġ2008":3733,"Ġexploitation":3734,"isting":3735,"Ġcrafted":3736,"Ġwww":3737,"Ġtoday":3738,"Ġsl":3739,"scrib":3740,"Ġintrusion":3741,"II":3742,"Ġperturbations":3743,"world":3744,"Ġindependent":3745,"Ġflo":3746,"rect":3747,"Ġresponsible":3748,"Ġfraud":3749,"ky":3750,"Ġcharacters":3751,"ĠIEEE":3752,"RC":3753,"Ġhyper":3754,"ĠPer":3755,"ĠML":3756,"ares":3757,"Ġmodified":3758,"Ġtransmission":3759,"ĠIC":3760,"ĠHTML":3761,"ĠDis":3762,"itionally":3763,"party":3764,"ĠRuss":3765,"Ġvirus":3766,"add":3767,"Ġsituation":3768,"Ġrely":3769,"Ġprimary":3770,"Ġinject":3771,"gu":3772,"ological":3773,"lear":3774,"Ġtree":3775,"Ġcomparison":3776,"Ġcompletely":3777,"urance":3778,"Ġcontrast":3779,"Ġhidden":3780,"tical":3781,"Ġisol":3782,"37":3783,"iction":3784,"Ġfinger":3785,"Ġwa":3786,"Ġcombination":3787,"phone":3788,"Ġrepe":3789,"Ġadvanced":3790,"fort":3791,"ma":3792,"imately":3793,"Ġchosen":3794,"Ġcharacteristics":3795,"Ġalthough":3796,"Ġ+":3797,"ĠCustom":3798,"65":3799,"Ġfinding":3800,"Ġdrop":3801,"vised":3802,"Ġchoice":3803,"any":3804,"acing":3805,"Ġdrive":3806,"Ġfailure":3807,"conf":3808,"ĠMal":3809,"ĠReg":3810,"ĠSuch":3811,"Ġair":3812,"Ġotherwise":3813,"alysis":3814,"68":3815,"ĠTe":3816,"Ġmaterial":3817,"asp":3818,"Ġruns":3819,"31":3820,"Ġeffectively":3821,"Ġelse":3822,"Ġboot":3823,"Ġrates":3824,"ren":3825,"Ġemails":3826,"rete":3827,"DF":3828,"Ġband":3829,"OT":3830,"Ġnamed":3831,"ĠCS":3832,"Ġfri":3833,"ĠSu":3834,"ĠIS":3835,"Ġsimulation":3836,"Ġbal":3837,"Ġmail":3838,"ĠWork":3839,"Ġvictims":3840,"Ġ2020":3841,"Ġbasis":3842,"ĠVulnerability":3843,"ĠResearch":3844,"Ġsubsequ":3845,"ij":3846,"Ġperforming":3847,"fox":3848,"Ġchanged":3849,"Ġresol":3850,"Ġpress":3851,"Ġsound":3852,"ĠFl":3853,"updates":3854,"ensions":3855,"Ġcompare":3856,"ental":3857,"Ġaggreg":3858,"pir":3859,"inct":3860,"pc":3861,"Ġchapter":3862,"Ġdisclos":3863,"Ġabs":3864,"Ġmeasurement":3865,"Ġexc":3866,"39":3867,"Ġmodify":3868,"Ġmaintain":3869,"idents":3870,"Ġpurposes":3871,"uly":3872,"Ġsurvey":3873,"alle":3874,"Ġlegal":3875,"pective":3876,"ĠDDoS":3877,"Ġlogs":3878,"usc":3879,"ush":3880,"key":3881,"ift":3882,"Ġcompute":3883,"ĠPa":3884,"Ġdefender":3885,"Ġnatural":3886,"Ġund":3887,"Ġheader":3888,"Ġestablished":3889,"Ġeffects":3890,"board":3891,"Ġtrace":3892,"Ġaway":3893,"Ġgot":3894,"rojan":3895,"http":3896,"ĠDo":3897,"used":3898,"Ġremain":3899,"Ġdistingu":3900,"Ġelement":3901,"Ġunknown":3902,"Ġretrie":3903,"Ġcosts":3904,"Ġwidely":3905,"Ġmodern":3906,"agr":3907,"Ġindicates":3908,"ĠCons":3909,"Ġ32":3910,"Ġcommerc":3911,"Ġlogin":3912,"Ġenables":3913,"Ġeasier":3914,"Ġutility":3915,"Ġinform":3916,"pact":3917,"Ġopportun":3918,"ronic":3919,"Ġstarting":3920,"Ġneighb":3921,"iddle":3922,"ols":3923,"ĠBob":3924,"Ġcategories":3925,"Ġstatus":3926,"Ġenvironments":3927,"itors":3928,"Ġdraw":3929,"Ġthread":3930,"HE":3931,"hib":3932,"Ġliterature":3933,"Ġtalk":3934,"related":3935,"Ġprocedures":3936,"yond":3937,"Ġcomputational":3938,"Ġembedded":3939,"Ġstream":3940,"Ġcapability":3941,"Ġfast":3942,"100":3943,"Ġregister":3944,"ĠTor":3945,"upport":3946,"ktop":3947,"Ġswitch":3948,"Ġtowards":3949,"Ġaspects":3950,"Ġcoord":3951,"ategory":3952,"ream":3953,"Ġobjective":3954,"ĠAccess":3955,"Ġnegative":3956,"Ġcommonly":3957,"eli":3958,"Ġded":3959,"Ġdepends":3960,"Ġdamage":3961,"Pro":3962,"PR":3963,"Ġrepresentation":3964,"Ġhighlight":3965,"Ġleading":3966,"ATION":3967,"Ġgreater":3968,"ĠVPN":3969,"Ġsometimes":3970,"Ġregarding":3971,"ided":3972,"Ġmanner":3973,"****":3974,"Ġunderlying":3975,"Ġsort":3976,"Ġcou":3977,"Ġesc":3978,"Ġprobably":3979,"Ġmap":3980,"where":3981,"ypot":3982,"Ġcompl":3983,"Ġpaths":3984,"Ġvehicle":3985,"Ġspecification":3986,"ĠOver":3987,"Ġextreme":3988,"Ġtests":3989,"Ġtempor":3990,"Ġprovider":3991,"onest":3992,"self":3993,"Ġmotiv":3994,"69":3995,"Ġattributes":3996,"ĠQu":3997,"Ġtook":3998,"itude":3999,"Ġdestination":4000,"ior":4001,"Ġfactor":4002,"Ġtracking":4003,"Ġdisk":4004,"itable":4005,"Ġrecently":4006,"Ġedge":4007,"Ġadj":4008,"Ġexchange":4009,"ĠIntel":4010,"Ġeduc":4011,"Ġpointer":4012,"Ġfall":4013,"Ġextension":4014,"pite":4015,"ĠMay":4016,"Ġinsert":4017,"Ġawareness":4018,"Ġforce":4019,"ĠDep":4020,"Ġcorporate":4021,"Ġinteraction":4022,"Ġmind":4023,"Ġexperts":4024,"Ġrecommended":4025,"Ġplug":4026,"OL":4027,"iring":4028,"Ġprove":4029,"Ġrelatively":4030,"mdv":4031,"ene":4032,"fusc":4033,"meas":4034,"process":4035,"ĠOper":4036,"Ġrecognition":4037,"ĠInc":4038,"raft":4039,"Ġsubs":4040,"ĠNIST":4041,"Ġgetting":4042,"ĠManagement":4043,"Ġge":4044,"Ġflag":4045,"Ġexcept":4046,"Ġdou":4047,"Ġscal":4048,"anch":4049,"Ġports":4050,"ĠCor":4051,"ĠJavaScript":4052,"Ġrouting":4053,"list":4054,"leg":4055,"Ġassets":4056,"ĠInter":4057,"ĠiP":4058,"Ġfields":4059,"Ġ24":4060,"brid":4061,"Ġra":4062,"Ġconfidential":4063,"sive":4064,"Ġcarri":4065,"EP":4066,"ĠGu":4067,"pth":4068,"Ġlic":4069,"Ġagre":4070,"Ġmodeling":4071,"dom":4072,"Ġdepending":4073,"mp":4074,"ĠSecond":4075,"Ġchild":4076,"Ġparticularly":4077,"Ġsched":4078,"ĠNext":4079,"Ġincom":4080,"hest":4081,"Ġvectors":4082,"Ġpropag":4083,"ĠBit":4084,"ai":4085,"Ġdebug":4086,"ĠSA":4087,"Ġcamer":4088,"ilitary":4089,"ĠAPT":4090,"source":4091,"Ġcredit":4092,"Ġminimum":4093,"Ġremove":4094,"Ġdetecting":4095,"Ġinvestigation":4096,"Ġblockchain":4097,"come":4098,"ĠMult":4099,"ters":4100,"ĠDoS":4101,"Ġproviders":4102,"ĠST":4103,"oy":4104,"Ġexecutable":4105,"Ġlabels":4106,"spec":4107,"Ġpermission":4108,"Ġupload":4109,"Ġregion":4110,"Ġanti":4111,"ĠDNN":4112,"ĠSD":4113,"Ġmodules":4114,"Ġfingerprint":4115,"Ġsays":4116,"html":4117,"Ġforens":4118,"Ġrandomly":4119,"ederal":4120,"Ġassumption":4121,"Ġcommercial":4122,"fully":4123,"Ġidentification":4124,"Ġhistory":4125,"ĠMS":4126,"land":4127,"mark":4128,"Ġsolve":4129,"Ġcook":4130,"cription":4131,"Ġlisted":4132,"Ġhours":4133,"ĠProtocol":4134,"Ġconducted":4135,"Ġpossibly":4136,"NIST":4137,"Ġefficiency":4138,"Ġrol":4139,"ORY":4140,"lot":4141,"Ġidentifying":4142,"Ġstatement":4143,"Ġsignatures":4144,"ĠCommun":4145,"ali":4146,"style":4147,"map":4148,"Ġdecisions":4149,"chool":4150,"ĠImpact":4151,"Ġnovel":4152,"ĠHence":4153,"db":4154,"Ġbelong":4155,"Ġorigin":4156,"Ġachieved":4157,"Ġfamily":4158,"oice":4159,"ĠExam":4160,"Ġchanging":4161,"UN":4162,"oz":4163,"Ġlaunch":4164,"Ġlocated":4165,"fect":4166,"Ġvary":4167,"Ġshowed":4168,"urer":4169,"ptions":4170,"Ġassist":4171,"Ġmanage":4172,"Ġprofile":4173,"Ġpassed":4174,"Ġenabled":4175,"Ġunit":4176,"Ġ64":4177,"390":4178,"Ġstreng":4179,"Ġbackground":4180,"Ġban":4181,"Ġactors":4182,"otes":4183,"Ġbugs":4184,"Ġcontents":4185,"Ġmass":4186,"Ġfocused":4187,"Ġreasons":4188,"ĠJan":4189,"Ġskills":4190,"Ġreading":4191,"ĠPr":4192,"ĠAlgorith":4193,"Ġanswer":4194,"Ġsix":4195,"Ġdecrypt":4196,"df":4197,"94":4198,"etch":4199,"Ġefforts":4200,"Ġsetup":4201,"ĠCO":4202,"Ġcontained":4203,"Ġcollabor":4204,"Ġhandling":4205,"Ġtiming":4206,"ĠChina":4207,"Ġfuzz":4208,"Ġdirection":4209,"Ġpermissions":4210,"Ġinfluence":4211,"Ġmatch":4212,"HA":4213,"Ġemerg":4214,"Ġcountry":4215,"Ġanything":4216,"Ġbenign":4217,"Ġhalf":4218,"Ġappears":4219,"Ġapprox":4220,"ĠLab":4221,"ĠAv":4222,"ĠPython":4223,"Ġsal":4224,"Ġconfidence":4225,"ĠEd":4226,"Ġtele":4227,"Ġoutputs":4228,"Ġresil":4229,"2014":4230,"Ġoperator":4231,"================================":4232,"uthorized":4233,"Ġsoph":4234,"Ġever":4235,"ĠInternational":4236,"Ġpurch":4237,"Ġimproved":4238,"ery":4239,"Ġproxy":4240,"iately":4241,"Ġinvolves":4242,"ullet":4243,"Re":4244,"ersion":4245,"Ġtested":4246,"Ġexactly":4247,"mon":4248,"Ġcarry":4249,"ĠDirect":4250,"ĠAre":4251,"Ġserious":4252,"hell":4253,"Ġscope":4254,"Ġestablish":4255,"ĠCo":4256,"Ġsegment":4257,"Ġnational":4258,"oted":4259,"Ġoffers":4260,"Ġmut":4261,"Ġmajority":4262,"ĠOct":4263,"Ġexpos":4264,"83":4265,"Ġequal":4266,"ING":4267,"Ġapplying":4268,"Ġdescription":4269,"Ġvendors":4270,"Ġmanager":4271,"ĠEngine":4272,"Ġcand":4273,"access":4274,"Ġperforms":4275,"Ġfirmware":4276,"Ġdistinct":4277,"Ġguess":4278,"ĠNet":4279,"Ġadversaries":4280,"ĠBased":4281,"ĠStep":4282,"ĠIDS":4283,"scribe":4284,"active":4285,"rief":4286,"Ġground":4287,"ĠIs":4288,"width":4289,"Ġselection":4290,"Ġrow":4291,"72":4292,"2017":4293,"ba":4294,"Ġmix":4295,"coin":4296,"unction":4297,"Ġconfigured":4298,"Ġchecking":4299,"Ġexpert":4300,"Ġavailability":4301,"faces":4302,"Ġentities":4303,"Ġstatist":4304,"For":4305,"Ġapplic":4306,"pling":4307,"Ġenterprise":4308,"Ġwrong":4309,"Ġofficial":4310,"Ġpublicly":4311,"ipment":4312,"ading":4313,"atives":4314,"VER":4315,"Ġanalyzed":4316,"Ġcalculated":4317,"05":4318,"BM":4319,"file":4320,"Ġtransmit":4321,"Ġimmediately":4322,"Ġreturns":4323,"mary":4324,"Ġoperational":4325,"ourn":4326,"TION":4327,"ĠConf":4328,"Ġsupports":4329,"call":4330,"bound":4331,"GD":4332,"Ġsto":4333,"Ġtraces":4334,"ruption":4335,"Ġcompli":4336,"iding":4337,"Ġmetric":4338,"Ġtrigg":4339,"ĠDuring":4340,"hood":4341,"Ġmonths":4342,"ncy":4343,"73":4344,"46":4345,"Ġled":4346,"FF":4347,"ĠId":4348,"ppc":4349,"Ġinstallation":4350,"Ġdemand":4351,"Ġcandid":4352,"ĠMark":4353,"src":4354,"Ġclassified":4355,"Ġperspective":4356,"Ġcommunicate":4357,"Ġhelps":4358,"CR":4359,"ĠAND":4360,"free":4361,"Ġdeli":4362,"Ġenforcement":4363,"ĠGiven":4364,"Ġdiscover":4365,"Ġcombined":4366,"Ġdecl":4367,"Ġbeyond":4368,"Ġtoken":4369,"ĠRF":4370,"ĠSEC":4371,"Ġpix":4372,"oo":4373,"Ġlearned":4374,"Ġ%":4375,"Ġextended":4376,"lers":4377,"Ġcontrolled":4378,"Ġindicate":4379,"Ġlanguages":4380,"ĠCIF":4381,"ulating":4382,"Ġtypical":4383,"Ġcertificates":4384,"BS":4385,"Ġcapac":4386,"Ġrank":4387,"Ġrecommends":4388,"Ġmitigation":4389,"Ġschedul":4390,"ĠEX":4391,"Ġlists":4392,"Ġbody":4393,"Ġfunctional":4394,"Ġclassifiers":4395,"ACK":4396,"ĠUpdate":4397,"Ġweek":4398,"VIS":4399,"ĠTechnology":4400,"Ġnotice":4401,"ĠModel":4402,"Ġreverse":4403,"ĠIV":4404,"Ġfit":4405,"It":4406,"ĠSy":4407,"ql":4408,"ĠMarch":4409,"lit":4410,"Ġtrade":4411,"ounced":4412,"ĠAlice":4413,"ĠCIS":4414,"Ġcybercr":4415,"embly":4416,"Ġgoals":4417,"ĠAdditionally":4418,"Ġslight":4419,"âĢĵ":4420,"ĠInstead":4421,"Ġgate":4422,"Ġmapping":4423,"itives":4424,"page":4425,"Ġdro":4426,"Ġmilitary":4427,"Ġestimation":4428,"Ġaddressed":4429,"ĠAlgorithm":4430,"allel":4431,"Ġord":4432,"Ġanalyst":4433,"Ġprocessor":4434,"wide":4435,"Ġdeployment":4436,"ying":4437,"ye":4438,"Ġoperators":4439,"ĠMed":4440,"ades":4441,"lict":4442,"Ġfindings":4443,"icity":4444,"ĠDepartment":4445,"Ġlever":4446,"Ġestimate":4447,"ĠBack":4448,"HP":4449,"Ġ40":4450,"Ġrights":4451,"89":4452,"Ġdemonstrated":4453,"Ġcapable":4454,"Ġtrend":4455,"Ġfront":4456,"Ġmember":4457,"Ġoccurs":4458,"Ġrepresented":4459,"Ġconsidering":4460,"ĠEC":4461,"Ġemployee":4462,"ABLE":4463,"ĠIII":4464,"ĠWi":4465,"Ġleads":4466,"Ġconclud":4467,"ĠADVIS":4468,"order":4469,"Ġanomaly":4470,"elines":4471,"OD":4472,"Ġaccurate":4473,"ha":4474,"ĠSym":4475,"Ġimportance":4476,"IR":4477,"Ġdetermined":4478,"ĠOut":4479,"AG":4480,"Ġland":4481,"Ġincidents":4482,"Ġpowerful":4483,"which":4484,"ĠAb":4485,"Ġmedical":4486,"Ġmitigate":4487,"Ġincorrect":4488,"Ġworth":4489,"ĠADVISORY":4490,"Ġgames":4491,"isation":4492,"Ġprecise":4493,"Ġinterp":4494,"Ġgenerating":4495,"ĠApr":4496,"Ġgets":4497,"ox":4498,"Ġconcerns":4499,"Ġhence":4500,"Ġgather":4501,"Ġpreser":4502,"Ġinn":4503,"ĠMAC":4504,"Ġbar":4505,"Ġdifferences":4506,"istrib":4507,"ĠDescription":4508,"ĠMac":4509,"Ġteams":4510,"Ġspecify":4511,"Ġfeedback":4512,"Ġattacking":4513,"Ġgrant":4514,"Ġindustrial":4515,"Ġvehicles":4516,"Ġ{\\":4517,"Ġdefensive":4518,"Ġhonest":4519,"umer":4520,"Ġpict":4521,"isticated":4522,"Ġfair":4523,"Ġstructures":4524,"omen":4525,"Ġaccessible":4526,"Ġsemantics":4527,"Ġstudents":4528,"Ġaccessed":4529,"ĠLog":4530,"Ġseems":4531,"Ġiniti":4532,"Ġ2007":4533,"Ġevaluated":4534,"ĠCIFAR":4535,"Ġwhereas":4536,"Ġcategory":4537,"Ġobvious":4538,"Ġremoved":4539,"enu":4540,"ĠUnder":4541,"Ġobfusc":4542,"ĠSpecifically":4543,"isk":4544,"ĠAug":4545,"attack":4546,"data":4547,"ĠAV":4548,"Ġscanning":4549,"Ġreporting":4550,"Ġmatter":4551,"uge":4552,"Ġcompre":4553,"achine":4554,"Ġstaff":4555,"Fi":4556,"Ġforms":4557,"Ġasked":4558,"ung":4559,"Ġeverything":4560,"Ġthought":4561,"Ġpresents":4562,"Ġcountermeas":4563,"Ġdang":4564,"Ġcorrelation":4565,"Ġstudied":4566,"Ġmanually":4567,"ring":4568,"Ġfeel":4569,"osed":4570,"Ġbeginning":4571,"Ġadvisory":4572,"poss":4573,"Ġdeveloping":4574,"Ġintegrated":4575,"Ġitems":4576,"Ġpayment":4577,"ĠMin":4578,"Ġminutes":4579,"Ġren":4580,"ĠProcess":4581,"Ġrouter":4582,"Ġformer":4583,"BI":4584,"UI":4585,"Ġdesired":4586,"Ġprep":4587,"ĠOctober":4588,"Ġsigned":4589,"Ġvolume":4590,"2015":4591,"2019":4592,"TC":4593,"Ex":4594,"Ġoperate":4595,"Ġimplementations":4596,"abling":4597,"Ġbecame":4598,"ening":4599,"ĠCan":4600,"Ġbring":4601,"ĠPo":4602,"Ġdiscussion":4603,"Ġproduction":4604,"Ġlibraries":4605,"ĠCloud":4606,"ĠEm":4607,"Ġbranch":4608,"Ġcame":4609,"Ġattribute":4610,"ĠCenter":4611,"2016":4612,"Ġflows":4613,"Ġattacked":4614,"Ġproduced":4615,"------------":4616,"Ġadministrator":4617,"defined":4618,"2018":4619,"ĠCR":4620,"Ġign":4621,"ĠCW":4622,"ĠTest":4623,"Ġcreates":4624,"Ġpoisoning":4625,"Ġthous":4626,"TL":4627,"uff":4628,"Ġrecover":4629,"Ġrat":4630,"Ġbenefit":4631,"Ġbandwidth":4632,"Ġcolumn":4633,"Ġbehaviour":4634,"Ġbrief":4635,"Ġpoly":4636,"alid":4637,"Ġresponses":4638,"EL":4639,"06":4640,"la":4641,"2013":4642,"Ġfacilit":4643,"ĠProgram":4644,"Ġnet":4645,"Ġreflect":4646,"Ġnoted":4647,"display":4648,"ured":4649,"Ġargument":4650,"Ġequivalent":4651,"apid":4652,"pace":4653,"ĠUser":4654,"Ġexplore":4655,"reens":4656,"PC":4657,"Ġruntime":4658,"Ġhighest":4659,"Ġalternative":4660,"Ġowner":4661,"Ġanyone":4662,"ĠLoc":4663,"Ġentries":4664,"Ġreceiver":4665,"ĠApril":4666,"Ġunauthorized":4667,"Ġrecovery":4668,"Ġsell":4669,"Ġsynchron":4670,"Ġextra":4671,"Ġremains":4672,"cf":4673,"ĠPack":4674,"ulator":4675,"Ġinsight":4676,"Ġclosed":4677,"Ġcoordin":4678,"ĠCol":4679,"chang":4680,"Ġinvolve":4681,"Ġfrequently":4682,"gi":4683,"Ġanalyzing":4684,"Ġflex":4685,"vision":4686,"Ġentity":4687,"Ġformul":4688,"Ġseconds":4689,"ooth":4690,"Ġsophisticated":4691,"Ġfaster":4692,"pat":4693,"Ġkeeping":4694,"ĠPower":4695,"Ġcenter":4696,"Ġprojects":4697,"ournal":4698,"ĠSever":4699,"ĠSet":4700,"Ġconvers":4701,"emic":4702,"Ġexception":4703,"Ġroom":4704,"Ġtransition":4705,"veloper":4706,"Ġlaws":4707,"ĠDefense":4708,"ĠSSL":4709,"Ġequipment":4710,"Ġconcepts":4711,"56":4712,"Ġrequirement":4713,"ĠMon":4714,"ĠEv":4715,"such":4716,"Ġcontinuous":4717,"Ġtargeting":4718,"ĠJanuary":4719,"Ġnor":4720,"Ġdescribes":4721,"endix":4722,"Ġprincip":4723,"Ġparallel":4724,"position":4725,"Ġredirect":4726,"olen":4727,"ĠCybersecurity":4728,"Ġgraphs":4729,"Ġfine":4730,"enced":4731,"Ġscripts":4732,"site":4733,"97":4734,"Ġtax":4735,"Ġcomprehen":4736,"Ġcriter":4737,"Ġaccom":4738,"Ġthroughout":4739,"686":4740,"control":4741,"arge":4742,"Ġmethodology":4743,"conn":4744,"ĠVirtual":4745,"Ġ00":4746,"ĠJuly":4747,"Ġassumptions":4748,"host":4749,"aut":4750,"ĠReport":4751,"Ġbench":4752,"ĠAnalysis":4753,"43":4754,"ĠKey":4755,"server":4756,"ĠJune":4757,"Ġstatistical":4758,"08":4759,"Ġbegan":4760,"udget":4761,"EG":4762,"Ġcircuit":4763,"Ġstated":4764,"ĠGroup":4765,"Ġarray":4766,"Ġfundam":4767,"Ġupp":4768,"Ġstrings":4769,"ĠSept":4770,"ĠThreat":4771,"ropy":4772,"with":4773,"entional":4774,"astic":4775,"kit":4776,"ĠJoh":4777,"equ":4778,"Ġblog":4779,"Ġmar":4780,"CERT":4781,"Ġtrick":4782,"Ġcauses":4783,"Ġtend":4784,"ĠSecure":4785,"wo":4786,"Ġmom":4787,"fortun":4788,"Ġrev":4789,"Ġmeasured":4790,"Ġsupply":4791,"Ġcoverage":4792,"Ġscience":4793,"Ġscient":4794,"Ġtransport":4795,"bin":4796,"ĠBefore":4797,"Ġbenefits":4798,"ĠAdvers":4799,"Ġissued":4800,"fix":4801,"pe":4802,"Ġlaunched":4803,"Ġstarts":4804,"Ġautonom":4805,"ĠOR":4806,"Ġperfect":4807,"ĠMy":4808,"ĠAdvisory":4809,"igned":4810,"istent":4811,"Ġsubset":4812,"Ġfeas":4813,"eler":4814,"Ġsummar":4815,"ĠOf":4816,"Ġinterested":4817,"Ġarchitectures":4818,"Ġannounced":4819,"Ġguarantee":4820,"gov":4821,"AAAA":4822,"Ġstores":4823,"Ġreduced":4824,"Ġstory":4825,"Ġphys":4826,"Ġsector":4827,"Ġexplained":4828,"ev":4829,"Ġonto":4830,"ĠDeep":4831,"Tr":4832,"Ġbusinesses":4833,"ĠBoth":4834,"ĠHack":4835,"ierarch":4836,"Ġbehaviors":4837,"ĠAny":4838,"02":4839,"Ġlive":4840,"Ġevol":4841,"ĠCode":4842,"Ġmanual":4843,"Ġelimin":4844,"Ġtermin":4845,"Ġinstant":4846,"Ġenhance":4847,"ats":4848,"elt":4849,"Ġvalu":4850,"Ġrelation":4851,"Ġyield":4852,"BC":4853,"asion":4854,"atter":4855,"ĠLear":4856,"Ġsituations":4857,"Ġdatabases":4858,"Ġjump":4859,"54":4860,"Ġsender":4861,"---":4862,"ceedings":4863,"Ġult":4864,"hesis":4865,"53":4866,"TR":4867,"usiness":4868,"Ġdiver":4869,"oting":4870,"Ġconfir":4871,"Ġjo":4872,"GSM":4873,"ultane":4874,"fe":4875,"ĠCar":4876,"MI":4877,"ĠIdent":4878,"UC":4879,"mers":4880,"Ġtreat":4881,"Ġupgrade":4882,"Ġmanaged":4883,"afe":4884,"Ġstolen":4885,"ĠElect":4886,"Ġcircum":4887,"metric":4888,"ĠSeptember":4889,"LO":4890,"ony":4891,"Ġplaced":4892,"Ġemployed":4893,"Ġmainly":4894,"fr":4895,"Ġcapacity":4896,"####":4897,"ĠAugust":4898,"ops":4899,"Ġinsp":4900,"Ġexecuting":4901,"Ġsubsequent":4902,"emble":4903,"Ġinvestigate":4904,"Ġsplit":4905,"apers":4906,"Ġnothing":4907,"arial":4908,"displaystyle":4909,"Ġderived":4910,"ls":4911,"Ġelectronic":4912,"Ġsoon":4913,"Ġsurface":4914,"hemat":4915,"Ġminimize":4916,"Ġextracted":4917,"fil":4918,"ĠCal":4919,"ĠRSA":4920,"Ġextremely":4921,"undred":4922,"Ġloaded":4923,"haps":4924,"Ġowners":4925,"Ġdece":4926,"lim":4927,"going":4928,"py":4929,"Ġobservation":4930,"Ġsqu":4931,"body":4932,"Ġsecre":4933,"Ġbyte":4934,"Ġtold":4935,"ĠWorld":4936,"Ġprogress":4937,"Ġleave":4938,"ĠMc":4939,"Ġuncert":4940,"ĠTrojan":4941,"Ġrelative":4942,"Ġbin":4943,"ĠDig":4944,"Ġcreation":4945,"Ġremaining":4946,"ĠTheore":4947,"71":4948,"Ġscreens":4949,"ason":4950,"Ġgenerates":4951,"UD":4952,"Ġreturned":4953,"Ġsections":4954,"tom":4955,"RF":4956,"Ġquantum":4957,"Ġlimitations":4958,"ĠArea":4959,"Ġconflict":4960,"product":4961,"ĠImage":4962,"ĠWhere":4963,"Ġsw":4964,"open":4965,"urs":4966,"Ġinstit":4967,"Ġâ":4968,"ĠMulti":4969,"ĠBu":4970,"Ġexplain":4971,"my":4972,"Ġcodes":4973,"UL":4974,"Ġwater":4975,"Ġweakness":4976,"PA":4977,"Ġinterpret":4978,"ĠNetworks":4979,"Ġcomputed":4980,"Ġbudget":4981,"Ġrecip":4982,"Ġsuitable":4983,"ĠSimilarly":4984,"Ġreferred":4985,"Ġlargest":4986,"Ġcorrupt":4987,"xx":4988,"fortunately":4989,"Ġheav":4990,"Ġprivilege":4991,"Ġlatter":4992,"ĠCrypt":4993,"seud":4994,"Ġtun":4995,"Ġnotion":4996,"Ġlik":4997,"De":4998,"Ġleverage":4999,"%)":5000,"Ġattach":5001,"ĠEuropean":5002,"bre":5003,"Ġdistinguish":5004,"ivered":5005,"Ġpossibility":5006,"cor":5007,"ĠDES":5008,"ancy":5009,"ĠConference":5010,"Ġbackup":5011,"Ġupper":5012,"Ġ]":5013,"Ġreceiving":5014,"ĠMNIST":5015,"Ġexperi":5016,"Ġir":5017,"Ġgoes":5018,"Ġoffice":5019,"Ġcompliance":5020,"Ġpip":5021,"ozilla":5022,"Ġ21":5023,"Ġcult":5024,"Ġrelies":5025,"Ġinterfaces":5026,"Ġinteractions":5027,"Ġhit":5028,"Ġclearly":5029,"Ġspoofing":5030,"87":5031,"Ġgenerator":5032,"ecure":5033,"ĠCustomer":5034,"Ġreceives":5035,"Ġscores":5036,"Ġlooks":5037,"Ġpick":5038,"Ġsimultane":5039,"Ġshowing":5040,"Ġbreaches":5041,"51":5042,"Ġconsistent":5043,"oder":5044,"ĠOffice":5045,"ĠFile":5046,"ĠStand":5047,"93":5048,"Ġspect":5049,"ĠExploit":5050,"Ġdimension":5051,"service":5052,"ĠDue":5053,"ĠAR":5054,"Ġedges":5055,"Ġhypot":5056,"Ġreconstruct":5057,"ĠTLS":5058,"Ġprompt":5059,"Ġpiece":5060,"devel":5061,"Ġrapid":5062,"Ġdivid":5063,"Ġdetector":5064,"Ġencour":5065,"Ġstrength":5066,"Ġbrowsers":5067,"Ġhundred":5068,"lig":5069,"ĠBlack":5070,"iform":5071,"ĠAdv":5072,"Ġexerc":5073,"Ġunits":5074,"ĠDr":5075,"ny":5076,"Ġparent":5077,"ITY":5078,"Ġinternational":5079,"Ġassumed":5080,"ĠOrgan":5081,"2010":5082,"Ġdelivered":5083,"Ġbaseline":5084,"Ġlost":5085,"Ġpartition":5086,"Ġslightly":5087,"inst":5088,"gy":5089,"Ġdeveloper":5090,"Ġagencies":5091,"Ġrevealed":5092,"acement":5093,"ĠSch":5094,"hot":5095,"CE":5096,"Ġdisclosure":5097,"luding":5098,"ĠIndust":5099,"2020":5100,"specific":5101,"Ġchoos":5102,"Ġharm":5103,"Ġcontracts":5104,"Us":5105,"attacks":5106,"42":5107,"Ġlogical":5108,"Ġexperimental":5109,"ĠPrivacy":5110,"Ġsuspicious":5111,"Ġur":5112,"Ġmoving":5113,"Ġexposed":5114,"Ġinfer":5115,"aily":5116,"FS":5117,"Ġremotely":5118,"Ġhybrid":5119,"81":5120,"possible":5121,"Ġunivers":5122,"Ġmanufacturer":5123,"Ġvariants":5124,"Ġtransformation":5125,"norm":5126,"Ġworked":5127,"ĠDefin":5128,"2011":5129,"bu":5130,"Ġabstract":5131,"Ġwarning":5132,"requ":5133,"Ġconsumption":5134,"Ġknows":5135,"ĠPar":5136,"ĠDetection":5137,"Ġsteal":5138,"Cl":5139,"ĠCNN":5140,"adow":5141,"Ġtact":5142,"Ġconstruction":5143,"',":5144,"Ġcolor":5145,"ĠSource":5146,"Ġche":5147,"Ġeth":5148,"Ġschool":5149,"Ġmill":5150,"exp":5151,"Ġappe":5152,"ĠGerm":5153,"Ġconfigurations":5154,"Ġplanning":5155,"ĠApplication":5156,"ĠDecember":5157,"Ġflaws":5158,"Ġintercept":5159,"ĠProduct":5160,"Ġhappens":5161,"mal":5162,"ca":5163,"sub":5164,"Ġshall":5165,"Ġlinked":5166,"dll":5167,"Ġrang":5168,"03":5169,"Ġnearly":5170,"Ġbotnet":5171,"Ġaims":5172,"Ġuntr":5173,"Ġfiltering":5174,"Ġrepeated":5175,"ĠDLL":5176,"tics":5177,"Ġcards":5178,"Ġexpand":5179,"Ġeventually":5180,"ĠSol":5181,"ĠUN":5182,"Ġdeliver":5183,"Ġid":5184,"Ġnetworking":5185,"Ġmining":5186,"Ġreliable":5187,"Ġvoice":5188,"ĠServices":5189,"92":5190,"ĠPe":5191,"Ġbroadcast":5192,"avig":5193,"Ġprice":5194,"Ġmatching":5195,"mber":5196,"Ġclock":5197,"ĠSY":5198,"cknow":5199,"Ġusername":5200,"Ġkinds":5201,"Ġcut":5202,"herent":5203,"bruary":5204,"Ġwon":5205,"ĠMachine":5206,"Ġmer":5207,"ĠPRO":5208,"Ġradio":5209,"ocial":5210,"ĠCommon":5211,"Ġunlike":5212,"care":5213,"Ġdownloaded":5214,"Ġholds":5215,"ipped":5216,"Ġlatency":5217,"ĠUse":5218,"icks":5219,"Ġexplicitly":5220,"Ġexploiting":5221,"Ġadvisories":5222,"rec":5223,"Ġ22":5224,"ĠAmerican":5225,"ĠCA":5226,"ĠOF":5227,"ĠSeveral":5228,"Ġestimated":5229,"58":5230,"outh":5231,"ĠPort":5232,"ĠKali":5233,"ender":5234,"ADA":5235,"ĠWar":5236,"Ġhierarch":5237,"Ġcomprehensive":5238,"vest":5239,"Ġmissing":5240,"jection":5241,"Ġserve":5242,"Ġfill":5243,"Ġcooper":5244,"imal":5245,"Ġconfirm":5246,"Ġdiscovery":5247,"Ġreduction":5248,"ovember":5249,"oph":5250,"urrency":5251,"ificial":5252,"Ġturned":5253,"Ġbutton":5254,"Ġtwe":5255,"ĠVersion":5256,"ĠUp":5257,"2012":5258,"eter":5259,"ĠEqu":5260,"aintext":5261,"UR":5262,"Ġcarried":5263,"Ġtit":5264,"ĠFirefox":5265,"Ġconstraint":5266,"dit":5267,"ĠShe":5268,"Ġsave":5269,"Ġten":5270,"Ġintegration":5271,"SN":5272,"Ġrefers":5273,"Ġstatistics":5274,"user":5275,"rate":5276,"Ġgiving":5277,"ounce":5278,"Ġratio":5279,"Ġguarantees":5280,"illance":5281,"ĠUSB":5282,"Ġreput":5283,"ĠProceedings":5284,"Ġ2000":5285,"Ġsequences":5286,"Ġempir":5287,"ollow":5288,"Ġterr":5289,"power":5290,"azon":5291,"rer":5292,"Ġattached":5293,"91":5294,"Ġpropos":5295,"Ġdedicated":5296,"Ġchance":5297,"Ġimpossible":5298,"ĠMIT":5299,"ĠAuthent":5300,"Ġobservations":5301,"ĠAttacks":5302,"Ġpopulation":5303,"Ġreliability":5304,"umb":5305,"Ġcausing":5306,"ĠVer":5307,"IX":5308,"Ġanomal":5309,"Ġtheft":5310,"Ġil":5311,"da":5312,"Ġbillion":5313,"Ġnecessarily":5314,"ĠAnt":5315,"ĠMe":5316,"Ġsemantic":5317,"Ġconcern":5318,"Ġnumerous":5319,"47":5320,"Ġcaptured":5321,"itative":5322,"ĠNovember":5323,"Ġvaluable":5324,"Ġattract":5325,"plete":5326,"Ġfinite":5327,"Ġexistence":5328,"ĠCD":5329,"Ġ26":5330,"Ġvariant":5331,"ĠTheorem":5332,"Ġprofessionals":5333,"inese":5334,"Ġ23":5335,"Ġpseud":5336,"Ġexposure":5337,"Ġgeneric":5338,"ĠDat":5339,"Ġcompat":5340,"Ġrelationships":5341,"ĠBl":5342,"Ġimplementing":5343,"Ġsaw":5344,"Ġresist":5345,"ferent":5346,"Ġmostly":5347,"Ġdynamics":5348,"Ġfailed":5349,"ĠClass":5350,"Ġbur":5351,"ĠJust":5352,"Ġdiss":5353,"Ġmac":5354,"write":5355,"cs":5356,"Ġarguments":5357,"Ġprefer":5358,"Ġhij":5359,"Ġdesktop":5360,"Ġadopted":5361,"Ġhuge":5362,"ley":5363,"ĠBo":5364,"Ġinteger":5365,"Ġapplicable":5366,"Ġfav":5367,"Ġaudit":5368,"Ġ2006":5369,"pper":5370,"Ġeconomic":5371,"Ġsimilarity":5372,"ensity":5373,"Ġrecognize":5374,"omb":5375,"Ġcoming":5376,"ivirus":5377,"vulner":5378,"agram":5379,"ĠAppendix":5380,"physical":5381,"ĠEnc":5382,"term":5383,"tp":5384,"Al":5385,"ailable":5386,"Ġplayers":5387,"esides":5388,"Ġmaster":5389,"ĠFebruary":5390,"Ġchallenging":5391,"Ġbind":5392,"Ġdouble":5393,"Ġmathemat":5394,"Ġdelivery":5395,"visor":5396,"Ġstra":5397,"Ġexamine":5398,"%.":5399,"Ġleakage":5400,"ann":5401,"aspers":5402,"ĠLearning":5403,"ĠBitcoin":5404,"ĠNorth":5405,"Ch":5406,"Ġscam":5407,"Ġkill":5408,"ĠScience":5409,"ĠDen":5410,"istration":5411,"ĠSmart":5412,"aspersky":5413,"Ġvalidate":5414,"Ġfirewalls":5415,"Ġcamera":5416,"words":5417,"Ġnamely":5418,"ingly":5419,"Ġencl":5420,"pled":5421,"Ġcrime":5422,"ishes":5423,"ĠUb":5424,"overn":5425,"Ġplant":5426,"Figure":5427,"Ġterminal":5428,"ĠGe":5429,"Ġscr":5430,"fered":5431,"den":5432,"SC":5433,"Ġdoesn":5434,"Ġconsumer":5435,"ĠChinese":5436,"Ġprotot":5437,"Ġextend":5438,"Ġroute":5439,"aming":5440,"lied":5441,"Ġlooked":5442,"________________________________":5443,"Ġcycle":5444,"gener":5445,"Ġfool":5446,"noarch":5447,"ĠAdversarial":5448,"67":5449,"Ġmission":5450,"ĠInit":5451,"Ġstraight":5452,"ĠEngineering":5453,"ĠXML":5454,"Ġsan":5455,"Ġadministrators":5456,"41":5457,"Ġtravel":5458,"Ġconcl":5459,"Ġbrute":5460,"Ġthousands":5461,"scale":5462,"Ġdiv":5463,"Ġhom":5464,"olicy":5465,".;":5466,"Ġprofessional":5467,"Ġintermed":5468,"Ġaccessing":5469,"Ġconsumers":5470,"Ġpool":5471,"49":5472,"Ġfriends":5473,"Ġpolitical":5474,"Ġsuggested":5475,"ĠExec":5476,"Ġinnov":5477,"Ġdecide":5478,"umber":5479,"2009":5480,"ĠRequ":5481,"Ġconfidentiality":5482,"Ġdistributions":5483,"sole":5484,"Ġtopic":5485,"Ġincorpor":5486,"ĠIBM":5487,"Ġtopology":5488,"bb":5489,"Ġpen":5490,"Ġstation":5491,"Ġalerts":5492,"ĠState":5493,"Ġsuggests":5494,"ae":5495,"52":5496,"Ġcryptography":5497,"ury":5498,"ĠBay":5499,"ometric":5500,"Ġworst":5501,"doc":5502,"ĠInf":5503,"Ġdial":5504,"Ġresilience":5505,"Ġ}":5506,"Ġcalling":5507,"168":5508,"Ġprotecting":5509,"MA":5510,"SI":5511,"Ġer":5512,"onent":5513,"Ġauthorization":5514,"cat":5515,"essions":5516,"Ġrobot":5517,"ĠJohn":5518,"Ġpairs":5519,"Ġdescript":5520,"Ġdoor":5521,"Ġinfection":5522,"Ġfails":5523,"VID":5524,"awn":5525,"ECT":5526,"Ġminimal":5527,"Ġaudio":5528,"EO":5529,"Ġep":5530,"Ġtempl":5531,"Ġbuy":5532,"asploit":5533,"Ġtables":5534,"Ġencoding":5535,"Ġmask":5536,"Ġwalk":5537,"Ġmov":5538,"unk":5539,"Ġdisrupt":5540,"Ġrouters":5541,"adget":5542,"iced":5543,"Ġinterpre":5544,"Ġdecided":5545,"Ġcalculate":5546,"fl":5547,"itiz":5548,"Ġstay":5549,"Ġreducing":5550,"Ġhar":5551,"agn":5552,"tenance":5553,"Ġgrowth":5554,"Ġstatements":5555,"bian":5556,"Ġinstr":5557,"ĠCT":5558,"Ġpercentage":5559,"Ġplaintext":5560,"ĠON":5561,"HT":5562,"%,":5563,"Ġ60":5564,"Ġwin":5565,"Ġfundamental":5566,"Ġtransmitted":5567,"ĠStat":5568,"Ġheld":5569,"system":5570,"Ser":5571,"Ġverified":5572,"Ġdefines":5573,"Ġvolt":5574,"osp":5575,"Ġfrag":5576,"ĠTime":5577,"Ġregisters":5578,"packet":5579,"Ġendpoint":5580,"iet":5581,"stream":5582,"82":5583,"argeted":5584,"Ġinterval":5585,"hel":5586,"iliar":5587,"ĠPDF":5588,"Ġseek":5589,"ĠFore":5590,"ĠUK":5591,"Ġuncertaint":5592,"ĠTeam":5593,"fs":5594,"Ġcovered":5595,"Ġevolution":5596,"ĠHigh":5597,"ĠListing":5598,"Ġinterview":5599,"Ġplans":5600,"Ġconsequences":5601,"opy":5602,"linear":5603,"Ġilleg":5604,"ĠResp":5605,"ĠLevel":5606,"Ġwanted":5607,"Ġescal":5608,"ĠSign":5609,"07":5610,"Ġcompiler":5611,"ĠAmazon":5612,"Ġreleases":5613,"Ġdefinitions":5614,"Ġexpensive":5615,"Ġweights":5616,"Ġrepos":5617,"Ġstealth":5618,"Ġsymbolic":5619,"Ġoffered":5620,"ĠIntelligence":5621,"Ġideal":5622,"ĠMem":5623,"uration":5624,"Ġ\\":5625,"Ġextent":5626,"ĠCF":5627,"Ġclicking":5628,"Ġfinally":5629,"ze":5630,"Ġpoor":5631,"Ġimprovement":5632,"look":5633,"ses":5634,"ĠSn":5635,"Ġmist":5636,"Ġacceler":5637,"Ġintent":5638,"Ġpaid":5639,"Ġincreasingly":5640,"Ġimm":5641,"Ġindirect":5642,"Ġspeak":5643,"Ġlabeled":5644,"vere":5645,"Ġroad":5646,"perform":5647,"Ġlapt":5648,"bil":5649,"Ġrealistic":5650,"Ġnumer":5651,"icating":5652,"Ġbounds":5653,"Ġgre":5654,"Ġcriteria":5655,"ĠPat":5656,"Ġmount":5657,"Ġautonomous":5658,"ror":5659,"Ġsizes":5660,"Ġmoment":5661,"Ġstable":5662,"Ġinterrupt":5663,"uitive":5664,"under":5665,"TER":5666,"Ġage":5667,"Ġensures":5668,"Ġacknow":5669,"Ġsampling":5670,"Ġhide":5671,"ĠAp":5672,"ĠCert":5673,"Ġutilize":5674,"Ġmembership":5675,"ĠPHP":5676,"etary":5677,"Ġhumans":5678,"Ġideas":5679,"Ġstrict":5680,"Ġboard":5681,"ĠUbuntu":5682,"Ġqual":5683,"ĠUnfortunately":5684,"ĠFound":5685,"Ġwent":5686,"ĠDistrib":5687,"ĠPGP":5688,"su":5689,"Ġconnectivity":5690,"Ġalle":5691,"Ġprimarily":5692,"Ġreplace":5693,"Ġoverview":5694,"Ġcrack":5695,"usions":5696,"Ġrating":5697,"ĠSIG":5698,"Ġmagn":5699,"ĠPass":5700,"If":5701,"Ġimplies":5702,"URE":5703,"62":5704,"Ġmanipulate":5705,"Ġtemper":5706,"To":5707,"Ġmodification":5708,"ĠCre":5709,"Ġopportunity":5710,"ĠManager":5711,"station":5712,"Ġunless":5713,"Ġroles":5714,"ĠExplo":5715,"ĠiOS":5716,"Ġeveryone":5717,"Ġgrowing":5718,"ĠiPh":5719,"ĠInstitute":5720,"Ġcat":5721,"Ġprecision":5722,"rum":5723,"Ġpicture":5724,"uting":5725,"Ġopened":5726,"Ġeducation":5727,"ĠProject":5728,"Ġsav":5729,"icates":5730,"iem":5731,"Ġaccompl":5732,"cp":5733,"Ġjoint":5734,"ĠExt":5735,"Ġwat":5736,"Ġ27":5737,"ĠPublic":5738,"ids":5739,"Ġpartial":5740,"Ġapproxim":5741,"ĠRussian":5742,"ĠYork":5743,"Ġsurveillance":5744,"Ġ28":5745,"Ġcampaigns":5746,"An":5747,"Ġreduces":5748,"augh":5749,"ancing":5750,"Ġobjectives":5751,"Ġtokens":5752,"Ġreasonable":5753,"Ġfoot":5754,"ief":5755,"auss":5756,"ĠAc":5757,"ĠMalware":5758,"Ġhot":5759,"09":5760,"inations":5761,"omial":5762,"Ġpredictions":5763,"Ġnormally":5764,"Ġmiddle":5765,"Ġclust":5766,"ĠHy":5767,"ĠTwo":5768,"Ġcriminals":5769,"Ġ;":5770,"ĠAPIs":5771,"Ġreplaced":5772,"Ġsuc":5773,"ĠGeneral":5774,"Ġiteration":5775,"Ġdocumentation":5776,"ĠAutom":5777,"Ġdepict":5778,"Ġseverity":5779,"Ġauthority":5780,"ĠSte":5781,"Ġintrud":5782,"2008":5783,"only":5784,"ran":5785,"Ġrestricted":5786,"gle":5787,"lab":5788,"App":5789,"emon":5790,"Ġboundary":5791,"Ġauthenticated":5792,"Ġautomatic":5793,"itic":5794,"Ġautomation":5795,"ĠGN":5796,"ĠMD":5797,"Ġraw":5798,"ĠPaul":5799,"Ġfailures":5800,"Ġextensions":5801,"Ġlate":5802,"Ġspecially":5803,"linux":5804,"Ġprinciple":5805,"Ġbrok":5806,"rome":5807,"ube":5808,"Ġreached":5809,"phas":5810,"Ġforensic":5811,"Ġregistry":5812,"Ġnavig":5813,"Ġdriving":5814,"Ġprinciples":5815,"Ġcountermeasures":5816,"Ġrare":5817,"edia":5818,"Ġrestrictions":5819,"Ġuntrusted":5820,"Ġpapers":5821,"FT":5822,"ĠFree":5823,"Ġapproximately":5824,"ĠDevelop":5825,"Ġclaims":5826,"Ġprofiles":5827,"Ġregions":5828,"Ġwants":5829,"ĠSSH":5830,"ĠUAV":5831,"Ġreward":5832,"Ġcity":5833,"ĠProtection":5834,"cisco":5835,"Ġleaders":5836,"resh":5837,"elligent":5838,"Ġfocuses":5839,"ifferent":5840,"ĠInte":5841,"Ġadjust":5842,"ĠCore":5843,"Ġuniform":5844,"ĠAust":5845,"Ġaccepted":5846,"ĠEvery":5847,"acc":5848,"Ġms":5849,"Ġmeant":5850,"rote":5851,"Ġrecorded":5852,"Ġplayer":5853,"iminals":5854,"Ġshellcode":5855,"Ġanalys":5856,"ĠLike":5857,"Ġsucceed":5858,"Ġsummary":5859,"Ġalone":5860,"Ġincoming":5861,"Ġprocessed":5862,"Ġrequiring":5863,"Ġmultipl":5864,"Ġsimultaneously":5865,"Ġ90":5866,"ife":5867,"ĠMobile":5868,"Ġsubstant":5869,"Ġtheoretical":5870,"ĠStrateg":5871,"57":5872,"ĠFBI":5873,"Ġenfor":5874,"Ġindepend":5875,"Ġlayout":5876,"sy":5877,"inite":5878,"Ġalter":5879,"ictionary":5880,"Ġinvalid":5881,"ĠNon":5882,"unch":5883,"ensor":5884,"ioned":5885,"ĠUsers":5886,"Ġheap":5887,"using":5888,"duc":5889,"DK":5890,"itory":5891,"det":5892,"Ġciphertext":5893,"step":5894,"ĠXSS":5895,"Ġshut":5896,"Ġjud":5897,"osystem":5898,"ĠBusiness":5899,"âĢ¦":5900,"Ġhol":5901,"ulletin":5902,"Ġstri":5903,"Ġcruc":5904,"Ġconsult":5905,"Ġseed":5906,"Ġbill":5907,"Ġanonymous":5908,"au":5909,"anning":5910,"ĠMess":5911,"grade":5912,"Ġvisible":5913,"Ġactivation":5914,"Ġ2003":5915,"ENT":5916,"ĠPost":5917,"Ġoffline":5918,"Ġreader":5919,"63":5920,"Ġexpression":5921,"Ġfederal":5922,"ĠSocial":5923,"asc":5924,"amework":5925,"ĠExper":5926,"Ġpartners":5927,"Ġapplies":5928,"Ġauthorized":5929,"ĠCISA":5930,"forward":5931,"Ġoffset":5932,"Ġprincipal":5933,"Ġcovert":5934,"Ġnation":5935,"Ġpush":5936,"Ġcreat":5937,"Ġpositives":5938,"amb":5939,"There":5940,"Ġtransl":5941,"Ġefficiently":5942,"DB":5943,"channel":5944,"ĠStud":5945,"Ġstake":5946,"ĠAir":5947,"Ġentropy":5948,"lish":5949,"Ġcandidate":5950,"Ġasset":5951,"ĠBas":5952,"Ġdenote":5953,"etc":5954,"Ġwatch":5955,"Ġlogging":5956,"Ġadds":5957,"comp":5958,"UX":5959,"Ġtopics":5960,"Ġidentical":5961,"Ġsessions":5962,"ĠMat":5963,"aded":5964,"ĠPLC":5965,"ĠRob":5966,"priv":5967,"test":5968,"link":5969,"feren":5970,"Ġtried":5971,"PS":5972,"ceptible":5973,"max":5974,"ĠMetasploit":5975,"ĠIPv":5976,"ĠWord":5977,"Ġhor":5978,"Ġpul":5979,"Ġgl":5980,"ellow":5981,"Ġdivided":5982,"61":5983,"CH":5984,"Ġdecom":5985,"option":5986,"core":5987,"Ġdependent":5988,"ĠTre":5989,"Ġenabling":5990,"bs":5991,"ĠLast":5992,"Ġvisit":5993,"ĠPlease":5994,"ographic":5995,"Ġcorresponds":5996,"uction":5997,"Ġtab":5998,"Ġjava":5999,"Ġfilters":6000,"Ġactu":6001,"Ġiterations":6002,"Ġmaintenance":6003,"isc":6004,"ĠPGD":6005,"Ġguest":6006,"oms":6007,"ĠDigital":6008,"Ġsock":6009,"elihood":6010,"Ad":6011,"uk":6012,"Ġindeed":6013,"ĠYour":6014,"Ġantivirus":6015,"PM":6016,"Ġelectric":6017,"Ġpriority":6018,"hp":6019,"DA":6020,"ĠES":6021,"Ġwrote":6022,"Ġsearc":6023,"Ġdecryption":6024,"rical":6025,"ĠSHA":6026,"ĠReferences":6027,"Ġopening":6028,"ensus":6029,"ĠAuthentication":6030,"dr":6031,"Ġfolder":6032,"ĠDR":6033,"Es":6034,"prot":6035,"Ġinitially":6036,"ĠSG":6037,"orph":6038,"ography":6039,"Ġreputation":6040,"obe":6041,"Ġlicense":6042,"KE":6043,"ios":6044,"Ġoccurred":6045,"vulnerability":6046,"Ġexhib":6047,"ros":6048,"Ġconfirmed":6049,"Ġdiscr":6050,"Ġrepresenting":6051,"ĠUs":6052,"ĠExplorer":6053,"rest":6054,"Ġaug":6055,"Ġadvance":6056,"fit":6057,"Ġvoltage":6058,"Ġworm":6059,"Ġrelay":6060,"Ġarriv":6061,"Ġinsurance":6062,"Ġplaces":6063,"UM":6064,"Ġmaps":6065,"iant":6066,"Ġgadget":6067,"ĠAES":6068,"ĠSN":6069,"Ġbottom":6070,"arb":6071,"Ġready":6072,"Ġcopies":6073,"ports":6074,"Ġtries":6075,"Ġpredicted":6076,"Ġdisplayed":6077,"ĠPR":6078,"Ġessentially":6079,"Ġconcerned":6080,"Ġneur":6081,"Ġimproving":6082,"iemens":6083,"Ġmovement":6084,"ĠFlash":6085,"Ġcrucial":6086,"SSL":6087,"Ġbeg":6088,"ĠType":6089,"ĠLo":6090,"Ġguidelines":6091,"Ġregardless":6092,"Ġrequested":6093,"Ġdaily":6094,"\")":6095,"ĠiPhone":6096,"ĠAdmin":6097,"Ġdiscrete":6098,"gence":6099,"Ġcarefully":6100,"inistic":6101,"ĠMethod":6102,"Ġbecoming":6103,"lement":6104,"Ġpolice":6105,"Ġcouple":6106,"Ġopens":6107,"ĠURLs":6108,"Ġmarketing":6109,"ĠRemote":6110,"tion":6111,"Ġresearcher":6112,"Ġextraction":6113,"Ġpersonnel":6114,"ey":6115,"Section":6116,"Ġcompleted":6117,"Ġadaptive":6118,"ĠTHE":6119,"dev":6120,"Ġdomin":6121,"Ġdespite":6122,"59":6123,"Ġforum":6124,"Ġpeer":6125,"Ġmisclass":6126,"Ġpan":6127,"adata":6128,"Ġgap":6129,"Ġscripting":6130,"ĠMar":6131,"Ġtick":6132,"Ġchecked":6133,"len":6134,"Ġprocessors":6135,"alt":6136,"Ġmedium":6137,"VD":6138,"Ġkept":6139,"aussian":6140,"Ġextensive":6141,"fc":6142,"Ġinsecure":6143,"ĠFin":6144,"Ġsyntax":6145,"Ġdangerous":6146,"On":6147,"Ġremember":6148,"ĠSupport":6149,"Ġhandled":6150,"ĠChar":6151,"ĠHis":6152,"jected":6153,"Ġpropagation":6154,"ĠFollow":6155,"ĠBlock":6156,"ĠTheir":6157,"omic":6158,"ĠMa":6159,"Ġexchang":6160,"Ġportion":6161,"lin":6162,"Ġachieves":6163,"Ġrecall":6164,"Ġprivileged":6165,"107":6166,"Ġque":6167,"ĠFix":6168,"Ġtemporal":6169,"Ġcookies":6170,"Ġtouch":6171,"Ġinvolving":6172,"Ġdrivers":6173,"ISC":6174,"Ġdump":6175,"Ġregistered":6176,"Ġfamiliar":6177,"Ġensuring":6178,"ĠChr":6179,"Ġaccesses":6180,"/?":6181,"ĠTyp":6182,"Ġcorruption":6183,"ĠDom":6184,"TD":6185,"Ġinherent":6186,"Ġperhaps":6187,"Ġfixes":6188,"Ġfeasible":6189,"],":6190,"Ġ@":6191,"ogene":6192,"ĠSam":6193,"Ġdifferential":6194,"Ġemphas":6195,"Ġdecrease":6196,"ĠCC":6197,"ada":6198,"iented":6199,"abilistic":6200,"Ġphones":6201,"ĠIntr":6202,"Ġvs":6203,"ults":6204,"Ġallocation":6205,"Ġhealthcare":6206,"des":6207,"Ġadvertis":6208,"usive":6209,"ĠPres":6210,"Sh":6211,"Ġftp":6212,"Ġdynamically":6213,"ĠUDP":6214,"Ġdelete":6215,"Ġsatisfy":6216,"olute":6217,"ĠEr":6218,"ĠGovern":6219,"Ġsolving":6220,"Ġillustrate":6221,"iny":6222,"Ġlimits":6223,"Ġtransp":6224,"estamp":6225,"ĠTABLE":6226,"Ġtriggered":6227,"Ġspat":6228,"ibilities":6229,"ĠRober":6230,"Ġintermediate":6231,"DN":6232,"Hz":6233,"Ġclusters":6234,"ĠArch":6235,"nomial":6236,"Ġconference":6237,"Ġsaying":6238,"Ġframes":6239,"Ġlett":6240,"Ġunable":6241,"nc":6242,"trans":6243,"Ġadministrative":6244,"driv":6245,"Sec":6246,"Ġguidance":6247,"atically":6248,"ĠBug":6249,"hand":6250,"Ġ2005":6251,"ressed":6252,"ĠSybil":6253,"Ġrecommendations":6254,"SQL":6255,"dro":6256,"Ġidentifier":6257,"ibri":6258,"Ġexplan":6259,"Ġreality":6260,"onn":6261,"Ġbanking":6262,"Ġgas":6263,"Ġaugment":6264,"Ġidentifies":6265,"Ġlogged":6266,"Ġtrees":6267,"Ġtro":6268,"ester":6269,"Ġmanufacturing":6270,"Ġjam":6271,"Ġproceed":6272,"Ġuncertainty":6273,"Ġconvolution":6274,"Ġinstalling":6275,"ĠNSA":6276,"Ġcomment":6277,"Ġcommunities":6278,"Ġvideos":6279,"uby":6280,"Ġinterv":6281,"DI":6282,"Ġmig":6283,"gers":6284,"Ġtags":6285,"OST":6286,"erv":6287,"NET":6288,"ĠOT":6289,"Ġsupplied":6290,"ĠOracle":6291,"post":6292,"Ġfriend":6293,"Ġinstrument":6294,"holders":6295,"ĠEmail":6296,"How":6297,"Ġproven":6298,"Ġadvertising":6299,"ĠDav":6300,"ĠCWE":6301,"Ġtruth":6302,"Ġtel":6303,"Ġclassify":6304,"Ġshift":6305,"state":6306,"chastic":6307,"tered":6308,"Ġhone":6309,"ĠConn":6310,"Ġcompr":6311,"ashing":6312,"Ġrepro":6313,"DR":6314,"Ġoverl":6315,"Ġacad":6316,"Ġthereby":6317,"ĠSw":6318,"Ġproport":6319,"Ġevaluating":6320,"antec":6321,"Ġdetermining":6322,"Ġconcrete":6323,"Ġran":6324,"ĠImpro":6325,"ilibri":6326,"Ġassembly":6327,"paramet":6328,"Ġinvestigated":6329,"Ġaffects":6330,"ĠSum":6331,"Ġencoded":6332,"Ġactor":6333,"Ġdictionary":6334,"ĠWin":6335,"ney":6336,"eb":6337,"Ġformula":6338,"Ġbenchmark":6339,"Ġharder":6340,"Ġstyle":6341,"nets":6342,"GA":6343,"Ġclosely":6344,"Ġunre":6345,"Ġconven":6346,"ĠThird":6347,"Ġentirely":6348,"ups":6349,"ĠSW":6350,"ĠISP":6351,"tty":6352,"rive":6353,"ĠAlex":6354,"Ġposted":6355,"Ġauto":6356,"101":6357,"ĠDespite":6358,"ulative":6359,"Ġexpressed":6360,"Ġutilized":6361,"Ġgave":6362,"ĠBayes":6363,"Ġcitiz":6364,"ĠRT":6365,"Ġregression":6366,"Ġstronger":6367,"Ġasym":6368,"Ġarr":6369,"path":6370,"Ġfacilitate":6371,"Ġconstructed":6372,"Ġprototype":6373,"Ġremoving":6374,"ĠPlatform":6375,"ashion":6376,"pub":6377,"OW":6378,"ĠFramework":6379,"uctures":6380,"Ġsequential":6381,"Ġpp":6382,"uclear":6383,"Ġembedding":6384,"ĠKaspersky":6385,"Ġcolle":6386,"Ġagreement":6387,"Ġchip":6388,"ftp":6389,"version":6390,"Ġconve":6391,"Ġfraction":6392,"Ġframeworks":6393,"Ġresolution":6394,"ĠCheck":6395,"LP":6396,"Ġredund":6397,"Ġhands":6398,"Ġenclave":6399,"Ġtemperature":6400,"Ġdepth":6401,"aching":6402,"Ġbots":6403,"Ġspecifications":6404,"Ġscans":6405,"ĠSCADA":6406,"Ġlikelihood":6407,"andbox":6408,"Ġ192":6409,"sl":6410,"erring":6411,"Ġspot":6412,"Ġexceed":6413,"ulates":6414,"Ġswitches":6415,"Ġhope":6416,"Ġhashes":6417,"Ġleaving":6418,"Ġolder":6419,"ĠName":6420,"rant":6421,"Ġweap":6422,"image":6423,"Ġgovernments":6424,"Ġindicated":6425,"Ġshares":6426,"Ġcomparing":6427,"Ġbalance":6428,"lose":6429,"ĠCommand":6430,"place":6431,"phones":6432,"Ġbrid":6433,"CB":6434,"Ġbatch":6435,"ĠDH":6436,"Ġax":6437,"Ġindu":6438,"ĠRead":6439,"ĠGPU":6440,"ĠTarget":6441,"Ġproofs":6442,"itivity":6443,"Ġplot":6444,"ĠEl":6445,"++":6446,"Ġpolynomial":6447,"Ġanalytics":6448,"Ġinvok":6449,"Ġ500":6450,"Ġtoward":6451,"ians":6452,"etooth":6453,"Ġdecent":6454,"Ġhook":6455,"rd":6456,"Ġthinking":6457,"Ġhundreds":6458,"Ġperce":6459,"Ġzone":6460,"Ġletter":6461,"Ġhistor":6462,"icon":6463,"urn":6464,"Ġwhenever":6465,"Ġspy":6466,"Ġsys":6467,"Ġmoved":6468,"Ġadvantages":6469,"case":6470,"otal":6471,"ĠUnlike":6472,"Ġperm":6473,"Ġclustering":6474,"Ġnone":6475,"Ġfavor":6476,"onal":6477,"berg":6478,"Ġposts":6479,"cd":6480,"Ġinvari":6481,"ĠFGSM":6482,"}}":6483,"ĠRel":6484,"Ġscreenshot":6485,"DS":6486,"ĠPage":6487,"Ġcontrollers":6488,"ecting":6489,"].":6490,"upl":6491,"Ġclaimed":6492,"ĠRandom":6493,"ĠEnglish":6494,"ĠREFREF":6495,"Ġsupporting":6496,"LR":6497,"Ġconventional":6498,"Ġ_":6499,"Ġstages":6500,"Ġretrieve":6501,"ĠBesides":6502,"Ġheur":6503,"Ġroutine":6504,"Ġvision":6505,"Ġprevention":6506,"ĠCalif":6507,"ĠIns":6508,"********":6509,"Ġproduces":6510,"Ġprobabilities":6511,"web":6512,"processing":6513,"Ġbinaries":6514,"Ġreviews":6515,"ĠSO":6516,"Ġresponsibility":6517,"Ġsurpr":6518,"Ġcomposed":6519,"ds":6520,"ĠFTP":6521,"Ġdead":6522,"BA":6523,"Ġsmartphone":6524,"ĠChrome":6525,"Ġcomplicated":6526,"Ġdeb":6527,"Ġdependencies":6528,"Ġarticles":6529,"Ġforeign":6530,"ĠDC":6531,"Ġmanipulation":6532,"Ġdiverse":6533,"Ġprefix":6534,"Ġinsider":6535,"ĠEurope":6536,"Ġdealing":6537,"ĠGaussian":6538,"Ġpublication":6539,"Ġensemble":6540,"Com":6541,"Ġexercise":6542,"Ġreplay":6543,"Ġpatient":6544,"Ġmaintaining":6545,"ĠActive":6546,"itation":6547,"Ġspeech":6548,"500":6549,"layer":6550,"itored":6551,"Ġdisable":6552,"UTION":6553,"ĠSE":6554,"ĠCommunications":6555,"Ġauthorities":6556,"Ġcentralized":6557,"Ġemer":6558,"suse":6559,"ĠTechnical":6560,"issance":6561,"iety":6562,"Ġillustrated":6563,"ensitive":6564,"Ġyourself":6565,"Ġbatter":6566,"Ġreven":6567,"ĠRES":6568,"Ġknew":6569,"Ġpixel":6570,"EX":6571,"Ġanalog":6572,"ĠSolution":6573,"hol":6574,"hered":6575,"Ġmetadata":6576,"Ġblue":6577,"Ġchildren":6578,"Ġfewer":6579,"Ġinjected":6580,"comput":6581,"Ġsubjects":6582,"Ġadoption":6583,"Ġcopyright":6584,"uxnet":6585,"ĠZh":6586,"ĠBlu":6587,"ĠExample":6588,"Ġmillions":6589,"Ġprem":6590,"Ġreferences":6591,"ĠPay":6592,"ĠBase":6593,"Ġexecutes":6594,"Ġsil":6595,"Ġtoler":6596,"Ġdispl":6597,"including":6598,"patch":6599,"Ġempirical":6600,"Ġloads":6601,"Ġpatched":6602,"ĠMUD":6603,"ĠPE":6604,"Ġpython":6605,"Ġabsolute":6606,"Ġdocumented":6607,"Ġvarying":6608,"Ġestimates":6609,"urb":6610,"uits":6611,"Ġampl":6612,"Ġhosting":6613,"Ġexcl":6614,"Ġfacilities":6615,"Ġguide":6616,"Ġcomments":6617,"install":6618,"Ġfilm":6619,"igu":6620,"Ġmodifications":6621,"Ġdifficulty":6622,"Ġinstitutions":6623,"Ġago":6624,"Ġcompiled":6625,"fb":6626,"ĠVulnerabilities":6627,"Ġmaintained":6628,"Ġoriginally":6629,"Ġeight":6630,"ĠApache":6631,"ĠAmerica":6632,"ĠRobert":6633,"ĠGet":6634,"Ġneighbor":6635,"Ġpreventing":6636,"ivil":6637,"ĠIntegr":6638,"Ġfreed":6639,"Ġrestart":6640,"ager":6641,"update":6642,"Ġequilibri":6643,"Ġbrand":6644,"ĠATT":6645,"Ġlosses":6646,"ened":6647,"Ġoutcome":6648,"Ġindicating":6649,"ĠTR":6650,"Ġsupposed":6651,"Ġopin":6652,"Ġtheorem":6653,"Ġstability":6654,"dering":6655,"Ġintroduces":6656,"Ġconnecting":6657,"space":6658,"adv":6659,"ĠStart":6660,"SE":6661,"Ġconclude":6662,"Ġillegal":6663,"ĠGPS":6664,"Ġweaknesses":6665,"Ġprobabilistic":6666,"Ġmathematical":6667,"::":6668,"normal":6669,"Ġcontinues":6670,"Ġannot":6671,"Ġconsensus":6672,"Ġelection":6673,"cb":6674,"ĠNotice":6675,"run":6676,"naissance":6677,"Ġphases":6678,"Ġdisass":6679,"ĠVol":6680,"Ġimag":6681,"Ġartificial":6682,"onsequ":6683,"Ġtransf":6684,"Ġcomposition":6685,"Ġdiscrimin":6686,"ĠRE":6687,"Ġexit":6688,"Ġ99":6689,"Ġintention":6690,"Ġmanaging":6691,"oke":6692,"ĠCaliforn":6693,"Ġimpacts":6694,"UNIA":6695,"ĠSECUNIA":6696,"rought":6697,"Ġspectrum":6698,"Ġderive":6699,"iated":6700,"Ġorganized":6701,"pty":6702,"ĠRussia":6703,"Ġmassive":6704,"ĠTrust":6705,"ĠAff":6706,"ĠVis":6707,"INT":6708,"Ġhosted":6709,"ĠSymantec":6710,"Ġpassive":6711,"Ġimplicit":6712,"expected":6713,"Ġtail":6714,"amper":6715,"ĠPolicy":6716,"Ġterror":6717,"Cr":6718,"Ġdestro":6719,"Ġinterests":6720,"ĠBrit":6721,"Ġeditor":6722,"ama":6723,"ĠResponse":6724,"Ġmagnitude":6725,"Ġprevents":6726,"mentioned":6727,"band":6728,"called":6729,"Ġdim":6730,"Ġenumer":6731,"Ġacknowled":6732,"Ġtimestamp":6733,"Ġbias":6734,"ĠXP":6735,"Ġblocked":6736,"uman":6737,"Ġdesigning":6738,"Ġclassical":6739,"aught":6740,"Ġcogn":6741,"check":6742,"ĠTop":6743,"ĠKore":6744,"Ġconsideration":6745,"ĠSupp":6746,"Ġsevere":6747,"Ġremov":6748,"rivial":6749,"Ġspend":6750,"Ġagency":6751,"ocation":6752,"Ġsubsc":6753,"Ġ29":6754,"there":6755,"Ġdiffer":6756,"ĠClient":6757,"gent":6758,"ecuring":6759,"UP":6760,"Ġdenotes":6761,"lines":6762,"uln":6763,"theless":6764,"ĠRisk":6765,"ĠCalifornia":6766,"son":6767,"hetic":6768,"=\"":6769,"Ġorganizational":6770,"ionage":6771,"Ġserial":6772,"Ġsymmetric":6773,"Ġ),":6774,"MC":6775,"Ġappeared":6776,"Ġesp":6777,"Ġstrategic":6778,"Ġsold":6779,"Ġstrongly":6780,"ĠInput":6781,"Ġexport":6782,"Ġrespective":6783,"Ġduration":6784,"kr":6785,"Ġamounts":6786,"Ġtranslation":6787,"Ġsearching":6788,"ĠDebian":6789,"ĠThrough":6790,"Ġpieces":6791,"AX":6792,"Ġcombine":6793,"around":6794,"ĠTV":6795,"Ġwild":6796,"Ġcells":6797,"ĠSur":6798,"Ġequation":6799,"what":6800,"imensional":6801,"ĠStuxnet":6802,"Ġlargely":6803,"Ġallocated":6804,"DD":6805,"Ġderiv":6806,"ĠDesign":6807,"lots":6808,"Ġdisabled":6809,"Ġpretty":6810,"Ġhop":6811,"ĠMultiple":6812,"Ġhouse":6813,"Ġwait":6814,"ĠAustral":6815,"HER":6816,"Ġrot":6817,"Ġimprovements":6818,"grad":6819,"Ġstochastic":6820,"Ġnative":6821,"ĠAdobe":6822,"OLUTION":6823,"ĠBluetooth":6824,"ĠMo":6825,"Ġexpon":6826,"apan":6827,"Ġgateway":6828,"value":6829,"Ġblocking":6830,"Ġoutperform":6831,"Ġhimself":6832,"Ġanalysts":6833,"Ġeaves":6834,"year":6835,"Ġknowing":6836,"Ġculture":6837,"ĠSuccess":6838,"che":6839,"Ġimperson":6840,"Ġneither":6841,"Ġasking":6842,"Ġcryptoc":6843,"Ġassert":6844,"rew":6845,"ĠVulnerable":6846,"Ġworldwide":6847,"Ġchoosing":6848,"Ġindependently":6849,"Ġsales":6850,"ĠNE":6851,"Ġstudent":6852,"Ġcertification":6853,"ortion":6854,"ipping":6855,"Ġdirected":6856,"Ġcookie":6857,"ĠLink":6858,"Ġongoing":6859,"iguration":6860,"Ġreasoning":6861,"Ġdropped":6862,"Ġengines":6863,"Ġintruder":6864,"Ġopportunities":6865,"ĠCAN":6866,"efficient":6867,"Ġacts":6868,"urally":6869,"fire":6870,"Ġpurchase":6871,"Ġgradients":6872,"ifact":6873,"Ġminor":6874,"ipl":6875,"Ġdeploying":6876,"iest":6877,"poch":6878,"Ġcontinuously":6879,"Ġspent":6880,"Ġnewly":6881,"Ġplease":6882,"ĠCurrent":6883,"ĠFollowing":6884,"Ġdefining":6885,"Ġengineers":6886,"marks":6887,"Ġpixels":6888,"Ġpure":6889,"LA":6890,"ĠFederal":6891,"atever":6892,"ĠCH":6893,"Ġbrought":6894,"Ġhelpful":6895,"Ġmatches":6896,"oration":6897,"ĠPawn":6898,"ĠImageNet":6899,"Ġsuff":6900,"Ġcontributions":6901,"support":6902,"Ġbounded":6903,"ĠSouth":6904,"txt":6905,"Ġsensing":6906,"Ġinteractive":6907,"rowser":6908,"Ġincl":6909,"ifiable":6910,"Ġphen":6911,"ĠSaf":6912,"Ġcontainer":6913,"type":6914,"ĠOnly":6915,"Ġbroken":6916,"Ġupdating":6917,"Ġcertainly":6918,"Ġweeks":6919,"while":6920,"ĠEU":6921,"Ġapparent":6922,"isition":6923,"Ġforces":6924,"itution":6925,"Ġproved":6926,"ĠTra":6927,"Ġfood":6928,"Ġcurve":6929,"Ġlaptop":6930,"Ġcourt":6931,"ĠSiemens":6932,"rog":6933,"Ġremed":6934,"Ġnull":6935,"Ġviews":6936,"Ġcontinued":6937,"ĠMozilla":6938,"intelligence":6939,"Ġacquired":6940,"about":6941,"eless":6942,"FA":6943,"anguage":6944,"standing":6945,"Ġexpertise":6946,"IDS":6947,"ĠCEO":6948,"Ġintelligent":6949,"weight":6950,"Ġregulations":6951,"Ġimper":6952,"Ġcoding":6953,"ulus":6954,"Ġexha":6955,"ABIL":6956,"group":6957,"ĠIndustrial":6958,"trained":6959,"Ġobserving":6960,"from":6961,"ĠHTTPS":6962,"ĠEther":6963,"Ġaccurately":6964,"ounty":6965,"Ġcrypto":6966,"Ġmanufacturers":6967,"Ġthroughput":6968,"effect":6969,"ĠDepend":6970,"Ġmonitored":6971,"Ġkeyboard":6972,"deed":6973,"Ġswitching":6974,"Ġdeviation":6975,"Ġrise":6976,"Ġpressure":6977,"Ġanonymity":6978,"Ġ2004":6979,"Ġfuzzing":6980,"Ġobfuscation":6981,"Ġeye":6982,"ĠExamples":6983,"ĠAnaly":6984,"Ġdetectors":6985,"Ġempty":6986,"ĠCritical":6987,"tee":6988,"Ġhypothesis":6989,"Ġmodeled":6990,"zer":6991,"Ġmand":6992,"Ġprepared":6993,"Ġ31":6994,"ĠRet":6995,"Ġabuse":6996,"END":6997,"Ġpriorit":6998,"Ġmonitors":6999,"Ġcybercriminals":7000,"Ġguard":7001,"Ġmid":7002,"Ġsanit":7003,"Ġdesigns":7004,"cil":7005,"Ġrefl":7006,"prietary":7007,"Ġsectors":7008,"Ġleaked":7009,"Ġshape":7010,"ĠIMP":7011,"yes":7012,"Ġintroduction":7013,"Ġ(\"":7014,"Ġphotos":7015,"ĠPol":7016,"Ġcircumst":7017,"agement":7018,"Ġselecting":7019,"Ġforensics":7020,"Ġadequ":7021,"ike":7022,"CRIP":7023,"Ġresolve":7024,"Ġgen":7025,"Ġviewed":7026,"ĠBur":7027,"Ġsimulated":7028,"Ġoccurre":7029,"Ġmotion":7030,"Ġcorrel":7031,"Ġisn":7032,"ĠHost":7033,"names":7034,"ownload":7035,"cles":7036,"Ġhacked":7037,"ĠHard":7038,"Ġconditional":7039,"ĠIran":7040,"poration":7041,"ĠConsider":7042,"Ġdirections":7043,"Ġrepresentative":7044,"Ġcolumns":7045,"><":7046,"XX":7047,"Ġinfrastructures":7048,"Ġparad":7049,"Ġprecisely":7050,"war":7051,"Ġtriggers":7052,"Ġdetects":7053,"Ġcorrectness":7054,"Ġphysically":7055,"ĠGAN":7056,"Ġworse":7057,"Ġmodes":7058,"Ġepoch":7059,"ircraft":7060,"ĠPlay":7061,"Ġdetermines":7062,"Ġda":7063,"Ġactively":7064,"ĠHealth":7065,"Ġflexible":7066,"ster":7067,"Ġ1000":7068,"ĠIndeed":7069,"+----------------":7070,"Ġdeleg":7071,"ĠDifferent":7072,"Ġseven":7073,"Ġalarm":7074,"Ġinvestment":7075,"kernel":7076,"Un":7077,"enior":7078,"ĠFoundation":7079,"WS":7080,"Ġpreced":7081,"Ġsoft":7082,"ĠSan":7083,"ĠNumber":7084,"ĠStandard":7085,"Ġspatial":7086,"Ġdiversity":7087,"igm":7088,"ĠSel":7089,"Ġconcent":7090,"Ġregul":7091,"Ġpus":7092,"Ġwindows":7093,"ĠSk":7094,"Ġfi":7095,"sg":7096,"cons":7097,"Ġviolation":7098,"cgi":7099,"download":7100,"ARE":7101,"Ġdoll":7102,"Ġtactics":7103,"ĠConsequ":7104,"Ġisolation":7105,"Ġconsiders":7106,"GAN":7107,"ĠJapan":7108,"ĠVI":7109,"module":7110,"iment":7111,"Ġoracle":7112,"Ġserves":7113,"Ġrepository":7114,"Ġhappened":7115,"Ġdark":7116,"fd":7117,"Ġ70":7118,"ularity":7119,"oriented":7120,"Ġ128":7121,"architect":7122,"ĠRFC":7123,"ĠAN":7124,"vari":7125,"nergy":7126,"Ġcollaboration":7127,"Ġmanagers":7128,"Ġgained":7129,"TE":7130,"Ġconsisting":7131,"domain":7132,"dule":7133,"ĠResNet":7134,"Ġillustrates":7135,"Ġmus":7136,"Ġcars":7137,"fare":7138,"ilies":7139,"Ġmanif":7140,"ĠTim":7141,"ĠObject":7142,"bird":7143,"Ġlocally":7144,"levant":7145,"ralized":7146,"STM":7147,"ATE":7148,"Ġrough":7149,"GB":7150,"Is":7151,"Ġshadow":7152,"Ġphenomen":7153,"ĠRAM":7154,"arth":7155,"Ġmeeting":7156,"MM":7157,"Sc":7158,"rypted":7159,"ĠMich":7160,"Ġoffering":7161,"aper":7162,"lude":7163,"ĠDefinition":7164,"Ġmodifying":7165,"Ġdrives":7166,"Ġincent":7167,"Ġdemonstrates":7168,"Ġpartially":7169,"init":7170,"Ġultimately":7171,"ĠBY":7172,"ĠAdvanced":7173,"Ġinvent":7174,"izer":7175,"ample":7176,"arr":7177,"mat":7178,"Ġce":7179,"Ġmere":7180,"ĠAvailable":7181,"Le":7182,"inf":7183,"Ġuniversal":7184,"ĠIts":7185,"Ġdimensions":7186,"Ġreferen":7187,"Ġsandbox":7188,"Ġunexpected":7189,"Ġemerging":7190,"Ġmarked":7191,"Ġpositions":7192,"Ġdependency":7193,"Ġstraightforward":7194,"Ġvast":7195,"sych":7196,"hark":7197,"Ġdefe":7198,"ĠVER":7199,"eck":7200,"Ġfinds":7201,"ĠAdditional":7202,"filtr":7203,"rep":7204,"ABILITY":7205,"Ġobtaining":7206,"Ġengineer":7207,"Ġsecrets":7208,"Ġpassing":7209,"Ġcharge":7210,"ĠNS":7211,"ĠEst":7212,"Ġvariation":7213,"ĠNever":7214,"Ġwish":7215,"Ġworkflow":7216,"Ġreaders":7217,"Ġexamined":7218,"Ġbanks":7219,"Ġbattery":7220,"===":7221,"Ġexponential":7222,"Ġacquire":7223,"ĠIR":7224,"elling":7225,"Ġgranted":7226,"ael":7227,"comm":7228,"Ġsubmit":7229,"ĠAssoci":7230,"ino":7231,"ĠOption":7232,"Ġanswers":7233,"ĠOrganizations":7234,"Ġsaved":7235,"CRIPTION":7236,"irth":7237,"Ġads":7238,"Ġbriefly":7239,"Ġinsights":7240,"Ġhosp":7241,"Ġsymbol":7242,"Ġforwarding":7243,"ĠISO":7244,"utive":7245,"sm":7246,"ĠSun":7247,"Ġcombinations":7248,"rok":7249,"ĠLem":7250,"Ġdeleted":7251,"Ġscheduling":7252,"Ġstakeholders":7253,"Ġovercome":7254,"ĠList":7255,"hedule":7256,"However":7257,"Ġnuclear":7258,"Ġrecognized":7259,"Ġheter":7260,"Ġagree":7261,"Ġdeception":7262,"Ġgreatly":7263,"Cont":7264,"ĠLocal":7265,"Ġfresh":7266,"ireshark":7267,"ĠGovernment":7268,"ĠSIM":7269,"Ġthreads":7270,"LAN":7271,"ĠAgain":7272,"Ġacceptable":7273,"pervised":7274,"Ġregularly":7275,"https":7276,"Ġdidn":7277,"Ġanomalies":7278,"Ġsociety":7279,"rook":7280,"Ġaccident":7281,"ĠUSA":7282,"ĠScript":7283,"Ġdeterministic":7284,"Ġimproves":7285,"Ġdoub":7286,"ĠMP":7287,"Ġargue":7288,"driven":7289,"uing":7290,"onymous":7291,"Ġidentities":7292,"ĠSpect":7293,"ĠCross":7294,"bal":7295,"Gu":7296,"Ġtrends":7297,"Ġdepartment":7298,"istry":7299,"worth":7300,"arse":7301,"itten":7302,"Ġimple":7303,"ĠDESCRIPTION":7304,"Ġtitle":7305,"ĠProv":7306,"Ġvariations":7307,"Ġrecipient":7308,"que":7309,"ĠSee":7310,"ĠPIN":7311,"ĠIDs":7312,"ĠProf":7313,"bd":7314,"Ġvariance":7315,"Ġmenu":7316,"Ġrealized":7317,"Ġheaders":7318,"Ġassumes":7319,"akers":7320,"Ġsecondary":7321,"network":7322,"Ġsimulations":7323,"Ġproprietary":7324,"books":7325,"Ġreset":7326,"uel":7327,"Ġworkers":7328,"Ġinspect":7329,"Ġfamilies":7330,"Ġretail":7331,"Ġequilibrium":7332,"apping":7333,"Ġsensitivity":7334,"ĠPM":7335,"Ġreact":7336,"ĠRef":7337,"rees":7338,"prises":7339,"Ġletters":7340,"dimensional":7341,"ĠCON":7342,"AI":7343,"Ġaircraft":7344,"Ġapproximate":7345,"Ġdisplays":7346,"common":7347,"Ġwomen":7348,"Ġshif":7349,"_{":7350,"scape":7351,"ĠZero":7352,"Ġjournal":7353,"ĠJournal":7354,"Ġsole":7355,"iling":7356,"Ġlimitation":7357,"Ġenvironmental":7358,"connected":7359,"ĠSYN":7360,"ipt":7361,"ius":7362,"ĠNT":7363,"ĠConsequently":7364,"ĠMean":7365,"ĠPerform":7366,"Ġunus":7367,"ĠLine":7368,"Ġchoices":7369,"Ġapt":7370,"IE":7371,"Ġ35":7372,"Ġbiggest":7373,"Ġfocusing":7374,"Ġrebo":7375,"Ġmaterials":7376,"Ġtells":7377,"ĠIDA":7378,"leep":7379,"base":7380,"Ġimplements":7381,"Ġ95":7382,"Ġmapped":7383,"Ġmeta":7384,"Ġbrowsing":7385,"Ġpersistent":7386,"Ġincrement":7387,"orter":7388,"BR":7389,"ĠThings":7390,"Ġcollecting":7391,"Ġresulted":7392,"Ġpresentation":7393,"Ġcontribution":7394,"ĠFP":7395,"Ġassignment":7396,"Ġfashion":7397,"Ġhandsh":7398,"Ġrapidly":7399,"ĠHome":7400,"ĠLow":7401,"Ġattempting":7402,"Ġtunnel":7403,"Ġinterference":7404,"Ġcontrolling":7405,"Ġevasion":7406,"Ġcitizens":7407,"ki":7408,"ĠARP":7409,"Ġfacility":7410,"Ġtransferred":7411,"Ġnotes":7412,"Ġsigning":7413,"ĠDan":7414,"ogeneous":7415,"ĠIOS":7416,"icrosoft":7417,"ĠDetails":7418,"ĠSMS":7419,"Ġconsequence":7420,"Ġcameras":7421,"Ġmaximize":7422,"ĠKnow":7423,"Ġdupl":7424,"Ġhandler":7425,"Ġblind":7426,"hole":7427,"Ġafore":7428,"Ġseemed":7429,"ĠRelease":7430,"Ġdestr":7431,"Ġpossess":7432,"ĠSOLUTION":7433,"aware":7434,"Ġstoring":7435,"rad":7436,"Ġimmediate":7437,"Ġwilling":7438,"Ġeliminate":7439,"Ġfragment":7440,"bot":7441,"DE":7442,"Ġspecifies":7443,"Ġcritic":7444,"Ġrace":7445,"Ġmax":7446,"Ġrounds":7447,"Ġabstraction":7448,"Ġneighbors":7449,"ica":7450,"Ġsubsystem":7451,"Ġrealize":7452,"Att":7453,"Ġfairly":7454,"Ġresid":7455,"Ġannounce":7456,"Ar":7457,"ename":7458,"powerpc":7459,"Ġentered":7460,"alent":7461,"Ġgathering":7462,"ĠEve":7463,"ĠWithout":7464,"plex":7465,"root":7466,"ecomm":7467,"Ġconstantly":7468,"GG":7469,"alert":7470,"Ġthank":7471,":\\":7472,"Ġignore":7473,"ĠTrend":7474,"comes":7475,"Ġoppos":7476,"Ġloading":7477,"Ġaggregation":7478,"2007":7479,"ouncil":7480,"Ġrein":7481,"Ġsubmitted":7482,"ĠIntrusion":7483,"Ġartifact":7484,"ĠBi":7485,"Ġintroducing":7486,"Ġpow":7487,"ĠSVM":7488,"uming":7489,"Ġreveals":7490,"JDK":7491,"Ġmob":7492,"anches":7493,"ĠInstall":7494,"Ġstructured":7495,"Ġnotification":7496,"attle":7497,"ĠRun":7498,"ĠAmong":7499,"FC":7500,"Ġaddressing":7501,"ĠLib":7502,"ĠCopy":7503,"Ġnight":7504,"Ġsatisfies":7505,"ĠBen":7506,"fa":7507,"Ġunn":7508,"Ġsubred":7509,"IPS":7510,"ĠMand":7511,"ĠWr":7512,"ometimes":7513,"Ġcaptures":7514,"ĠIM":7515,"Ġrepresentations":7516,"Ġexhaust":7517,"ipp":7518,"aser":7519,"Ġsufficiently":7520,"Ġapart":7521,"Ġformally":7522,"Ġtemplate":7523,"orage":7524,"ĠDenial":7525,"Ġtalking":7526,"Ġdenoted":7527,"Ġbegins":7528,"ĠCompar":7529,"Ġconj":7530,"Ġcanc":7531,"Ġabsence":7532,"vuln":7533,"ĠAuthor":7534,"Ġtech":7535,"netic":7536,"ĠSDN":7537,"Ġleader":7538,"empor":7539,"Ġheavily":7540,"Ġunsu":7541,"corporate":7542,"dec":7543,"Ġmixed":7544,"Ġnoticed":7545,"Ġbooks":7546,"Ġaforementioned":7547,"ĠMonitor":7548,"arter":7549,"ĠMax":7550,"Ġviruses":7551,"irable":7552,"ynamic":7553,"Ġsusceptible":7554,"Ġwaiting":7555,"File":7556,"ĠKing":7557,"redict":7558,"Ġcombining":7559,"aker":7560,"Ġdescribing":7561,"Ġahead":7562,"ĠBulletin":7563,"Ġcash":7564,"ĠUnix":7565,"Ġschedule":7566,"ĠArt":7567,"Ġinters":7568,"email":7569,"ste":7570,"Ġdebugger":7571,"Ġtelephone":7572,"Ġimplications":7573,"ĠNeural":7574,"ĠEvent":7575,"Ġinspection":7576,"fill":7577,"Ġkeyst":7578,"Ġlinux":7579,"Ġcloser":7580,"Ġpayloads":7581,"ĠBre":7582,"Ġinfinite":7583,"iations":7584,"Ġsurround":7585,"ĠReal":7586,"WOR":7587,"Ġreconnaissance":7588,"Ġhighlighted":7589,"Ġexplored":7590,"Ġreplacement":7591,"ĠME":7592,"ĠAppro":7593,"ĠICMP":7594,"river":7595,"Ġcycles":7596,"Ġsatisfied":7597,"ĠSIGN":7598,"Ġspoofed":7599,"Ġsniff":7600,"size":7601,"orough":7602,"Ġauthenticate":7603,"Ġcircumstances":7604,"orms":7605,"ĠAddress":7606,"block":7607,"Ġdirectories":7608,"ĠBig":7609,"KS":7610,"Ġinfect":7611,"Ġemergency":7612,"Ġcompatible":7613,"Ġassuming":7614,"Ġindustries":7615,"Ġalleged":7616,"Ġcognitive":7617,"AAAAAAAA":7618,"ĠNOT":7619,"Ġexperienced":7620,"Ġsatell":7621,"Ġindicators":7622,"forcement":7623,"ĠTraining":7624,"ĠExp":7625,"Ġregistration":7626,"ULL":7627,"Ġchat":7628,"Ġstress":7629,"AE":7630,"athered":7631,"Ġmeaningful":7632,"Ġtraject":7633,"pread":7634,"Ġoccup":7635,"rier":7636,"Ġethical":7637,"ĠMemory":7638,"Ġachieving":7639,"Ġcomplement":7640,"Wh":7641,"stood":7642,"Ġcircuits":7643,"Ġtamper":7644,"Ġprohib":7645,"Ġvot":7646,"ought":7647,"Ġsymbols":7648,"Res":7649,"ĠWill":7650,"Ġsubt":7651,"Ġbranches":7652,")-":7653,"Ġdownloading":7654,"Ġneurons":7655,"ĠDomain":7656,"Ġsuspect":7657,"Ġversus":7658,"onomy":7659,"Ġ).":7660,"formed":7661,"ocker":7662,"Ġtransferability":7663,"iance":7664,"liers":7665,"Ġflight":7666,"Ġmes":7667,"DC":7668,"Ġdeath":7669,"ĠNAT":7670,"Ġsolved":7671,"Ġforced":7672,"location":7673,"ĠContent":7674,"ĠSGX":7675,"Ġwhatever":7676,"Ġnumerical":7677,"ĠGNU":7678,"ĠUnion":7679,"Ġmeasuring":7680,"Ġglob":7681,"Ġpointers":7682,"Ġdiagn":7683,"Ġseeing":7684,"ĠLemma":7685,"Ġcivil":7686,"Ġtestbed":7687,"output":7688,"Ab":7689,"256":7690,"ĠARM":7691,"Ġflexibility":7692,"Ġexplanation":7693,"Ġperceived":7694,"idespread":7695,"syn":7696,"Ġiterative":7697,"enty":7698,"ĠAf":7699,"Ġsocket":7700,"isher":7701,"Ġsimulate":7702,"ICAL":7703,"after":7704,"Ġdigit":7705,"Ġmen":7706,"Ġspecialized":7707,"Ġdelays":7708,"ACT":7709,"oday":7710,"office":7711,"ĠDISC":7712,"Ġpointed":7713,"Ġexecutive":7714,"Ġsuspected":7715,"Ġ========":7716,"Ġcovers":7717,"ĠApplications":7718,"Ns":7719,"Ġcompression":7720,"Ġcandidates":7721,"Ġconsent":7722,"ĠNorm":7723,"ĠMag":7724,"Ġattempted":7725,"Ġsearches":7726,"icing":7727,"ĠSI":7728,"ĠFind":7729,"osh":7730,"Ġstealthy":7731,"ĠSR":7732,"ĠLAN":7733,"ĠGermany":7734,"ws":7735,"ĠSearch":7736,"virt":7737,"Ġacquisition":7738,"oom":7739,"Ġinterpretation":7740,"BP":7741,"ersonal":7742,"ĠEthere":7743,"Ġexploitable":7744,"Ġspaces":7745,"Ġmys":7746,"shot":7747,"ham":7748,"utor":7749,"Ġcompetition":7750,"Ġplane":7751,"Ġacademic":7752,"ĠGraph":7753,"ĠStrategies":7754,"Ġwire":7755,"Ġtemporary":7756,"Ġenhanced":7757,"IO":7758,"rase":7759,"ission":7760,"Ġarrest":7761,"gment":7762,"ĠPresident":7763,"ĠScore":7764,"Ġfelt":7765,"Ġrig":7766,"Ġintegrate":7767,"Ġreferenced":7768,"ĠEnt":7769,"Ġbul":7770,"ĠOP":7771,"Ġecosystem":7772,"Ġdialog":7773,"Ġlives":7774,"ĠPatch":7775,"cve":7776,"Ġleveraging":7777,"Ġgathered":7778,"Ġalign":7779,"Ġphp":7780,"col":7781,"ĠDP":7782,"Ġconcurrent":7783,"Ġsuite":7784,"Ġconsistency":7785,"olean":7786,"Ġanalyses":7787,"########":7788,"ĠNews":7789,"Shell":7790,"Ġrevenue":7791,"alog":7792,"Ġvoting":7793,"Ġbelieved":7794,"Ġtransformations":7795,"Ġeavesdro":7796,"Ġbehavioral":7797,"aks":7798,"So":7799,"ĠInvest":7800,"Ġaimed":7801,"ĠAgency":7802,"Ġturns":7803,"istence":7804,"Ġoptimize":7805,"ĠPS":7806,"Ġprime":7807,"Ġoperates":7808,"LY":7809,"Ġfrequent":7810,"Ġjoin":7811,"ĠCommission":7812,"Ġdecreases":7813,"ashes":7814,"ĠGood":7815,"Ġdestroy":7816,"alls":7817,"Ġstuff":7818,"Ġcapital":7819,"ĠEnd":7820,"ĠDisc":7821,"Ġespionage":7822,"mem":7823,"He":7824,"ga":7825,"adding":7826,"Ġconvergence":7827,"Ġexfiltr":7828,"Ġwidespread":7829,"Ġstealing":7830,"rent":7831,"Ġentering":7832,"Ġflash":7833,"Ġconvolutional":7834,"ĠLayer":7835,"LU":7836,"aked":7837,"Windows":7838,"Ġplain":7839,"ĠDL":7840,"sarge":7841,"Ġcatch":7842,"Ġscientific":7843,"Ġsemi":7844,"Ġjobs":7845,"ĠOpenJDK":7846,"Ġdensity":7847,"Ġresilient":7848,"Ġopposed":7849,"ĠGlobal":7850,"ĠXOR":7851,"Ġboundaries":7852,"Ġsynthetic":7853,"Ġleaks":7854,"dk":7855,"Ġsecrecy":7856,"Ġsex":7857,"Ġmor":7858,"cap":7859,"ocket":7860,"Ġsho":7861,"Ġfight":7862,"Ġconducting":7863,"irms":7864,"ĠNevertheless":7865,"Ġpromising":7866,"ĠComputing":7867,"ĠEXP":7868,"Ġbreakpoint":7869,"Ġexpressions":7870,"Ġlabor":7871,"AIL":7872,"Ġcontribute":7873,"Ġconfig":7874,"road":7875,"but":7876,"ĠEthereum":7877,"Ġhoriz":7878,"Ġmotivation":7879,"Ġsubstitute":7880,"bl":7881,"Ġcraw":7882,"Ġwarrant":7883,"Ġelev":7884,"ĠOperating":7885,"NER":7886,"Ġamb":7887,"blem":7888,"BSD":7889,"Ġunp":7890,"Ġsegments":7891,"bc":7892,"TA":7893,"Ġfreedom":7894,"IND":7895,"ĠPoint":7896,"Ġreads":7897,"Ġfaults":7898,"Ġscanner":7899,"Ġmaintains":7900,"ĠDavid":7901,"Ġapproximation":7902,"Ġevade":7903,"ĠDoc":7904,"ocr":7905,"ensors":7906,"berspace":7907,"Ġsafegu":7908,"Ġ33":7909,"written":7910,"Ġspecies":7911,"ĠVal":7912,"Ġunlikely":7913,"ĠAud":7914,"ĠPeople":7915,"Ġlegis":7916,"products":7917,"Ġ================================":7918,"ĠKn":7919,"door":7920,"Ġencount":7921,"Ġleaves":7922,"aaS":7923,"Ġparsing":7924,"Ġaffecting":7925,"Ġutilizing":7926,"Ġaid":7927,"oman":7928,"Ġsmartphones":7929,"Ġenterprises":7930,"Ġthorough":7931,"Ġ802":7932,"shop":7933,"Ġadministration":7934,"dependent":7935,"Ġsynchronization":7936,"Ġsigns":7937,"uts":7938,"ĠThose":7939,"Ġsurv":7940,"Ġsubsequently":7941,"ĠDNNs":7942,"enter":7943,"Ġreviewed":7944,"Ġwave":7945,"ellect":7946,"Ġip":7947,"ĠESX":7948,"Ġidentifiers":7949,"rastructure":7950,"Ġsnap":7951,"ĠPrivate":7952,"abase":7953,"ags":7954,"Ġlocate":7955,"Ġisolated":7956,"Ġmarkets":7957,"Ġoptimized":7958,"ĠBritish":7959,"Con":7960,"Ġsecurely":7961,"Ġpipeline":7962,"Ġpatients":7963,"rem":7964,"ĠFOR":7965,"config":7966,"Ġpil":7967,"pha":7968,"Ġmim":7969,"ĠCong":7970,"ĠHacker":7971,"that":7972,"ĠBuild":7973,"eper":7974,"Ġpsych":7975,"Ġusability":7976,"Ġantic":7977,"Ġstreams":7978,"client":7979,"Ġbrain":7980,"ĠProof":7981,"wn":7982,"ĠDevelopment":7983,"how":7984,"Ġsentence":7985,"By":7986,"FI":7987,"Ġintervals":7988,"new":7989,"ĠPi":7990,"->":7991,"ĠOpt":7992,"ĠGDP":7993,"label":7994,"dc":7995,"Ġsust":7996,"Ġseparately":7997,"critical":7998,"ĠAdvisories":7999,"ĠLaw":8000,"Ġhandshake":8001,"Ġfunds":8002,"ĠOpenSSL":8003,"Ġorganis":8004,"gs":8005,"Ġmoves":8006,"Ġstick":8007,"Ġfig":8008,"ĠEnergy":8009,"Ġmouse":8010,"Ġassurance":8011,"Ġhypervisor":8012,"well":8013,"Ġusual":8014,"bf":8015,"One":8016,"arrow":8017,"Ġformats":8018,"Ġconsole":8019,"Ġdefenders":8020,"ĠResults":8021,"Ġranges":8022,"ĠACM":8023,"ĠBayesian":8024,"ĠHist":8025,"Ġtravers":8026,"Ġdual":8027,"Ġrelying":8028,"Ġvalidity":8029,"ĠBank":8030,"Ġphoto":8031,"ĠStore":8032,"uitively":8033,"ao":8034,"Data":8035,"Ġoutcomes":8036,"Ġmotivated":8037,"dat":8038,"ĠWireshark":8039,"Ġwrites":8040,"Ġanten":8041,"Ġpin":8042,"Ġease":8043,"secure":8044,"Ġtweets":8045,"Ġcommunicating":8046,"Ġequipped":8047,"ĠCase":8048,"ĠWik":8049,"Ġincons":8050,"Ġrandomized":8051,"Ġthrow":8052,"gn":8053,"Ġsomewhat":8054,"Ġ45":8055,"401":8056,"Ġelectrical":8057,"amd":8058,"ĠDownload":8059,"isa":8060,"Ġlocked":8061,"Ġqueue":8062,"techn":8063,"Ġcrow":8064,"ora":8065,"Ġrecording":8066,"ĠWhite":8067,"lined":8068,"Ġing":8069,"Ġequations":8070,"anted":8071,"Ġguaranteed":8072,"ĠMarkov":8073,"Ġconclusion":8074,"iphers":8075,"Ġsolid":8076,"ashington":8077,"ĠAltern":8078,"Ġreser":8079,"ĠCour":8080,"ĠChen":8081,"Ġaudience":8082,"Ġinner":8083,"ĠCreate":8084,"Ġhijack":8085,"Ġtyping":8086,"ĠLa":8087,"Ġcareful":8088,"Ġdisclosed":8089,"CA":8090,"300":8091,"erate":8092,"ĠArchitect":8093,"ested":8094,"ĠOptional":8095,"ĠAffected":8096,"Ġkeywords":8097,"Ġppc":8098,"Ġsimulator":8099,"field":8100,"effic":8101,"ĠReference":8102,"Ġcontexts":8103,"emy":8104,"ĠImplement":8105,"Ġunw":8106,"Ġplaying":8107,"Ġinitialization":8108,"Ġseason":8109,"ĠThough":8110,"Ġscalability":8111,"ĠDB":8112,"Ġsegmentation":8113,"Ġflags":8114,"UND":8115,"Ġformed":8116,"ĠJS":8117,"ĠTel":8118,"ara":8119,"Ġpermit":8120,"Ġgreen":8121,"ĠMail":8122,"Ġther":8123,"Ġkeeps":8124,"001":8125,"Ġroughly":8126,"Ġdiagram":8127,"ĠSubscribe":8128,"ĠVMware":8129,"Ġours":8130,"Ġpopularity":8131,"Ph":8132,"ĠCanada":8133,"Ġplus":8134,"Ġescalation":8135,"Ġeyes":8136,"ĠLook":8137,"ĠHuman":8138,"aby":8139,"Ġbelonging":8140,"ĠReddit":8141,"Ġviolations":8142,"icial":8143,"Ġdepart":8144,"Ġdrug":8145,"iders":8146,"Ġfirms":8147,"Ġheart":8148,"ales":8149,"Ġperturbed":8150,"opens":8151,"Ġstories":8152,"Ġsyn":8153,"airs":8154,"enger":8155,"ĠCAP":8156,"Ġbotnets":8157,"Ġperman":8158,"pk":8159,"ĠEvalu":8160,"Ġexpose":8161,"essus":8162,"edu":8163,"Ġexplains":8164,"Ġdebugging":8165,"Ġcomputationally":8166,"Ġjamming":8167,"Security":8168,"alty":8169,"ests":8170,"ĠEN":8171,"RI":8172,"xml":8173,"Ġchose":8174,"Ġhelped":8175,"Ġreaches":8176,"Ġconce":8177,"ĠIndia":8178,"Ġadvise":8179,"Ġanticip":8180,"Ġsimplicity":8181,"Ġcybercrime":8182,"Ġunderstood":8183,"Ġdefending":8184,"Ġserved":8185,"Ġprogrammer":8186,"ĠWashington":8187,"AGE":8188,"ĠChrist":8189,"Ġrelax":8190,"Ġbiometric":8191,"Ġheavy":8192,"lists":8193,"Ġsubstantial":8194,"ploys":8195,"BZ":8196,"pecified":8197,"Ġmusic":8198,"')":8199,"Ġreplacing":8200,"Ġsecuring":8201,"enabled":8202,"sum":8203,"ĠVe":8204,"ĠDistribution":8205,"ĠReview":8206,"rices":8207,"ĠEthernet":8208,"cond":8209,"Ġperiods":8210,"Ġincorporate":8211,"Ġinformed":8212,"Ġcorrupted":8213,"Ġhistorical":8214,"Ġends":8215,"rob":8216,"ĠGerman":8217,"ĠCOVID":8218,"ĠCap":8219,"preter":8220,"Ġremoval":8221,"Log":8222,"sys":8223,"AF":8224,"Ġlisting":8225,"bar":8226,"ashed":8227,"lackware":8228,"ellectual":8229,"ils":8230,"isy":8231,"Ġunlock":8232,"ĠGit":8233,"Ġtransitions":8234,"Ġconvert":8235,"ĠRO":8236,"Ġpermitted":8237,"Ġdisturb":8238,"Ġbreaking":8239,"Ġraise":8240,"ĠSwit":8241,"ithmet":8242,"Ġcaught":8243,"umes":8244,"SD":8245,"Ġunint":8246,"Ġdecentralized":8247,"Man":8248,"Ġpasses":8249,"Ġyoung":8250,"admin":8251,"Ġresistance":8252,"ĠDepending":8253,"Ġarchive":8254,"Ġscams":8255,"ĠSpectre":8256,"ermark":8257,"ĠNone":8258,"ĠWireless":8259,"Ġ!":8260,"Ġprepar":8261,"roll":8262,"RPMS":8263,"Ġlowest":8264,"Ġconversation":8265,"Ġpose":8266,"ĠAM":8267,"Ġtreated":8268,"ĠĠ":8269,"Ġtwice":8270,"Ġtreatment":8271,"Ġ36":8272,"Ġforth":8273,"ULNER":8274,"encrypted":8275,"cher":8276,"Ġcryptocurrency":8277,"Ġske":8278,"ĠStatus":8279,"ĠRecall":8280,"Ġraised":8281,"rian":8282,"ford":8283,"ĠAng":8284,"Ġcoin":8285,"Ġsurprising":8286,"Ġwebpage":8287,"echo":8288,"Ġquantitative":8289,"ĠDevice":8290,"Ġvirt":8291,"ias":8292,"Ġaggregate":8293,"'.":8294,"privile":8295,"anks":8296,"ĠCa":8297,"Ġmerely":8298,"gres":8299,"Ġtack":8300,"Ġrational":8301,"Ġadvice":8302,"sim":8303,"Ġorders":8304,"Ġlandscape":8305,"Ġlearns":8306,"Ġpatching":8307,"ĠRad":8308,"ulent":8309,"Ġlose":8310,"ĠDesktop":8311,"ĠSummary":8312,"Ġconnects":8313,"ott":8314,"Ġisolate":8315,"ĠHaving":8316,"Ġclar":8317,"Ġvert":8318,"Ġemot":8319,"Ġtrojan":8320,"then":8321,"Ġhandles":8322,"Ġabnormal":8323,"Ġreply":8324,"Ġoblig":8325,"Ġcomputes":8326,"Ġparticipant":8327,"inder":8328,"nv":8329,"lood":8330,"Ġnewer":8331,"Ġundet":8332,"Ġsecured":8333,"Ġangle":8334,"Ġestablishing":8335,"igen":8336,"Ġdollars":8337,"Ġdisclose":8338,"ĠMir":8339,"Ġhierarchy":8340,"Ġassistance":8341,"ĠEquation":8342,"ĠDirectory":8343,"Ġinnovation":8344,"ĠEncryption":8345,"disc":8346,"effective":8347,"Ġinserted":8348,"empl":8349,"izable":8350,"ĠPen":8351,"Ġring":8352,"Ġincorrectly":8353,"UST":8354,"Ġ800":8355,"ĠPaper":8356,"ĠJB":8357,"105":8358,"-------":8359,"Ġvital":8360,"ulletins":8361,"Ġowned":8362,"ĠCity":8363,"Ġvote":8364,"Cs":8365,"HS":8366,"Ġcareer":8367,"Ġpand":8368,"ĠColl":8369,"ĠPrior":8370,"Ġprox":8371,"Ġconstrained":8372,"Ġrows":8373,"chers":8374,"Ġinterpreted":8375,"Ġnonlinear":8376,"Ġcenters":8377,"ĠAnonymous":8378,"Ġrandomization":8379,"Ġrespondents":8380,"Ġsimpler":8381,"Ġ2001":8382,"Au":8383,"Tube":8384,"training":8385,"Ġlistening":8386,"Ġpeers":8387,"Ġ98":8388,"Ġpromin":8389,"ĠBI":8390,"ĠOnline":8391,"Ġdesigners":8392,"istingu":8393,"Ġupgrades":8394,"ĠLabor":8395,"/--------------------------------------------------------------------":8396,"ĠVULNER":8397,"ĠUNIX":8398,"Ġchains":8399,"hemical":8400,"Ġhab":8401,"Ġvisibility":8402,"Ġstructural":8403,"Ġencounter":8404,"ĠSil":8405,"Ġgadgets":8406,"ament":8407,"Ġrootkit":8408,"Ġ75":8409,"Ġevic":8410,"di":8411,"Ġcompromising":8412,"underbird":8413,"vention":8414,"Ġanywhere":8415,"Ġgraphical":8416,"Ġinsu":8417,"stable":8418,"rated":8419,"Ġuploaded":8420,"Ġscene":8421,"Ġeconomy":8422,"ART":8423,"Ã©":8424,"Ġpaying":8425,"GS":8426,"Ġlicens":8427,"Ġhiding":8428,"ithmetic":8429,"Ġprofit":8430,"orphic":8431,"Ġofficer":8432,"Ġremind":8433,"ĠFirewall":8434,"var":8435,"dfsg":8436,"bg":8437,"Ġrandomness":8438,"arms":8439,"public":8440,"ĠâĪ":8441,"Ġexisted":8442,"ĠMad":8443,"bus":8444,"Ġsenior":8445,"ĠTesting":8446,"Ġcontacts":8447,"bra":8448,"Def":8449,"Ġhex":8450,"ĠLanguage":8451,"ĠPCI":8452,"ĠUP":8453,"factor":8454,"Im":8455,"Ġmessaging":8456,"Ġconstit":8457,"istance":8458,"Ġcopied":8459,"Ġsquare":8460,"Ġgaining":8461,"Ġinitiate":8462,"Final":8463,"Be":8464,"protected":8465,"Ġregulatory":8466,"Ġfem":8467,"ahoo":8468,"Ġunspecified":8469,"Ġfunctionalities":8470,"ĠSoph":8471,"ĠVII":8472,"Ġexcell":8473,"ĠGrad":8474,"bert":8475,"VPN":8476,"Ġdownloads":8477,"104":8478,"ĠNode":8479,"uning":8480,"ĠCustomers":8481,"Ġcollision":8482,"Ġadjac":8483,"Ġmultip":8484,"ĠMessage":8485,"she":8486,"Ġlatent":8487,"Ġ256":8488,"ĠCompany":8489,"ĠDem":8490,"Ġflood":8491,"Ġlimiting":8492,"Ġspear":8493,"Ġreuse":8494,"Ġdefinite":8495,"ĠLSTM":8496,"PT":8497,"Rep":8498,"Ġciphers":8499,"Ġdegrees":8500,"ĠMichael":8501,"Ġreconstruction":8502,"rojans":8503,"Ġarise":8504,"Ġvisualization":8505,"Ġcomputations":8506,"About":8507,"Ġvan":8508,"Ġofficials":8509,"ĠYouTube":8510,"You":8511,"Ġarm":8512,"eting":8513,"script":8514,"iger":8515,"IFY":8516,"ĠPhysical":8517,"ĠMedia":8518,"ea":8519,"ĠTur":8520,"ĠSecret":8521,"Ġsynthes":8522,"mode":8523,"Ġutilities":8524,"Ġpull":8525,"Ġrepeat":8526,"Ġcores":8527,"ĠSometimes":8528,"local":8529,"Ġyields":8530,"Ġunf":8531,"Ġaccomplish":8532,"400":8533,"Ġcomparable":8534,"ĠParty":8535,"ĠACK":8536,"ĠInterest":8537,"Ġextens":8538,"iliary":8539,"ĠHyper":8540,"Ġneglig":8541,"coming":8542,"Ġtight":8543,"lets":8544,"Ġrestore":8545,"Ġranging":8546,"ĠKer":8547,"depth":8548,"Ġverifying":8549,"Ġcyberattacks":8550,"ĠVend":8551,"enuine":8552,"ĠCongress":8553,"mes":8554,"Ġenj":8555,"Ġseparation":8556,"Ġmatrices":8557,"Ġhierarchical":8558,"Ġunnecess":8559,"ĠScan":8560,"Ġcompens":8561,"MAC":8562,"Ġtrial":8563,"Ġdiscard":8564,"ĠImport":8565,"ften":8566,"ĠJo":8567,"These":8568,"Ġmutual":8569,"Ġinsufficient":8570,"Ġsupervised":8571,"Ġsimilarly":8572,"Ġprobe":8573,"Ġcalculation":8574,"uxiliary":8575,"ĠSV":8576,"ĠAccount":8577,"rooks":8578,"ĠBar":8579,"Ġ2002":8580,"Ġpredictive":8581,"Ġaccordingly":8582,"exec":8583,"Ġnaturally":8584,"Ġ//":8585,"Ġhijacking":8586,"serv":8587,"Ġpublish":8588,"Key":8589,"Ġdescriptions":8590,"Ġlegacy":8591,"ĠDS":8592,"viously":8593,"ĠGET":8594,"Ġmaybe":8595,"Ġvisited":8596,"Ġperception":8597,"Ġ48":8598,"Ġ1990":8599,"Ġlies":8600,"Ġadapted":8601,"byte":8602,"Ġplayed":8603,"Ġcongest":8604,"analysis":8605,"ĠAuto":8606,"Ġrarely":8607,"ĠNmap":8608,"ecommun":8609,"Ġconcerning":8610,"Ġprovision":8611,"RT":8612,"Ġincur":8613,"Ġmisle":8614,"artic":8615,"Ġsink":8616,"ĠTool":8617,"Ġdrone":8618,"ĠMTD":8619,"ĠHacking":8620,"Ġbounty":8621,"ĠTraffic":8622,"Ġobst":8623,"Ġresidual":8624,"CL":8625,"Ġcapturing":8626,"Ġoccurrence":8627,"Ġpartner":8628,"Ġparadigm":8629,"Ġscanners":8630,"isp":8631,"Ġwhom":8632,"Ġwit":8633,"ĠKorea":8634,"Ġcharacteristic":8635,"usr":8636,"Ġgran":8637,"Ġbasically":8638,"Ġbelongs":8639,"agon":8640,"Ġsuffer":8641,"uition":8642,"Ġpreserve":8643,"Ġmeter":8644,"ĠDefinitions":8645,"grained":8646,"ĠMor":8647,"iii":8648,"Ġconsiderable":8649,"ĠSuccessful":8650,"pet":8651,"random":8652,"Ġpayments":8653,"coded":8654,"Ġdemands":8655,"Ġcurves":8656,"When":8657,"Ġsystematic":8658,"Ġdissem":8659,"Ġcertified":8660,"DM":8661,"ĠFIG":8662,"zero":8663,"writing":8664,"ĠLight":8665,"aaaa":8666,"Ġcooperation":8667,"Ġpoisoned":8668,"TLS":8669,"Ġrich":8670,"ĠPassword":8671,"Ġdram":8672,"neg":8673,"CN":8674,"know":8675,"left":8676,"Ġforecast":8677,"Ġfacts":8678,"Int":8679,"Ġtechnological":8680,"Add":8681,"Ġperiodically":8682,"Ġplanned":8683,"making":8684,"Id":8685,"Ġfoundation":8686,"ĠDi":8687,"Ġsubreddit":8688,"Ġbelief":8689,"ĠSuper":8690,"mits":8691,"Flow":8692,"Ġranking":8693,"Ġpreferred":8694,"Ġhelping":8695,"Ġtransfers":8696,"ĠRL":8697,"Ġcompile":8698,"Ġrelays":8699,"seen":8700,"Ġpanel":8701,"ĠAttackers":8702,"Ġcaches":8703,"URL":8704,"js":8705,"rel":8706,"Ġkeyword":8707,"(),":8708,"Ġdisconn":8709,"Ġscientists":8710,"hard":8711,"Ġproducing":8712,"Ġconvenient":8713,"ĠCall":8714,"ĠTimes":8715,"Ġtransportation":8716,"gl":8717,"ĠMitig":8718,"ĠInfrastructure":8719,"ĠVULNERABILITY":8720,"Ġoverwrite":8721,"ĠSoci":8722,"Ġmas":8723,"Ġtrap":8724,"Ġspeaking":8725,"uctive":8726,"Ġdepicted":8727,"ĠKernel":8728,"ĠTrue":8729,"Ġnotation":8730,"Ġcyberspace":8731,"Ġworkload":8732,"Ġcracking":8733,"Ġexcess":8734,"ĠTools":8735,"ĠAfric":8736,"ĠLim":8737,"ĠPOST":8738,"ĠINF":8739,"Ġdriven":8740,"Ġequivalence":8741,"arious":8742,"Ġgraphics":8743,"Ġdistances":8744,"ĠRS":8745,"ulo":8746,"Ġstrictly":8747,"ĠBel":8748,"firefox":8749,"Ġproactive":8750,"Ġplugin":8751,"Ġmobility":8752,"ĠCommunication":8753,"ĠIss":8754,"Ġorganisation":8755,"Ġforums":8756,"azine":8757,"ailed":8758,"Ġexperiences":8759,"Ġdiscussions":8760,"Ġsampled":8761,"Ġgeneralization":8762,"ĠPowerShell":8763,"Ġfinished":8764,"iques":8765,"Ġinfo":8766,"ĠExchange":8767,"Ġdrops":8768,"Ġrecru":8769,"ĠNat":8770,"ĠNULL":8771,"Ġattachments":8772,"ĠProcessing":8773,"Ġopinion":8774,"ĠLater":8775,"ITLE":8776,"Ġnavigation":8777,"Ġunusual":8778,"Ġrepeatedly":8779,"Ġrecovered":8780,"Ġcollaborative":8781,"king":8782,"Ġcaller":8783,"win":8784,"ansion":8785,"Ġfrequencies":8786,"unting":8787,"Ġaver":8788,"ĠView":8789,"Ġconstructs":8790,"virus":8791,"antic":8792,"oken":8793,"Table":8794,"CD":8795,"Ġcountermeasure":8796,"Ġfingerprinting":8797,"Ġsolely":8798,"ĠCopyright":8799,"Ġ300":8800,"Hub":8801,"Ġdirector":8802,"IoT":8803,"Ġputting":8804,"Ġfaces":8805,"Ġprimitives":8806,"Ġvice":8807,"middle":8808,"Ġproportion":8809,"ĠDon":8810,"Ġfulfill":8811,"Guard":8812,"Ġbenchmarks":8813,"gen":8814,"eland":8815,"ĠâĢ¦":8816,"ĠAVAIL":8817,"Ġflooding":8818,"Critical":8819,"ĠSAP":8820,"Ġproposal":8821,"Ġgenuine":8822,"ague":8823,"subscribe":8824,".--------------------------------------------------------------------":8825,"Ġgarb":8826,"Ġdeeper":8827,"ĠEM":8828,"ĠFunction":8829,"imeter":8830,"Ġannual":8831,"engine":8832,"ĠGDPR":8833,"Ġleveraged":8834,"Ġnarrow":8835,"ĠStandards":8836,"cal":8837,"iences":8838,"Ġquad":8839,"ĠToday":8840,"ubscribe":8841,"Ġap":8842,"Ġ34":8843,"Ġfraudulent":8844,"ĠWorkstation":8845,"nb":8846,"enetic":8847,"ĠResear":8848,"ĠPerformance":8849,"Ġinjecting":8850,"Ġagreed":8851,"ĠTerm":8852,"Ġcharacterize":8853,"Ġreject":8854,"(\"":8855,"interference":8856,"AND":8857,"Ġtransparent":8858,"Ġcompatibility":8859,"Ġfunding":8860,"Ġpros":8861,"Ġhel":8862,"ĠOverall":8863,"Ġworkaround":8864,"storms":8865,"Ġtransformed":8866,"Ġdrawn":8867,"elled":8868,"valid":8869,"Ġdistribute":8870,"ycle":8871,"ĠCorporation":8872,"lt":8873,"ostic":8874,"Ġlisten":8875,"modules":8876,"ĠDynamic":8877,"ĠNessus":8878,"Ġheight":8879,"ĠHu":8880,"Ġinclusion":8881,"ĠSpace":8882,"sign":8883,"house":8884,"tra":8885,"mozilla":8886,"Ġmedian":8887,"2006":8888,"Ġkit":8889,"Ġthanks":8890,"Ġcities":8891,"Ġmaliciously":8892,"Uns":8893,"Ġ()":8894,"ĠLeg":8895,"ĠAVAILABLE":8896,"ĠDiff":8897,"They":8898,"uracy":8899,"ĠTL":8900,"Ġcorrelated":8901,"ĠHel":8902,"'ll":8903,"Ġconform":8904,"Ġreaching":8905,"pres":8906,"Ġmovie":8907,"Ġarithmetic":8908,"Ġassessments":8909,"ĠAustralia":8910,"Ġbirth":8911,"aten":8912,"Ġprotections":8913,"Ġconclusions":8914,"iled":8915,"inet":8916,"build":8917,"Ġdigits":8918,"Ġ(@":8919,"ana":8920,"ese":8921,"ĠAF":8922,"ĠVERIFY":8923,"Ġconjunction":8924,"ĠMake":8925,"vm":8926,"Ġprepare":8927,"Ġtruly":8928,"aid":8929,"click":8930,"Ġengage":8931,"Ġnegot":8932,"Ġmeters":8933,"Ġconsistently":8934,"Ġwatermark":8935,"essor":8936,"Ġrend":8937,"Ġecho":8938,"Ġformulation":8939,"Ġliving":8940,"Ġdiscusses":8941,"Ġchart":8942,"NG":8943,"Ġutilizes":8944,"Ġstations":8945,"gresql":8946,"ĠWithin":8947,"ĠExecution":8948,"Ġnom":8949,"Ġtaint":8950,"pers":8951,"Ġcast":8952,"learning":8953,"ja":8954,"Ġseparated":8955,"ĠAnti":8956,"istinguish":8957,"Ġdeliber":8958,"wd":8959,"Ġgaps":8960,"Ġlove":8961,"ĠMI":8962,"Ġusernames":8963,"Point":8964,"Ġbuilds":8965,"Ġoptical":8966,"iltr":8967,"Tech":8968,"typ":8969,"ĠCrypto":8970,"ĠPubl":8971,"ĠRC":8972,"direct":8973,"Ġquantify":8974,"Ġgeneralized":8975,"ait":8976,"encing":8977,"ĠBurp":8978,"Ġheuristic":8979,"Ġ================":8980,"Ġrecur":8981,"Ġple":8982,"Ġ65":8983,"ĠCommit":8984,"Ġchooses":8985,"mitre":8986,"ĠUI":8987,"UB":8988,"))":8989,"ĠSpecial":8990,"stormsecurity":8991,"Ġindicator":8992,"Ġgains":8993,"ĠATM":8994,"Ġplays":8995,"ĠAssess":8996,"Ġprimitive":8997,"Ġbridge":8998,"From":8999,"Ġintellectual":9000,"otic":9001,"dem":9002,"riva":9003,"Ġartifacts":9004,"ĠExc":9005,"Ġcircumvent":9006,"losure":9007,"char":9008,"gebra":9009,"Ġcoordination":9010,"CPS":9011,"Ġdifferently":9012,"ĠProblem":9013,"Ġregulation":9014,"ĠWell":9015,"asure":9016,"packetstormsecurity":9017,"Ġoccurring":9018,"Ġpuzz":9019,"Ġexhibit":9020,"sensitive":9021,"Ġencourage":9022,"pan":9023,"Ġavoiding":9024,"Ġneut":9025,"Ġtrustworth":9026,"Ġ37":9027,"Ġfacial":9028,"Ġbuff":9029,"Ġactuators":9030,"Ps":9031,"Ġcentr":9032,"Ġouts":9033,"etime":9034,"vi":9035,"ĠForce":9036,"allow":9037,"target":9038,"Ġgates":9039,"Ġinvestigations":9040,"Ġincomplete":9041,"Ġinfiltr":9042,"Ġequally":9043,"ĠTrump":9044,"ĠLic":9045,"lean":9046,"Ġtrivial":9047,"liminary":9048,"ĠDirector":9049,"Ġproposes":9050,"Ġlaunching":9051,"Ġhub":9052,"Ġadequate":9053,"Ġauxiliary":9054,"Ġstopped":9055,"acon":9056,"ĠSolar":9057,"zilla":9058,"Ġscalable":9059,"Ġcompetitive":9060,"advant":9061,"ĠDay":9062,"ĠAdministr":9063,"Ġcasc":9064,"Ġvirtualization":9065,"INAL":9066,"ebooks":9067,"Box":9068,"ĠTypically":9069,"Ġpadding":9070,"Ġsleep":9071,"Ġfather":9072,"Ġattachment":9073,"255":9074,"eff":9075,"ih":9076,"Ġanomalous":9077,"Ġrestriction":9078,"vironment":9079,"Ġfear":9080,"ĠBlue":9081,"ĠTH":9082,"Ġbuck":9083,"Ġbrings":9084,"Ġcharacterized":9085,"ĠTom":9086,"ĠLive":9087,"Ġaggress":9088,"ĠFil":9089,"ĠDatabase":9090,"Ġinspired":9091,"Ġspyware":9092,"havi":9093,"parameters":9094,"Service":9095,"Ġcombines":9096,"requency":9097,"ta":9098,"tically":9099,"Ġ01":9100,"ĠCouncil":9101,"Ġcommitment":9102,"ĠMot":9103,"Ġdisruption":9104,"Ġsummarized":9105,"ICS":9106,"EA":9107,"ĠDu":9108,"Ġhoneypot":9109,"ailability":9110,"wart":9111,"Ġdecrypted":9112,"Ġendpoints":9113,"search":9114,"Ġepis":9115,"ĠAgent":9116,"EGIN":9117,"Ġmerch":9118,"Ġdiscipl":9119,"ref":9120,"ka":9121,"ĠHand":9122,"Os":9123,"ĠSophos":9124,"ems":9125,"reet":9126,"Ġselling":9127,"libc":9128,"System":9129,"ĠArchitecture":9130,"ĠCred":9131,"Ġordered":9132,"</":9133,"Ġvertex":9134,"ASE":9135,"Ġoffensive":9136,"Ġrh":9137,"Ġoperated":9138,"Ġwarfare":9139,"Ġbigger":9140,"ĠBot":9141,"vin":9142,"Ġenforced":9143,"Ġpercept":9144,"index":9145,"Ġroutes":9146,"Ġphenomenon":9147,"ĠÂ":9148,"controlled":9149,"Ġstock":9150,"Qu":9151,"Ġfacing":9152,"Ġspending":9153,"ANET":9154,"Name":9155,"Ġremark":9156,"Ġhappening":9157,"Ġ41":9158,"ĠSat":9159,"ĠLLC":9160,"Ġexcellent":9161,"ĠCost":9162,"Ġvalidated":9163,"ronics":9164,"Ġmir":9165,"Ġaren":9166,"also":9167,"Ġheat":9168,"oad":9169,"Ġdelet":9170,"Ġemploys":9171,"Ġunav":9172,"ĠAnn":9173,"IME":9174,"Ġgenerative":9175,"Ġnice":9176,"Ġintuition":9177,"tices":9178,"Ġgrab":9179,"Ġpresident":9180,"urch":9181,"Ġbund":9182,"Ġpert":9183,"riend":9184,"urpose":9185,"IV":9186,"ĠInitial":9187,"arest":9188,"Ġdaemon":9189,"date":9190,"Ġhur":9191,"ĠTele":9192,"ĠRight":9193,"ĠClick":9194,"Ġaccord":9195,"Ġfourth":9196,"Ġdamages":9197,"USE":9198,"itud":9199,"Ġmanipulated":9200,"Ġwal":9201,"ynchronous":9202,"Ġexceptions":9203,"Ġnoarch":9204,"ROM":9205,"BEGIN":9206,"ĠNEVER":9207,"CK":9208,"ĠRich":9209,"Ġparents":9210,"Ġca":9211,"ĠInjection":9212,"Ġtaxonomy":9213,"Ġauditing":9214,"Ġencountered":9215,"129":9216,"Ġoutlined":9217,"this":9218,"Ġheard":9219,"utation":9220,"Ġpromote":9221,"Ġactivated":9222,"Press":9223,"Ġobviously":9224,"unsubscribe":9225,"ĠTO":9226,"ĠGB":9227,"Ġfold":9228,"Ġignored":9229,"unc":9230,"Ġdoct":9231,"Ġclassic":9232,"ĠHom":9233,"ĠZe":9234,"Ġelectricity":9235,"Ġboost":9236,"ustration":9237,"Ġticket":9238,"ĠRather":9239,"Ġweapons":9240,"ISA":9241,"rench":9242,"KI":9243,"Criticality":9244,"Unsubscribe":9245,"ICE":9246,"onents":9247,"Ġbackward":9248,"Ġlets":9249,"Ġnoisy":9250,"Ġcool":9251,"ĠEar":9252,"ĠVMs":9253,"Ġcum":9254,"Ġminers":9255,"Ġconfusion":9256,"Ġanim":9257,"Ġvaries":9258,"Ġweighted":9259,"Ġneighborhood":9260,"ĠNotes":9261,"Ġeverybody":9262,"erving":9263,"Ġresponsibilities":9264,"ĠHar":9265,"Ġdut":9266,"Ġdistortion":9267,"ini":9268,"Ġfilename":9269,"istant":9270,"Ġmethodologies":9271,"iary":9272,"ounder":9273,"Ġont":9274,"Ġbroader":9275,"vol":9276,"non":9277,"Ġconsec":9278,"Ġgoods":9279,"ĠFast":9280,"Ġconserv":9281,"HN":9282,"Ġsatellite":9283,"Ġmultiplication":9284,"nvd":9285,"Eye":9286,"Ġprogrammers":9287,"Ġfaced":9288,"ĠFranc":9289,"Ġpredefined":9290,"Type":9291,"Ġspecifying":9292,"ĠCPUs":9293,"Ġacting":9294,"Ġdraft":9295,"Ġapproved":9296,"Ġcounts":9297,"apes":9298,"WARE":9299,"ommod":9300,"alone":9301,"Ġparticipate":9302,"ĠVector":9303,"ĠGuard":9304,"ĠUAVs":9305,"frame":9306,"Ġatomic":9307,"Ġpreceding":9308,"abet":9309,"crib":9310,"cious":9311,"Ġdise":9312,"entest":9313,"cisa":9314,"110":9315,"CVSS":9316,"Ġpurs":9317,"ĠSMTP":9318,"Ġautomate":9319,"Ġbehalf":9320,"ĠAB":9321,"ĠRest":9322,"Ġexploration":9323,"libs":9324,"Ġcounterpart":9325,"Ġpump":9326,"jdk":9327,"Ġstead":9328,"ĠCompared":9329,"python":9330,"Ġenjoy":9331,"model":9332,"ĠTransport":9333,"Ġoutperforms":9334,"Ġfingerprints":9335,"Ġuniversity":9336,"kits":9337,"RA":9338,"Ġsummarize":9339,"Ġcompares":9340,"Ġunnecessary":9341,"Ġattest":9342,"ĠKingdom":9343,"Ġpain":9344,"rich":9345,"Ġsynthesis":9346,"Ġminimizing":9347,"Ġsubscription":9348,"acles":9349,"QU":9350,"Lab":9351,"ĠVari":9352,"Ġmistakes":9353,"Ġdisapp":9354,"ĠCRIT":9355,"Ġfilesystem":9356,"ĠStack":9357,"Ġheterogeneous":9358,"Ġworry":9359,"riber":9360,"Ġdiffers":9361,"ĠCFI":9362,"Ġwitness":9363,"Ġextends":9364,"Ġprinted":9365,"ITE":9366,"pus":9367,"RS":9368,"Ġhole":9369,"Ġsurrounding":9370,"cover":9371,"Ġdefeat":9372,"room":9373,"Ġdecade":9374,"TITLE":9375,"Ġmacro":9376,"Ġfeasibility":9377,"Ġaccommod":9378,"krain":9379,"ĠMalicious":9380,"Ġexpanded":9381,"ĠRout":9382,"ĠCN":9383,"boss":9384,"Ġboxes":9385,"ĠNN":9386,"ĠVirus":9387,"Ġexpansion":9388,"syngress":9389,"privileged":9390,"ondon":9391,"Ġleverages":9392,"ĠEffect":9393,"ĠDev":9394,"Ġextracting":9395,"Ġrobots":9396,"onsored":9397,"Ġfed":9398,"ĠMB":9399,"isons":9400,"Ġelabor":9401,"ĠTCB":9402,"Ġauthenticity":9403,"Ġimportantly":9404,"128":9405,"uate":9406,"ĠBell":9407,"Ġasks":9408,"backs":9409,"Ġmodular":9410,"Ġnormalized":9411,"ĠPract":9412,"Ġinitiated":9413,"Ġnine":9414,"Based":9415,"Ġnotable":9416,"Ġstartup":9417,"Ġrated":9418,"Ġtermination":9419,"Ġcategorized":9420,"Ġedit":9421,"plain":9422,"Ġbeneficial":9423,"ĠSMB":9424,"onic":9425,"ĠDate":9426,"ĠRegard":9427,"urity":9428,"Ġexamining":9429,"Ġoptional":9430,"ban":9431,"itories":9432,"Ġinvestigating":9433,"ĠTechnologies":9434,"asive":9435,"ball":9436,"ipedia":9437,"ĠStorage":9438,"theore":9439,"Ġconsiderations":9440,"Ġarrang":9441,"Ġjail":9442,"192":9443,"ĠYahoo":9444,"SRPMS":9445,"Ġpictures":9446,"idering":9447,"uple":9448,"Ġviewing":9449,"ĠSnort":9450,"?\"":9451,"MB":9452,"rip":9453,"ĠCourt":9454,"Ġsale":9455,"ĠFalse":9456,"ĠCRITICAL":9457,"Ġcostly":9458,"ula":9459,"Ġholding":9460,"ĠOffic":9461,"Web":9462,"ĠRecently":9463,"Ġscheduled":9464,"Ġprobing":9465,"Ġcommitted":9466,"Ġformulas":9467,"Attack":9468,"Ġconverted":9469,"Ġengagement":9470,"CO":9471,"Ġaccum":9472,"ista":9473,"Ġpredicate":9474,"hether":9475,"Ġtelevision":9476,"Ġincorporated":9477,"ĠHE":9478,"ĠBat":9479,"rovers":9480,"Ġ38":9481,"Ġcarrying":9482,"ĠReli":9483,"ĠYes":9484,"Ġutilization":9485,"Ġrewards":9486,"ĠHouse":9487,"ĠOrig":9488,"ĠNCC":9489,"sn":9490,"Ġnoting":9491,"Ġstands":9492,"iverse":9493,"ĠOl":9494,"oon":9495,"Ġpreferences":9496,"Ġfab":9497,"Ġpurchased":9498,"relevant":9499,"Ġauthentic":9500,"Ġunsafe":9501,"Linux":9502,"jpp":9503,"Ġconvex":9504,"Ġtracing":9505,"Ġbitcoin":9506,"outs":9507,"Ġprotects":9508,"ĠAlternatively":9509,"essage":9510,"Ġownership":9511,"ĠORIG":9512,"Ġtracks":9513,"Ġkeylog":9514,"Ġindistinguish":9515,"aur":9516,"Ġcentury":9517,"ĠUkrain":9518,"ĠAssociation":9519,"Ġdisadvant":9520,"Ġprominent":9521,"Ġnotifications":9522,"lor":9523,"ĠPath":9524,"Ġminute":9525,"Ġ42":9526,"Ġ1999":9527,"Ġpun":9528,"Ġfigures":9529,"Ġfee":9530,"Ġreflected":9531,"Ġdesirable":9532,"Ġorganisations":9533,"Ġtimely":9534,"ĠShell":9535,"Ġguys":9536,"tools":9537,"Ġcrimes":9538,"Pack":9539,"ris":9540,"Ġabort":9541,"rt":9542,"spar":9543,"merce":9544,"Ġhear":9545,"ĠMySQL":9546,"FGSM":9547,"Ġloops":9548,"Ġperfectly":9549,"ĠBoot":9550,"Ġpreliminary":9551,"IZ":9552,"Ġepochs":9553,"ĠCSS":9554,"Ġsimplified":9555,"Lib":9556,"Ġimpacted":9557,"Ġsafely":9558,"ĠFlow":9559,"Ġgone":9560,"ĠPA":9561,"quer":9562,"ĠUpon":9563,"Ġsmoot":9564,"Ġgenerators":9565,"ĠDel":9566,"ĠDark":9567,"Ġsuit":9568,"onds":9569,"dig":9570,"ects":9571,"pdf":9572,"Ġexchanged":9573,"Ġaward":9574,"Ġodd":9575,"ĠBACK":9576,"Ġdecoy":9577,"Ġrecognizing":9578,"pg":9579,"ĠGate":9580,"nes":9581,"ĠAMD":9582,"Ġcovering":9583,"Ġ43":9584,"ĠEV":9585,"Ġhaz":9586,"ĠWilli":9587,"inated":9588,"Ġicon":9589,"Ġdesigner":9590,"ĠQual":9591,"bps":9592,"258":9593,"ĠFAT":9594,"ĠZhang":9595,"Ġnegligible":9596,"ITH":9597,"lott":9598,"ĠDocument":9599,"ĠFrance":9600,"bounded":9601,"ĠOW":9602,"posium":9603,"Ġencrypting":9604,"ĠCM":9605,"Ġchances":9606,"ĠTransfer":9607,"ĠCOM":9608,"ĠWang":9609,"arency":9610,"Ġminer":9611,"exploit":9612,"Ġdeclared":9613,"ithub":9614,"Ġbackdoors":9615,"ĠVGG":9616,"Hash":9617,"apache":9618,"ĠYet":9619,"ĠRecogn":9620,"Ġchief":9621,"Ġturning":9622,"Ġobfuscated":9623,"Ġencode":9624,"ĠRoot":9625,"Ġdeny":9626,"Ġovers":9627,"acies":9628,"function":9629,"rict":9630,"Ġproxies":9631,"offs":9632,"Ġemerged":9633,"Ġreactive":9634,"Ġaccordance":9635,"information":9636,"eas":9637,"dden":9638,"Ġcorpor":9639,"ĠSpr":9640,"ĠLu":9641,"Ġretrieved":9642,"Ġdecades":9643,"Ġlaser":9644,"ĠLondon":9645,"Ġseeking":9646,"Ġaw":9647,"ĠBGP":9648,"Ġtemplates":9649,"TM":9650,"-----":9651,"ishers":9652,"Ġforget":9653,"Ġappearance":9654,"Test":9655,"Ġdefinitely":9656,"Server":9657,"Ġtyped":9658,"through":9659,"limited":9660,"reate":9661,"Ġcontinuity":9662,"Time":9663,"sion":9664,"cident":9665,"gery":9666,"city":9667,"roke":9668,"Ġadvoc":9669,"ĠMart":9670,"Ġ44":9671,"ĠFL":9672,"OV":9673,"Ġrequesting":9674,"henticated":9675,"ĠImproving":9676,"Ġ53":9677,"ĠDistributed":9678,"Ġscoring":9679,"Ġcollects":9680,"ĠBugs":9681,"Ġexecutives":9682,"ĠClear":9683,"Ġcoordinated":9684,"Ġredundant":9685,"Ġsudden":9686,"uses":9687,"ĠmacOS":9688,"ĠCond":9689,"Ġinstitution":9690,"Ġordinary":9691,"iable":9692,"ĠOVER":9693,"ĠEth":9694,"Ġbomb":9695,"ammer":9696,"Ġleadership":9697,"Ġprevented":9698,"Ġprey":9699,"Ġdesk":9700,"Ġcrooks":9701,"Ġcombat":9702,"ĠIE":9703,"Ġcrashes":9704,"Ġoverlap":9705,"articles":9706,"ĠHardware":9707,"ĠSing":9708,"ĠORIGINAL":9709,"Ġinher":9710,"raz":9711,"Ġselects":9712,"Ġemb":9713,"Ġgray":9714,"Ġsparse":9715,"Ġinvoked":9716,"ĠResearchers":9717,"ORM":9718,"stage":9719,"ĠBL":9720,"ario":9721,"ried":9722,"ĠIndustry":9723,"estern":9724,"ĠCertific":9725,"gradation":9726,"Ġnetworked":9727,"Ġ56":9728,"Ġlots":9729,"Ġteac":9730,"ĠBer":9731,"Ġmultic":9732,"ĠScoring":9733,"ĠTS":9734,"Ġcongestion":9735,"ĠIsra":9736,"ĠBasic":9737,"Ġbird":9738,"Ġwhit":9739,"ĠPU":9740,"Ġredundancy":9741,"ĠResource":9742,"ĠiPad":9743,"ĠPacket":9744,"LOIT":9745,"Ġposture":9746,"eping":9747,"ĠLock":9748,"203":9749,"ĠVendor":9750,"Ġdoz":9751,"CII":9752,"Ġopposite":9753,"Ġ150":9754,"ĠJP":9755,"ĠFrench":9756,"ĠNP":9757,"nn":9758,"ĠComparison":9759,"Ġwider":9760,"Ġaccounting":9761,"ximity":9762,"Ġhighlights":9763,"Ġpartitions":9764,"Version":9765,"Ġsomewhere":9766,"Ġassociation":9767,"Ġimagine":9768,"Ġeducational":9769,"ĠDM":9770,"zip":9771,"ĠPan":9772,"rones":9773,"ĠDHCP":9774,"BN":9775,"Ġinvariant":9776,"Ġdistill":9777,"isted":9778,"Ġinteracting":9779,"Ġdeter":9780,"nist":9781,"han":9782,"Ġaffor":9783,"Ġcourses":9784,"ĠFiles":9785,"lands":9786,"Ġvertical":9787,"agent":9788,"ncies":9789,"eness":9790,"Ġmailing":9791,"Ġcoordinate":9792,"Ġattractive":9793,"Ġdie":9794,"ĠNort":9795,"can":9796,"Ġrigor":9797,"Ob":9798,"Ġevaluations":9799,"poof":9800,"ĠInvestig":9801,"ogram":9802,"Ġevolving":9803,"Ġwall":9804,"Ġevolved":9805,"Ġlie":9806,"PE":9807,"ĠEXPLOIT":9808,"Ġunsupervised":9809,"plug":9810,"Ġvertices":9811,"Ġang":9812,"Ġassessing":9813,"Ġguessing":9814,"Ġ96":9815,"Ġworker":9816,"ĠVisual":9817,"zant":9818,"Ġloader":9819,"ĠGitHub":9820,"ĠAz":9821,"ĠMont":9822,"Ġbattle":9823,"Ġreaction":9824,"Ġprices":9825,"Ġforest":9826,"ĠSchool":9827,"phishing":9828,"Ġglobally":9829,"edy":9830,"Ġregularization":9831,"ĠGen":9832,"openjdk":9833,"ĠCommittee":9834,"Ġcustomized":9835,"orig":9836,"Ġmitigations":9837,"Ġoverw":9838,"ĠMeanwhile":9839,"ĠHot":9840,"ĠEF":9841,"Ġmistake":9842,"Rs":9843,"ĠLicense":9844,"ĠOperation":9845,"View":9846,"ĠKen":9847,"Ġinfections":9848,"Ġspreading":9849,"Ġadjacent":9850,"Ġconversations":9851,"iers":9852,"osis":9853,"Ġunderground":9854,"ĠCV":9855,"uble":9856,"Ġchips":9857,"Ġprol":9858,"aping":9859,"Ġresolved":9860,"Ġ400":9861,"Ġweapon":9862,"ĠLaboratory":9863,"Ġfeder":9864,"ĠLIN":9865,"urrencies":9866,"ĠVers":9867,"ker":9868,"Ġsmooth":9869,"ĠBIOS":9870,"ĠJBoss":9871,"Ġmanipulating":9872,"Ġalgebra":9873,"ĠIdentity":9874,"Ġintersection":9875,"inement":9876,"Ġconcluded":9877,"Ġproving":9878,"ĠDNA":9879,"rs":9880,"Ġpit":9881,"Ġcellular":9882,"Ġthresholds":9883,"ĠOtherwise":9884,"IB":9885,"ĠSociety":9886,"inity":9887,"NNs":9888,"Ġment":9889,"Ġtolerance":9890,"Ġvolumes":9891,"ado":9892,"Ġpeak":9893,"Ġ55":9894,"Ġstudying":9895,"Ġconsecutive":9896,"ĠForens":9897,"Ġcompletion":9898,"Ġdecoding":9899,"ĠCentral":9900,"ENC":9901,"Ġtends":9902,"Go":9903,"STEM":9904,"appro":9905,"Ġpushed":9906,"ĠMitigation":9907,"Ġmandatory":9908,"ĠMA":9909,"Microsoft":9910,"ORT":9911,"kin":9912,"table":9913,"Ġrecommendation":9914,"00000000":9915,"Mod":9916,"ĠPlayer":9917,"ĠBoolean":9918,"Ġrendering":9919,"train":9920,"istically":9921,"ĠElectronic":9922,"Ġdegradation":9923,"ĠLoad":9924,"Ġnations":9925,"Ġended":9926,"ainment":9927,"Ġadvised":9928,"Ġmatched":9929,"ifer":9930,"Ġcurrency":9931,"ĠBelow":9932,"Ġaccepts":9933,"ĠEnvironment":9934,"ĠGreen":9935,"Ġroutines":9936,"ĠMit":9937,"Process":9938,"ĠLat":9939,"ĠGUI":9940,"ĠMain":9941,"ĠGenerally":9942,"Ġbehave":9943,"Ġspeculative":9944,"Ġcontrovers":9945,"Ġnearby":9946,"stein":9947,"ĠRAT":9948,"Ġprincipals":9949,"ĠGame":9950,"ĠFuture":9951,"ALL":9952,"All":9953,"Ġadvances":9954,"zing":9955,"Ġarchitectural":9956,"Ġinteroper":9957,"Ġcalculating":9958,"ĠPhishing":9959,"onder":9960,"Ġhospital":9961,"Ġtrajectory":9962,"Ġfetch":9963,"Ġsnipp":9964,"EST":9965,"Ġexploring":9966,"ĠPy":9967,"Ġexecutions":9968,"Ġreachable":9969,"isis":9970,"ĠSimple":9971,"Sim":9972,"Ġfont":9973,"ĠSOC":9974,"Ġreflects":9975,"Ġ86":9976,"Ġpilot":9977,"ATA":9978,"utable":9979,"metry":9980,"ĠMC":9981,"ĠPH":9982,"bing":9983,"Ġdot":9984,"ĠĊ":9985,"ĠInterface":9986,"Ġwear":9987,"Ġwidth":9988,"Ġintrusions":9989,"Ġoil":9990,"Ġdescent":9991,"Ġfusion":9992,"ĠDISCO":9993,"Pl":9994,"inator":9995,"iances":9996,"Ġcorpus":9997,"Ġfals":9998,"ĠEcon":9999,"Ġperpet":10000,"Ġdisaster":10001,"ĠRequest":10002,"Ġremainder":10003,"Tor":10004,"Ġbanned":10005,"Ġviolate":10006,"Ġpublishing":10007,"ANS":10008,"indow":10009,"ico":10010,"Ġplacement":10011,"axis":10012,"Ġimproper":10013,"Ġstim":10014,"Ġassociate":10015,"Ġnonce":10016,"No":10017,"GRO":10018,"ĠOff":10019,"ĠEq":10020,"sol":10021,"ĠCSP":10022,"Ġpatent":10023,"Ġcompilation":10024,"ĠIMPACT":10025,"Ġconstructing":10026,"----------":10027,"Ġ|------------":10028,"Ġspeaker":10029,"Ġmother":10030,"url":10031,"Ġpseudo":10032,"Ġpandemic":10033,"ĠIntuitively":10034,"Ġgreatest":10035,"ĠKnowledge":10036,"TY":10037,"ĠText":10038,"ĠSIP":10039,"lang":10040,"Ġoverwhel":10041,"amm":10042,"ĠImportant":10043,"Ġ39":10044,"Fig":10045,"stat":10046,"ĠRecent":10047,"ĠLD":10048,"squ":10049,"Ġ97":10050,"Ġintuitive":10051,"lic":10052,"ĠHo":10053,"ĠDOS":10054,"Ġissuing":10055,"IES":10056,"ĠOutput":10057,"ethe":10058,"ĠFixed":10059,"DUC":10060,"loop":10061,"Ġperiodic":10062,"Ġweather":10063,"aled":10064,"arg":10065,"Ġpulled":10066,"ĠTech":10067,"Ġslot":10068,"Ġpossibilities":10069,"ĠOrganization":10070,"ĠUnit":10071,"Ġlegislation":10072,"Ġalarms":10073,"holder":10074,"Ġ85":10075,"Ġperimeter":10076,"unctional":10077,"scanning":10078,"Ġaccomplished":10079,"Ġ47":10080,"Ġobservable":10081,"TCP":10082,"nu":10083,"ĠMic":10084,"Ġdates":10085,"Ġgir":10086,"REA":10087,"Ġcolors":10088,"Ġtransmitting":10089,"Ġhashing":10090,"Ġaltered":10091,"ĠTrojans":10092,"DL":10093,"ansomware":10094,"ĠCurrently":10095,"unctions":10096,"ek":10097,"Ġmargin":10098,"ĠONLY":10099,"Ġlightweight":10100,"ĠDO":10101,"Ġpark":10102,"ĠSafari":10103,"Ġdenied":10104,"ĠIntro":10105,"Ġmovements":10106,"HSA":10107,"Ġvisiting":10108,"Ġgovernance":10109,"outer":10110,"ĠRemember":10111,"Ġrelates":10112,"Ġmanages":10113,"Ġoverflows":10114,"person":10115,"Ġclaiming":10116,"Ġcorner":10117,"And":10118,"Comm":10119,"Ġstating":10120,"ĠNCCIC":10121,"Ġattribution":10122,"inate":10123,"HTML":10124,"ĠAssessment":10125,"itle":10126,"ĠTotal":10127,"Ġrevealing":10128,"AME":10129,"Ġmitigating":10130,"Ġtester":10131,"rame":10132,"Ġdepartments":10133,"Ġcomfort":10134,"ASP":10135,"apped":10136,"ĠExpl":10137,"esh":10138,"Ġafford":10139,"ĠSurve":10140,"Ġargued":10141,"Ġgenetic":10142,"lini":10143,"iki":10144,"Ġpredicting":10145,"Ġterminate":10146,"Ġflat":10147,"elect":10148,"rogate":10149,"Ġfloor":10150,"Ġreadily":10151,"Ġupgraded":10152,"Ġpractition":10153,"Ġdeclar":10154,"Ġevolve":10155,"Ġpublications":10156,"ĠRemed":10157,"Ġthwart":10158,"Ts":10159,"ĠLTS":10160,"Ġprogramm":10161,"tml":10162,"Ġoutgoing":10163,"Ġquarter":10164,"Ġdeem":10165,"apters":10166,"Ġdiscussing":10167,"Ġlem":10168,"Ġstrengthen":10169,"ĠSEL":10170,"ĠLabs":10171,"Ġbid":10172,"ĠTask":10173,"gue":10174,"Ġarbitr":10175,"ĠPROVID":10176,"Ġvisitors":10177,"Ġsimplest":10178,"ĠCL":10179,"itics":10180,"ĠFR":10181,"ĠACL":10182,"ĠThree":10183,"ĠError":10184,"ĠEas":10185,"800":10186,"ĠContact":10187,"ĠPop":10188,"ĠScen":10189,"Ġ================================================================":10190,"ĠCOMP":10191,"theoretic":10192,"Ġincome":10193,"Ġnan":10194,"ĠBrowser":10195,"ĠGold":10196,"Or":10197,"advisory":10198,"Ġunc":10199,"malware":10200,"ĠAccuracy":10201,"ĠFour":10202,"ĠBrow":10203,"pert":10204,"Ġsounds":10205,"ĠSuite":10206,"Ġextensively":10207,"uid":10208,"ĠIRC":10209,"Ġrevocation":10210,"ĠEns":10211,"Ġoffices":10212,"Ġobserver":10213,"Ġinduced":10214,"Ġlengths":10215,"Bu":10216,"itz":10217,"teness":10218,"clear":10219,"Ġsignificance":10220,"beros":10221,"ĠConv":10222,"Ġdanger":10223,"ĠBet":10224,"ĠSeries":10225,"Ġdisassemb":10226,"Cloud":10227,"Ġ46":10228,"Ġmatters":10229,"ĠEduc":10230,"ĠChall":10231,"Ġvelo":10232,"Ġparticipating":10233,"ander":10234,"sparc":10235,"Ġpersistence":10236,"ĠJames":10237,"orse":10238,"Ġ________________________________":10239,"ĠPhase":10240,"Ġprosec":10241,"Ġasymmetric":10242,"ĠIntegrity":10243,"Kit":10244,"Ġtrouble":10245,"Ġhint":10246,"Rec":10247,"struction":10248,"ĠConfiguration":10249,"life":10250,"ben":10251,"zantine":10252,"wan":10253,"ĠElectric":10254,"Ġtransmitter":10255,"ĠAutomation":10256,"iative":10257,"Ġscaling":10258,"Ġrender":10259,"Ġrepair":10260,"Ġforcing":10261,"Ġdivision":10262,"ĠReliability":10263,"WE":10264,"compl":10265,"yl":10266,"ĠPartic":10267,"fellow":10268,"ĠExperim":10269,"Dbg":10270,"Ġplugins":10271,"Ġintentionally":10272,"acker":10273,"Ġping":10274,"Ġreboot":10275,"Ġreinforcement":10276,"emporal":10277,"ĠValid":10278,"ĠJeff":10279,"Ġcarrier":10280,"ecycle":10281,"Ġfet":10282,"Ġfalls":10283,"ĠDevices":10284,"ĠWiFi":10285,"aive":10286,"^{":10287,"Ġdeals":10288,"ĠEvaluation":10289,"ĠQuest":10290,"ĠSmall":10291,"ĠMinim":10292,"ĠDrop":10293,"Open":10294,"IVE":10295,"Ġ2021":10296,"CT":10297,"ĠHackers":10298,"Ġalph":10299,"fitting":10300,"eltdown":10301,"lett":10302,"ipe":10303,"Ġ1998":10304,"mas":10305,"fee":10306,"ellman":10307,"Ġdisgu":10308,"Ġattributed":10309,"ĠTrusted":10310,"Ġapparently":10311,"bits":10312,"Ġinfluenced":10313,"Ġescape":10314,"ĠIPs":10315,"odies":10316,"cven":10317,"cvename":10318,"Ġshopping":10319,"Ġfreely":10320,"Ġunwanted":10321,"ĠPos":10322,"ĠBP":10323,"Ġperipher":10324,"Ġclicked":10325,"ĠSafe":10326,"ĠRP":10327,"Ġannouncement":10328,"Ġporn":10329,"Ġemploying":10330,"Ġpreprocessing":10331,"Ġharvest":10332,"anna":10333,"encoder":10334,"ĠArmy":10335,"aset":10336,"YS":10337,"IFF":10338,"Ġ1980":10339,"raud":10340,"luded":10341,"ported":10342,"Ġanalyzes":10343,"Ġscanned":10344,"aarch":10345,"Ġtranslate":10346,"ĠSams":10347,"ĠAsia":10348,"iller":10349,"break":10350,"ĠBS":10351,"Ġcomply":10352,"ecode":10353,"Ġchemical":10354,"Ġcharges":10355,"usively":10356,"Ġmigration":10357,"ĠRemediation":10358,"Ġratings":10359,"Ġspan":10360,"imedia":10361,"ĠWordPress":10362,"HERE":10363,"ĠSyn":10364,"ĠSymposium":10365,"ĠOperations":10366,"sv":10367,"ĠRule":10368,"cut":10369,"Ġwarnings":10370,"ĠVPNs":10371,"%),":10372,"ometer":10373,"+------------":10374,"friend":10375,"Ġstrug":10376,"Ġfitness":10377,"VIE":10378,"efficients":10379,"utors":10380,"Ġwriter":10381,"ĠPROVIDED":10382,"liv":10383,"sets":10384,"ĠManufact":10385,"Ġhypothes":10386,"Ġobsc":10387,"ĠPal":10388,"FTWARE":10389,"Ġindividually":10390,"ĠSen":10391,"Ġsubstantially":10392,"With":10393,"ĠRate":10394,"ĠWITH":10395,"Ġlookup":10396,"ometrics":10397,"Ġgrows":10398,"Ġblood":10399,"ĠHer":10400,"ĠOK":10401,"ĠSuppose":10402,"That":10403,"iner":10404,"Ġsnapshot":10405,"Ġeigen":10406,"Ġtiny":10407,"ĠLO":10408,"Ġprison":10409,"ĠEXT":10410,"ĠSEE":10411,"ĠLee":10412,"Ġcharged":10413,"User":10414,"ĠForm":10415,"ĠArtificial":10416,"arks":10417,"Ġpicked":10418,"ĠUpgrade":10419,"ilos":10420,"Ġunencrypted":10421,"vable":10422,"ĠGradient":10423,"Ġconsiderably":10424,"Ġagreements":10425,"Ġpenalty":10426,"rey":10427,"Ġdecides":10428,"Ġdecreasing":10429,"Ġdivide":10430,"Ġri":10431,"Ġtelling":10432,"ĠThom":10433,"Ġantenna":10434,"Ġgrids":10435,"hop":10436,"Ġcontainers":10437,"().":10438,"ĠGmail":10439,"ĠPSI":10440,"ĠLL":10441,"Ġremained":10442,"users":10443,"Ġfuzzy":10444,"ĠMer":10445,"Ġpad":10446,"raction":10447,"ĠWest":10448,"âĢĻ,":10449,"ĠConsidering":10450,"GROUND":10451,"match":10452,"irty":10453,"yer":10454,"Ġpeace":10455,"Ġediting":10456,"Ġbuildings":10457,"Ġproximity":10458,"Ġgeograph":10459,"bugzilla":10460,"Ġtailored":10461,"VIEW":10462,"ĠModule":10463,"Ġinterpreter":10464,"slackware":10465,"Ġwaste":10466,"126":10467,"ĠFort":10468,"Ġsolver":10469,"Ġdropping":10470,"Ġtracked":10471,"BB":10472,"Ġfiled":10473,"Ġcable":10474,"Ġ49":10475,"ĠCam":10476,"ĠEL":10477,"Ġparse":10478,"card":10479,"Ġtransmissions":10480,"Ġnotions":10481,"Ġinitialized":10482,"Ġrevers":10483,"EVM":10484,"Ġrelating":10485,"Ġclicks":10486,"wood":10487,"ĠExpos":10488,"lebr":10489,"ĠSolutions":10490,"ffff":10491,"ĠFA":10492,"002":10493,"\").":10494,"preserving":10495,"vy":10496,"string":10497,"En":10498,"ĠDET":10499,"Ġbinding":10500,"Ġcollective":10501,"Ġtriggering":10502,"Ġenemy":10503,"Ġcorporations":10504,"Ġmisclassification":10505,"Ġsmallest":10506,"ĠBuffer":10507,"Ġreliably":10508,"Ġ[/":10509,"ĠAction":10510,"'t":10511,"ĠChang":10512,"PG":10513,"Ġrogue":10514,"Ġsubscrib":10515,"ĠBuilding":10516,"Ġsentences":10517,"computer":10518,"Ġ51":10519,"aj":10520,"Ġordering":10521,"Ġvirtually":10522,"ĠIO":10523,"ĠFeature":10524,"Ġquantity":10525,"Ġreserved":10526,"Ġuniformly":10527,"ontal":10528,"Ġconfirmation":10529,"ĠASCII":10530,"Ġmodelling":10531,"Ġcensors":10532,"Ġempirically":10533,"orrow":10534,"entials":10535,"Ġreviewing":10536,"Ġsatisfying":10537,"ROP":10538,"CNN":10539,"Ġfiltered":10540,"Ġanalytical":10541,"Ġmisuse":10542,"MT":10543,"SG":10544,"Ġgram":10545,"Ġremoves":10546,"ĠUC":10547,"software":10548,"Ġ52":10549,"Ġhoc":10550,"Ġbuffers":10551,"Ġdepos":10552,"Ġapplicability":10553,"OMER":10554,"ummy":10555,"havior":10556,"ATIC":10557,"ĠAUT":10558,"Ġconversion":10559,"Ġcollege":10560,"eros":10561,"Depth":10562,"real":10563,"Ġmutation":10564,".).":10565,"hicle":10566,"ameter":10567,"ĠModern":10568,"DNS":10569,"Ġ54":10570,"aped":10571,"versely":10572,"ours":10573,"Ġvoter":10574,"Ġshorter":10575,"Str":10576,"Ġaggregated":10577,"ATURE":10578,"Ġthousand":10579,"Ġfuel":10580,"Ġsake":10581,"Ġcompliant":10582,"Ġgold":10583,"Ġconferences":10584,"Ġformation":10585,"Ġworkstation":10586,"Ġproductivity":10587,"ĠEdge":10588,"Ġsubsection":10589,"ĠSnow":10590,"Ġrecursive":10591,"Ġslower":10592,"=====":10593,"Ġreadings":10594,"Ġtelecommun":10595,"agraph":10596,"Ġsustain":10597,"ideo":10598,"Ġapproval":10599,"Ġconceptual":10600,"ĠAlexa":10601,"depend":10602,"Ġdrones":10603,"Ġguy":10604,"Ġacceptance":10605,"Ġpointing":10606,"Ġexecutables":10607,"ĠAL":10608,"/):":10609,"Ġadvertisements":10610,"reference":10611,"Ġembeddings":10612,"Ġeavesdropping":10613,"Ġnewsp":10614,"Ġinterconn":10615,"patched":10616,"Ġmasking":10617,"ĠSem":10618,"chestr":10619,"ARD":10620,"Ġimposed":10621,"Ġadversarially":10622,"Ġposting":10623,"Ġtweet":10624,"Ġbelieves":10625,"Ġpersonally":10626,"Ġdoubt":10627,"Ġcausal":10628,"Ġexpectations":10629,"ĠTrad":10630,"ĠSqu":10631,"ĠSony":10632,"Ġintensity":10633,"Ġsees":10634,"got":10635,"Ġcriterion":10636,"ĠCI":10637,"Ġfamous":10638,"ĠMaster":10639,"Ġinnoc":10640,"Ġkids":10641,"Ġradar":10642,"Ġcooperative":10643,"Ġwinning":10644,"Ġunified":10645,"alyst":10646,"ĠAWS":10647,"ĠComb":10648,"Set":10649,"oned":10650,"agues":10651,"eterm":10652,"Ġincorporating":10653,"Ġfat":10654,"SO":10655,"Ġevident":10656,"Ġtransparency":10657,"ĠAverage":10658,"idge":10659,"Ġserving":10660,"ĠOften":10661,"Ġsimplify":10662,"Ġlicensed":10663,"anda":10664,"Control":10665,"Des":10666,"ĠPers":10667,"ĠScient":10668,"Ġtranslated":10669,"Ġallocate":10670,"Ġforwarded":10671,"ĠAttacker":10672,"ĠPrinc":10673,"Ġpresenting":10674,"ĠChris":10675,"Ġobtains":10676,"filter":10677,"Ġsuperior":10678,"Ġbreaks":10679,"Ġyes":10680,"Ġcoefficients":10681,"Ġdifferentiate":10682,"Ġcorrected":10683,"Ġslowly":10684,"error":10685,"ko":10686,"Ġverifier":10687,"Ġtuple":10688,"Ġcoupled":10689,"ĠCAPTC":10690,"length":10691,"Ġconflicts":10692,"Ġdefence":10693,"Ġdistinction":10694,"WORD":10695,"third":10696,"ĠBACKGROUND":10697,"Ġinstrumentation":10698,"hi":10699,"ĠEdition":10700,"ĠCSI":10701,"gz":10702,"Ġconcaten":10703,"rint":10704,"press":10705,"Ġmisconf":10706,"Ġinherently":10707,"Ġtransient":10708,"Ġviable":10709,"eek":10710,"Ġattestation":10711,"Ġsimilarities":10712,"otive":10713,"Ġindication":10714,"Ġmimic":10715,"Ġineffective":10716,"ĠCUST":10717,"Ġdesignated":10718,"Ġinvolvement":10719,"Ġgender":10720,"ĠDOM":10721,"Ġpersons":10722,"ĠDISCOVER":10723,"Ġstreaming":10724,"Ġlocking":10725,"Ġcontextual":10726,"Ġcompact":10727,"Ġformulated":10728,"11258":10729,"Ġfa":10730,"ĠGuide":10731,"ourced":10732,"SMA":10733,"FP":10734,"Ġho":10735,"Ġpreserving":10736,"Ġplacing":10737,"Ġmicroarchitect":10738,"Ġmental":10739,"Ġinduce":10740,"onor":10741,"Ġinvoke":10742,"gency":10743,"Ġdense":10744,"Ġreturning":10745,"Ġlosing":10746,"Ġchair":10747,"ĠISPs":10748,"Ġprone":10749,"Ġparser":10750,"ĠPress":10751,"EAR":10752,"DT":10753,"ram":10754,"ĠREFER":10755,"ĠVo":10756,"Ġpoll":10757,"Ġblacklist":10758,"Ġborder":10759,"Ġcopying":10760,"Ġmissed":10761,"BO":10762,"Ġtied":10763,"ĠSafety":10764,"uthenticated":10765,"Ġsurrogate":10766,"Ġpacked":10767,"ĠWorkshop":10768,"ENCES":10769,"ĠMedium":10770,"Ġvotes":10771,"Ġfavorite":10772,"Ġpowers":10773,"ĠConc":10774,"Ġsafeguard":10775,"quart":10776,"Ġcompressed":10777,"Ġcommunicated":10778,"ĠVLAN":10779,"Ġprofiling":10780,"ĠRepublic":10781,"ainted":10782,"Ġembed":10783,"tmp":10784,"ourcing":10785,"ĠVarious":10786,"avas":10787,"Act":10788,"ĠLong":10789,"ĠMeltdown":10790,"Republic":10791,"Ġsystematically":10792,"Ġ</":10793,"ĠPet":10794,"Ġclin":10795,"ĠUnderstanding":10796,";&":10797,"abot":10798,"Ġphrase":10799,"Ġretrieval":10800,"files":10801,"Ġtotally":10802,"%).":10803,"Ġworms":10804,"URITY":10805,"ĠTuring":10806,"Ġarrow":10807,"Ġconfident":10808,"Ġsteady":10809,"****************":10810,"Ġroll":10811,"sam":10812,"points":10813,"ĠDiffie":10814,"ĠInterestingly":10815,"ĠIPS":10816,"Ġfork":10817,"itudes":10818,"fold":10819,"ĠDisco":10820,"Ġstar":10821,"CM":10822,"rokes":10823,"Ġholes":10824,"Ġsaving":10825,"Ġcaching":10826,"Ġasynchronous":10827,"peer":10828,"input":10829,"Auth":10830,"CPU":10831,"ĠBad":10832,"Ġfilled":10833,"ĠPL":10834,"Ġconsequently":10835,"Ġrenew":10836,"Ġarbitrarily":10837,"ĠRobust":10838,"erpreter":10839,"Ġfixing":10840,"ĠHead":10841,"Ġmanifest":10842,"Ġweaker":10843,"Ġtrading":10844,"Ġcoefficient":10845,"Ġplots":10846,"Ġ?":10847,"BF":10848,"ĠCount":10849,"Ġ________________________________________________________________":10850,"Ġgranularity":10851,"ĠPP":10852,"ĠWHERE":10853,"ruby":10854,"purpose":10855,"start":10856,"ĠStall":10857,"Ġengaged":10858,"Ġrelate":10859,"Ġextending":10860,"ĠPOS":10861,"ĠCUSTOMER":10862,"Ġrejected":10863,"Adv":10864,"Ġcoordinates":10865,"Ġfemale":10866,"ĠFull":10867,"ĠMandriva":10868,"146":10869,"ĠAvailability":10870,"ĠSIGNATURE":10871,"ĠTex":10872,"ĠAE":10873,"home":10874,"Ġimply":10875,"Ġepisode":10876,"Ġ57":10877,"Ġsubstitution":10878,"Not":10879,"Crypt":10880,"ĠWhy":10881,"Ġranked":10882,"lass":10883,"2005":10884,"Ġtrail":10885,"Ġnmap":10886,"Ġcalculations":10887,"Ġsmoothing":10888,"ypots":10889,"Ġarrive":10890,"Ġregarded":10891,"ĠLinked":10892,"Ġofficers":10893,"Ġosc":10894,"ĠCard":10895,"ĠASes":10896,"ĠDE":10897,"ĠPO":10898,"Ġconvenience":10899,"oders":10900,"ĠFact":10901,"Ġmechanical":10902,"ami":10903,"ĠFinancial":10904,"KD":10905,"uous":10906,"BER":10907,"Ġlifetime":10908,"Ġschools":10909,"Ġintegrating":10910,"iating":10911,"Ġregards":10912,"bur":10913,"ropri":10914,"Ġautomata":10915,"Ġencoder":10916,"Ġdiscriminator":10917,"Ġunauthenticated":10918,"ĠProposition":10919,"HEL":10920,"Ġretain":10921,"bounds":10922,"Ġexclusively":10923,"Ġrepositories":10924,"Ġundert":10925,"fol":10926,"Ġinev":10927,"Ġpermits":10928,"Ġoccasion":10929,"Ġproblematic":10930,"agner":10931,"asters":10932,"Ġnegatives":10933,"va":10934,"Ġwriters":10935,"Ġsupplement":10936,"bind":10937,"ĠNA":10938,"Ġoverla":10939,"compass":10940,"unity":10941,"Ġpartnership":10942,"While":10943,"WA":10944,"Ġconsume":10945,"Ġdependence":10946,"Ġformulate":10947,"Ġcontributed":10948,"Ġsubtle":10949,"______":10950,"uris":10951,"Ġputs":10952,"knowledge":10953,"Ġvelocity":10954,"Ġuseless":10955,"Ġcached":10956,"Ġuniversities":10957,"ĠPersonal":10958,"Ġattend":10959,"ĠPrivile":10960,"Ġlibvirt":10961,"ĠDF":10962,"ĠArab":10963,"ĠExploitation":10964,"Ġmagnetic":10965,"Ġrent":10966,"Ġinstaller":10967,"ĠVersions":10968,"Ġpret":10969,"zi":10970,"ĠPackage":10971,"ĠDecision":10972,"unks":10973,"ĠHol":10974,"Ġexamination":10975,"Ġresponds":10976,"uli":10977,"parameter":10978,"Ġresponding":10979,"Ġopponent":10980,"ĠSNMP":10981,"Ġbag":10982,"Ġpurely":10983,"Ġundetected":10984,"Ġundes":10985,"\";":10986,"ĠMode":10987,"Ġproposals":10988,"ĠTake":10989,"ĠCIA":10990,"Ġtackle":10991,"Ġadaptation":10992,"apper":10993,"ĠDEP":10994,"Ġped":10995,"Ġresponded":10996,"Ġqualitative":10997,"Ġrect":10998,"liance":10999,"ĠMESS":11000,"ĠByzantine":11001,"Ġarms":11002,"pi":11003,"Ġvisits":11004,"Ġconsol":11005,"ĠREFERENCES":11006,"ibm":11007,"Ġskilled":11008,"ĠFre":11009,"Ġmitigated":11010,"Ġreconf":11011,"ENDED":11012,"Ġdevelopments":11013,"Ġchunk":11014,"GR":11015,"Note":11016,"ĠWhether":11017,"mdvmes":11018,"Ġbroadly":11019,"Ġseriously":11020,"Ġasympt":11021,"Ġ1995":11022,"Ġstandardized":11023,"ĠUsually":11024,"Ġemerge":11025,"Ġtesters":11026,"Ġdecode":11027,"Ġavoided":11028,"ĠTP":11029,"Ġdramatically":11030,"angle":11031,"values":11032,"ĠChange":11033,"Cy":11034,"drop":11035,"complete":11036,"ĠNET":11037,"Ġshuff":11038,"Ġheuristics":11039,"utorial":11040,"ĠHomeland":11041,"embles":11042,"ĠFac":11043,"Ġemulation":11044,"ĠCERT":11045,"sk":11046,"Ġblank":11047,"Ġkernels":11048,"CF":11049,"ĠPI":11050,"Ġpentest":11051,"Ġprojection":11052,"ĠProducts":11053,"Ġdisj":11054,"Ġ78":11055,"ĠCertificate":11056,"ĠIndex":11057,"Ġunstable":11058,"lication":11059,"ĠEss":11060,"ĠSchne":11061,"Pass":11062,"ĠPlan":11063,"ĠISA":11064,"ĠCSC":11065,"Ġstops":11066,"ĠOptim":11067,"Ġcolleagues":11068,"ĠValue":11069,"vance":11070,"ĠRy":11071,"Ġcyberattack":11072,"etheless":11073,"concept":11074,"ĠWSN":11075,"ĠStallman":11076,"ĠPenet":11077,"Ġtampering":11078,"Ġball":11079,"omorphic":11080,"Ġencrypts":11081,"ĠKerberos":11082,"ida":11083,"Ġremediation":11084,"Ġscales":11085,"iguous":11086,"ĠSettings":11087,"Ġseemingly":11088,"ĠController":11089,"Ġsides":11090,"td":11091,"Ġnotify":11092,"Ġsyscall":11093,"riz":11094,"essional":11095,"Ġparagraph":11096,"ĠPark":11097,"ĠBraz":11098,"avascript":11099,"hy":11100,"ĠWS":11101,"ĠEast":11102,"password":11103,"Ġson":11104,"ĠTTP":11105,"ĠAREA":11106,"TT":11107,"Gr":11108,"node":11109,"Ġexercises":11110,"Ġterrorist":11111,"Ġaf":11112,"Ġprompted":11113,"Ġbiological":11114,"Ġ101":11115,"Ġbeta":11116,"ĠFireEye":11117,"Ver":11118,"Ġcalib":11119,"Ġwhitel":11120,"bi":11121,"itals":11122,"Ġshot":11123,"ĠSession":11124,"xxxx":11125,"Ġoverload":11126,"Ġscheduler":11127,"ĠPerhaps":11128,"Ġadopting":11129,"Ġmagic":11130,"Ġsuppliers":11131,"Ġ72":11132,"ĠUnivers":11133,"Ġ1996":11134,"1000":11135,"mdk":11136,"Ġschema":11137,"ĠCache":11138,"Work":11139,"Ġregistr":11140,"Ġinvestigators":11141,"Ġ000":11142,"Ġgradually":11143,"Ġpermanent":11144,"atile":11145,"driver":11146,"Ġinvestments":11147,"Ġcas":11148,"ĠUt":11149,"orge":11150,"ĠSL":11151,"Ġdesire":11152,"ĠNormal":11153,"Ġdiscovering":11154,"Ġdecomposition":11155,"Ġsuppose":11156,"Ġscratch":11157,"ĠSal":11158,"ĠPerm":11159,"ĠSolaris":11160,"lat":11161,"ĠMESSAGE":11162,"acer":11163,"ĠSys":11164,"threat":11165,"Ġtrip":11166,"ĠDISCOVERED":11167,"sa":11168,"ĠSmith":11169,"Ġ512":11170,"ĠEXTENDED":11171,"ĠAdam":11172,"Ġpoorly":11173,"Ġdissemination":11174,"viewadvisory":11175,"ĠIde":11176,"ĠMr":11177,"ĠSIMATIC":11178,"quest":11179,"Ġpredictable":11180,"ĠRunning":11181,"Ġimmune":11182,"ĠBook":11183,"Ġarrested":11184,"Ġconstants":11185,"ĠINT":11186,"Ġplants":11187,"Ġcreative":11188,"Ġbuying":11189,"Ġhat":11190,"constr":11191,"Ġdash":11192,"Ġpredicates":11193,"Ġinvis":11194,"ĠPattern":11195,"Ġbackend":11196,"Ġusable":11197,"Ġphilos":11198,"ECTED":11199,"ĠPCs":11200,"Ġdeemed":11201,"Ġalongside":11202,"Ġpuzzle":11203,"ĠOutlook":11204,"ĠHistory":11205,"ĠJac":11206,"inton":11207,"idel":11208,"ĠEarth":11209,"ĠTexas":11210,"Ġarrival":11211,"Ġreceivers":11212,"Ġaugmented":11213,"rb":11214,"organ":11215,"response":11216,"Ġcited":11217,"Ġinferred":11218,"ĠLOC":11219,"Ġpref":11220,"ĠJPEG":11221,"Ġinnovative":11222,"iffer":11223,"ĠBill":11224,"Ġdisease":11225,"ĠGateway":11226,"liest":11227,"Ġdestruction":11228,"located":11229,"format":11230,"Ġfundament":11231,"imination":11232,"count":11233,"ĠInstagram":11234,"ĠRA":11235,"ĠTPM":11236,"Ġflip":11237,"Ġlinking":11238,"dated":11239,"ĠRev":11240,"Ġzones":11241,"API":11242,"Ġprevalent":11243,"Ġposter":11244,"example":11245,"ĠComplex":11246,"Ġproportional":11247,"GI":11248,"udeb":11249,"ateral":11250,"high":11251,"Ġapprec":11252,"ĠClassification":11253,"Ġ`":11254,"Ġquadr":11255,"Ġglass":11256,"stricted":11257,"Ġsorts":11258,"Cry":11259,"overs":11260,"ĠMatrix":11261,"Ġtexts":11262,"charge":11263,"ĠAdministration":11264,"urisd":11265,"ĠIll":11266,"Ġestablishment":11267,"Ġswitched":11268,"Ġsyntact":11269,"livious":11270,"olation":11271,"ĠProxy":11272,"MF":11273,"Ġgaming":11274,"Ġdepicts":11275,"ĠPenetration":11276,"GE":11277,"KB":11278,"HO":11279,"cha":11280,"ĠShort":11281,"Ġnavigate":11282,"Ġns":11283,"Ġopinions":11284,"Ġcrisis":11285,"Track":11286,"Ġunseen":11287,"Ġjoined":11288,"Ġnorms":11289,"ĠCE":11290,"Ġoutbound":11291,"Ġpet":11292,"('":11293,"pow":11294,"ĠPoC":11295,"ĠMITIG":11296,"Ġportal":11297,"Ġcelebr":11298,"ortunately":11299,"Ġunclear":11300,"Ġcalculus":11301,"Ġincentive":11302,"Ġrevision":11303,"ĠBatman":11304,"Ġportable":11305,"Ġcheap":11306,"ĠWide":11307,"888":11308,"ĠBrazil":11309,"Ġfees":11310,"ĠDou":11311,"Ġtransit":11312,"ĠCat":11313,"ĠSamsung":11314,"Ġidentifiable":11315,"Ġencompass":11316,"âĢĶâĢĶ":11317,"berry":11318,"ĠAngel":11319,"NC":11320,"ĠCPSs":11321,"Ġposed":11322,"Ġsignaling":11323,"FW":11324,"Sp":11325,"ĠTes":11326,"Ġbott":11327,".*":11328,"Ġeasiest":11329,"Ġacceleration":11330,"Afee":11331,"Ġrecurs":11332,"Ġindirectly":11333,"ola":11334,"ĠMirai":11335,"150":11336,"Ġabilities":11337,"Ġmini":11338,"Ġ*/":11339,"Ġcontrad":11340,"Hellman":11341,"Ġcorrelations":11342,"Ġinternally":11343,"ĠAzure":11344,"Link":11345,"ĠUpdated":11346,"Ġbulk":11347,"Ġpreserved":11348,"ĠFilter":11349,"ĠQuant":11350,"olec":11351,"Ġexclusive":11352,"Ġlifecycle":11353,"Ġsearched":11354,"ront":11355,"Ġdiffusion":11356,"ĠSelect":11357,"Ġtraversal":11358,"Ġadditionally":11359,"ĠHam":11360,"uan":11361,"Pal":11362,"ĠRFID":11363,"cost":11364,"utils":11365,"ĠEmploy":11366,"Ġworkforce":11367,"ĠStill":11368,"urate":11369,"Ġinterconnected":11370,"Ġexposing":11371,"Ġpropagate":11372,"Ġelections":11373,"Ġ/*":11374,"Ġshar":11375,"Ġclosest":11376,"arian":11377,"ĠOVERVIEW":11378,"ĠProb":11379,"Ġmounted":11380,"ĠAuth":11381,"ĠLess":11382,"Ġcertifications":11383,"Ġbodies":11384,"ĠContinu":11385,"ĠAuthority":11386,"ĠWPA":11387,"ille":11388,"But":11389,"Ġmodifies":11390,"lar":11391,"Our":11392,"Ġshoot":11393,"Ġreasonably":11394,"Ġtor":11395,"ĠUnt":11396,"ĠOverview":11397,"Ġduplicate":11398,"ĠAward":11399,"Ġanch":11400,"ĠContract":11401,"Ġgeneralize":11402,"Ġdisabling":11403,"Ġbg":11404,"ĠVista":11405,"Ġ88":11406,"Ġtroubl":11407,"Ġcumulative":11408,"Ġera":11409,"Ġspin":11410,"Ġwallet":11411,"okes":11412,"Ġsatisfaction":11413,"SL":11414,"Ġaligned":11415,"Ġcatalog":11416,"ĠCounter":11417,"Ġship":11418,"ureau":11419,"Ġourselves":11420,"announce":11421,"Ġimpose":11422,"ĠHD":11423,"Ġexchanges":11424,"At":11425,"Ġaugmentation":11426,"Ġfif":11427,"Ġalternatives":11428,"Ġdominant":11429,"Ġdeliberately":11430,"Ġdiscret":11431,"generated":11432,"nov":11433,"Ġmalformed":11434,"Ġbackups":11435,"Ġsurveys":11436,"Ġvac":11437,"ĠField":11438,"iday":11439,"sat":11440,"Ġbusy":11441,"ĠOTHER":11442,"Ġub":11443,"ixel":11444,"Ġbringing":11445,"Ġtricks":11446,"risk":11447,"Ġ58":11448,"ACE":11449,"Ġcontinuing":11450,"Ġclosing":11451,"van":11452,"otion":11453,"Ġdecoder":11454,"Ġpractitioners":11455,"thread":11456,"Acc":11457,"Ġoriginating":11458,"ĠConnect":11459,"123":11460,"uation":11461,"Ġskip":11462,"Ġconservative":11463,"ĠRecognition":11464,"ĠMT":11465,"ĠSteve":11466,"List":11467,".-":11468,"Ġcommod":11469,"ĠIndian":11470,"ĠAttrib":11471,"Ġfolders":11472,"Ġenters":11473,"ĠSand":11474,"ĠBern":11475,"Do":11476,"estic":11477,"chains":11478,"ATED":11479,"Ġpseudonym":11480,"Ġdemonstrating":11481,"Ġelsewhere":11482,"Ġfederated":11483,"Ġlaptops":11484,"Ġestablishes":11485,"Ġindistinguishable":11486,"Ġlocks":11487,"Ġaxis":11488,"ĠCollect":11489,"Ġbeam":11490,"Ġorient":11491,"Ġintrins":11492,"ĠCur":11493,"erry":11494,"ĠCompan":11495,"Ġreceipt":11496,"Ġuncover":11497,"ĠRouter":11498,"ĠPrevious":11499,"umption":11500,"Ġprinter":11501,"Ġfaulty":11502,"tech":11503,"mys":11504,"0001":11505,"ĠCarol":11506,"Ġsomebody":11507,"Ġconfiguring":11508,"Ġbed":11509,"ĠCho":11510,"ĠLibrary":11511,"erve":11512,"Ġdelivering":11513,"UU":11514,"ĠâĪĴ":11515,"loss":11516,"ANN":11517,"losed":11518,"emp":11519,"Ġcomprises":11520,"Ġpublisher":11521,"Ġaccommodate":11522,"ĠPT":11523,"Ġenorm":11524,"ĠStreet":11525,"ĠSYSTEM":11526,"Ġtips":11527,"Ġevaluates":11528,"CI":11529,"Ġassemb":11530,"Ġuntargeted":11531,"Ġ__":11532,"Ġswe":11533,"ocal":11534,"Ġdisassembly":11535,"oj":11536,"Ġbuses":11537,"ĠJustice":11538,"ĠFrancisco":11539,"ĠMiddle":11540,"osc":11541,"Ġsubsets":11542,"ĠKeep":11543,"Ġstopping":11544,"Ġadditive":11545,"ĠWikipedia":11546,"/.":11547,"ĠApply":11548,"Line":11549,"Ġpermutation":11550,"Ġemit":11551,"---------------------------------------------------------------------":11552,"Ġextracts":11553,"Ġmonthly":11554,"Ġjurisd":11555,"Ġmoder":11556,"ĠLooking":11557,"Ġdub":11558,"Read":11559,"cache":11560,"ĠHaw":11561,"alities":11562,"Ġdeviations":11563,"CON":11564,"Ġdifficulties":11565,"ĠDRAM":11566,"Ġconvince":11567,"Ġjointly":11568,"Ġwealth":11569,"ĠInitiative":11570,"-----------":11571,"scan":11572,"Ġcompromises":11573,"Ġcensorship":11574,"Ġchapters":11575,"Ġarrays":11576,"FTP":11577,"âĢĺ":11578,"ĠNash":11579,"ĠExternal":11580,"Ġanc":11581,"ĠFed":11582,"Ġsuggestions":11583,"Ġverifies":11584,"Ġtimeout":11585,"Ġviolating":11586,"Ġaccountability":11587,"Ġidle":11588,"Ġaxi":11589,"Ġsniffing":11590,"Ġhous":11591,"Ġharmful":11592,"tun":11593,"Ġparticipation":11594,"ogen":11595,"Ġbootstr":11596,"Ġfly":11597,"Ġuniquely":11598,"Ġpreparation":11599,"Ġ66":11600,"eg":11601,"ĠHong":11602,"memory":11603,"Ġlaboratory":11604,"uce":11605,"Ġfounded":11606,"ture":11607,"Ġprioritize":11608,"enn":11609,"ĠLastly":11610,"Ġloose":11611,"Ġencaps":11612,"ĠLR":11613,"ĠBest":11614,"oning":11615,"Ġassessed":11616,"ĠJSON":11617,"activ":11618,"Ġcounting":11619,"content":11620,"Ġreachability":11621,"ĠMITIGATION":11622,"ĠPhil":11623,"Ġmisclassified":11624,"ĠMonitoring":11625,"Ġalternate":11626,"Ġinitiatives":11627,"Ġquerying":11628,"auth":11629,"law":11630,"20060":11631,"Ġsoundness":11632,"Ġtechnically":11633,"ette":11634,"Ġrock":11635,"crypt":11636,"Ġpartitioning":11637,"Ġdummy":11638,"Ġactuator":11639,"honest":11640,"Ġ94":11641,"Ġkid":11642,"Ġmine":11643,"Ġclassifying":11644,"Ġlocalization":11645,"Ġsitting":11646,"ĠCarlini":11647,"Ġproves":11648,"ĠEmer":11649,"BE":11650,"ĠDebug":11651,"Ġinstalls":11652,"Ġconverge":11653,"Ġbyt":11654,"ĠFortunately":11655,"Ġwatching":11656,"509":11657,"Ġappliances":11658,"Ġreflection":11659,"Ġrul":11660,"Ġdemonstration":11661,"ĠMach":11662,"Ġmarking":11663,"fly":11664,"ĠColle":11665,"Ġultimate":11666,"orney":11667,"Ġwired":11668,"COM":11669,"ĠSH":11670,"ĠKevin":11671,"Ġtemporarily":11672,"Ġsexual":11673,"Ġcontrary":11674,"ĠWanna":11675,"Ġphysics":11676,"Some":11677,"ĠLocation":11678,"Ġkits":11679,"Ġincred":11680,"tar":11681,"Ġapplet":11682,"ĠESP":11683,"Ġpremium":11684,"optimal":11685,"SB":11686,"Ġlatt":11687,"DOS":11688,"ĠFigures":11689,"ĠLiu":11690,"Ġseeks":11691,"Ġintervention":11692,"pectives":11693,"aptive":11694,"oked":11695,"Ġvent":11696,"Ġreminds":11697,"Ġrecipients":11698,"Ġhunting":11699,"ĠAUC":11700,"tons":11701,"apl":11702,"initial":11703,"izon":11704,"Ġrelevance":11705,"Ġunion":11706,"Ġwoman":11707,"profile":11708,"Ġproc":11709,"Ġneighboring":11710,"ĠMass":11711,"even":11712,"Ġefficacy":11713,"ĠATTACK":11714,"aved":11715,"Ġeviction":11716,"ĠChe":11717,"Ġlattice":11718,"Ġenhancing":11719,"riers":11720,"ĠDocker":11721,"Ġraises":11722,"Ġintegers":11723,"Ġhoneypots":11724,"ĠPLCs":11725,"Ġcovari":11726,"Ġiteratively":11727,"Ġcompetitors":11728,"ĠAfrica":11729,"Ġresistant":11730,"Ġinstallations":11731,"ĠSov":11732,"Ġoutline":11733,"orts":11734,"Ġdistillation":11735,"ĠSl":11736,"Ġcommittee":11737,"targeted":11738,"Ġtens":11739,"Ġimplicitly":11740,"api":11741,"Ġpreference":11742,"Ġpairing":11743,"ĠSDK":11744,"Ġfunctioning":11745,"liament":11746,"Ġleaking":11747,"Ġtrustworthy":11748,"Ġ74":11749,"FL":11750,"204":11751,"Ġprobes":11752,"Ġmyself":11753,"Ġtheories":11754,"Ġreplaces":11755,"Ġteach":11756,"patible":11757,"Ġupstream":11758,"Ġenforcing":11759,"Ġassigning":11760,"Ġaccepting":11761,"gments":11762,"ĠExpress":11763,"Ġexcessive":11764,"Ġportions":11765,"ĠScripting":11766,"Ġcrafting":11767,"ĠHash":11768,"Ġposes":11769,"ĠIncident":11770,"Ġhardening":11771,"Ġconvey":11772,"screen":11773,"Ġsuggesting":11774,"Ġdelayed":11775,"Ġallegedly":11776,"Ġdegr":11777,"ĠLin":11778,"Ġfailing":11779,"Ġmysql":11780,"Ġtcp":11781,"Ġexceeds":11782,"ĠMcAfee":11783,"Ġhang":11784,"Ġoptimizing":11785,"ding":11786,"cv":11787,"Ġfinish":11788,"ĠExisting":11789,"ticle":11790,"ownt":11791,"Ġintercepted":11792,"ĠKB":11793,"Ġtuning":11794,"Ġjboss":11795,"Ġeax":11796,"After":11797,"ĠLinkedIn":11798,"cision":11799,"Ġappropriately":11800,"])":11801,"Ġwasn":11802,"proof":11803,"Ġconstitute":11804,"Ġversa":11805,"Ġinvariants":11806,"Ġorth":11807,"1414":11808,"ĠWagner":11809,"Ġstatically":11810,"ĠCentre":11811,"ĠGeorg":11812,"Ġmagazine":11813,"Ġ77":11814,"Ġontology":11815,"ĠCirc":11816,"Ġestimator":11817,"ĠiPod":11818,"first":11819,"Ġdelegation":11820,"Ġplenty":11821,"Ġhotel":11822,"Ġearliest":11823,"div":11824,"Ġ1970":11825,"Ġreplies":11826,"ĠEducation":11827,"vation":11828,"Ġsabot":11829,"upal":11830,"Ġprovenance":11831,"browser":11832,"ĠRSS":11833,"quality":11834,"pay":11835,"ĠRequire":11836,"AAAAAAAAAAAAAAAA":11837,"Ġsch":11838,"Ġemphasis":11839,"Ġsomehow":11840,"GM":11841,"Ġsummarizes":11842,"Ġmorning":11843,"Ġsurveyed":11844,"Ġ1997":11845,"Ġaggressive":11846,"Ġoptimizations":11847,"uro":11848,"Ġkm":11849,"oler":11850,"services":11851,"ĠUX":11852,"shell":11853,"Ġcorrection":11854,"ĠRansomware":11855,"Ġmarg":11856,"Ġfeeling":11857,"New":11858,"Ġexponent":11859,"ĠSU":11860,"ĠBBC":11861,"isec":11862,"show":11863,"Ġinventory":11864,"Co":11865,"Ġneuron":11866,"Ġpractically":11867,"Ġsubnet":11868,"ented":11869,"Ġscammers":11870,"Ġ./":11871,"Ġassigns":11872,"Ġrestaur":11873,"Ġcompeting":11874,"Ġautomotive":11875,"master":11876,"inking":11877,"ien":11878,"amily":11879,"Ind":11880,"Ġoverlook":11881,"ĠFail":11882,"Ġ68":11883,"processor":11884,"Ġimpersonate":11885,"Ġdecreased":11886,"Ġshield":11887,"ARC":11888,"Ġrefinement":11889,"Ġlacks":11890,"ĠDataset":11891,"Ġarises":11892,"thunderbird":11893,"Ġcircle":11894,"Ġhorizontal":11895,"ĠCSRF":11896,"Ġunprivileged":11897,"cmd":11898,"score":11899,"Ġfeeds":11900,"Ġvaried":11901,"ĠIncre":11902,"OF":11903,"Ġliability":11904,"ombie":11905,"Ġspeeds":11906,"Ġdict":11907,"adays":11908,"Ġfragments":11909,"ĠSOFTWARE":11910,"Ġwithdr":11911,"Ġ82":11912,"appropri":11913,"HTTP":11914,"Ġ93":11915,"Ġburden":11916,"Ġdrast":11917,"safe":11918,"Ġinverse":11919,"Ġjudge":11920,"Out":11921,"Ġforwards":11922,"ĠWal":11923,"pages":11924,"ĠMeterpreter":11925,"centric":11926,"Ġtickets":11927,"Ġ250":11928,"ĠAmericans":11929,"Ġinconsist":11930,"changed":11931,"Agent":11932,"Ġmemor":11933,"Ġhyperparameters":11934,"Ġcomplementary":11935,"_______":11936,"ĠSensor":11937,"oto":11938,"Ġbought":11939,"ĠNOTE":11940,"Ġcryptosystem":11941,"Ġlateral":11942,"ĠSnowden":11943,"ĠCommunity":11944,"Ġleaf":11945,"2000":11946,"Ġ83":11947,"twitter":11948,"Ġmigrate":11949,"plane":11950,"Ġdisplaying":11951,"astro":11952,"dump":11953,"Ġunavailable":11954,"Ġconvention":11955,"Ġgeo":11956,"Ġhostname":11957,"lenny":11958,"Inst":11959,"postgresql":11960,"ppers":11961,"Ġbog":11962,"ni":11963,"Ġnearest":11964,"blog":11965,"Ġsing":11966,"Ġinterviews":11967,"sen":11968,"Ġbottlen":11969,"NS":11970,"Ġinvisible":11971,"Ġtimeline":11972,"Me":11973,"ĠFPR":11974,"Ġinsertion":11975,"ĠEric":11976,"Ġ120":11977,"IEC":11978,"iler":11979,"Ġinequ":11980,"ĠCategory":11981,"ĠBal":11982,"Ġfeatured":11983,"Ġemphasize":11984,"Ġnotified":11985,"rev":11986,"ĠEP":11987,"Ġenhancements":11988,"ĠBroad":11989,"Ġencouraged":11990,"Ġoverr":11991,"ulators":11992,"ĠMartin":11993,"Ġpromise":11994,"ĠBlockchain":11995,"Ġrestarted":11996,"Ġentit":11997,"Ġnotably":11998,"Ġpriorities":11999,"Ġestimating":12000,"entropy":12001,"RB":12002,"Ġtank":12003,"ĠFDI":12004,"Ġneutral":12005,"ĠObama":12006,"lies":12007,"math":12008,"FFECTED":12009,"ĠManufacturing":12010,"Ass":12011,"ployment":12012,"Ġdeleting":12013,"Ġcomposite":12014,"Manager":12015,"merc":12016,"Ġcontinually":12017,"ĠWannaCry":12018,"Ġclone":12019,"Ġsudo":12020,"Ġdiscount":12021,"Bot":12022,"Ġrigorous":12023,"ĠSingle":12024,"ĠLP":12025,"ĠGA":12026,"ĠMechan":12027,"Ġcarries":12028,"Ġabsor":12029,"Ġreadable":12030,"Ġvoters":12031,"Ġsettle":12032,"oker":12033,"Ġexpectation":12034,"edge":12035,"bridge":12036,"Ġouter":12037,"Ġmature":12038,"ani":12039,"Ġregional":12040,"Ds":12041,"ĠIntroduction":12042,"ĠStarting":12043,"ĠSIGNED":12044,"Ġabsolutely":12045,"Ġfootprint":12046,"ĠTesla":12047,"sized":12048,"ĠASP":12049,"Ġtransferring":12050,"Ġinfeas":12051,"Ġ76":12052,"apore":12053,"stations":12054,"Ġexfiltration":12055,"Ġreferring":12056,"Ġreass":12057,"Ġlabeling":12058,"ĠConfidential":12059,"igured":12060,"onald":12061,"ĠMiss":12062,"Ġshed":12063,"cribed":12064,"ĠAllow":12065,"Ġdebate":12066,"Ġstreet":12067,"ĠIssue":12068,"Ġactivate":12069,"SCADA":12070,"Ġinacc":12071,"Ġbypassing":12072,"Ġhandlers":12073,"Ġbunch":12074,"ĠBeyond":12075,"Ġdeletion":12076,"Ġnoninterference":12077,"ĠGrid":12078,"ĠSnap":12079,"iously":12080,"ĠJacob":12081,"unte":12082,"Ġemployment":12083,"Ġtricked":12084,"hern":12085,"Ġincentives":12086,"SEC":12087,"craft":12088,"Ġorchestr":12089,"Ġcompleteness":12090,"Ġbreached":12091,"Ġwel":12092,"ĠLogic":12093,"Ġunpack":12094,"ĠSAT":12095,"sharing":12096,"ĠRichard":12097,"ĠAbout":12098,"ĠCompanies":12099,"Ġdownt":12100,"Ġslice":12101,"ĠGR":12102,"Ġexhaustive":12103,"\">":12104,"Ġgest":12105,"rating":12106,"ĠRHEL":12107,"Ġoverlay":12108,"ĠASR":12109,"Ġdistributing":12110,"TH":12111,"Node":12112,"Ġhappy":12113,"Ġpredicts":12114,"gt":12115,"Ġterminated":12116,"Ġdeciding":12117,"Ġ63":12118,"Ġinserting":12119,"ĠNav":12120,"ularly":12121,"mails":12122,"Ġcommunicates":12123,"Ġdiscarded":12124,"Ġdropout":12125,"Ġirrelevant":12126,"Ġmarks":12127,"ĠCompute":12128,"Ġspir":12129,"Ġmanifold":12130,"Ġsimultaneous":12131,"Ġoutliers":12132,"Ġfriendly":12133,"Ġunpredict":12134,"Total":12135,"sun":12136,"acr":12137,"Ġtrains":12138,"Ġwheel":12139,"Ġdisput":12140,"ĠUkraine":12141,"Ġtalent":12142,"ĠDHS":12143,"object":12144,"Ġbridges":12145,"ĠSIEM":12146,"Ġcancer":12147,"Since":12148,"ANT":12149,"isms":12150,"perty":12151,"ĠWater":12152,"ĠRece":12153,"Ġplaus":12154,"Ġconstitutes":12155,"Ġkilled":12156,"Ġ92":12157,"ĠIsrael":12158,"Ġjumps":12159,"Ġescalate":12160,"Ġlearner":12161,"Then":12162,"ĠMi":12163,"ĠRelated":12164,"sed":12165,"Ġwake":12166,"Ġperspectives":12167,"reement":12168,"Ġmoderate":12169,"URe":12170,"Ġmainstream":12171,"ĠEarly":12172,"/#":12173,"TV":12174,"ĠDaily":12175,"iquit":12176,"Ġinvestors":12177,"ĠFlor":12178,"eu":12179,"Ġfuzzer":12180,"Ġdimensionality":12181,"tor":12182,"ĠUlt":12183,"INE":12184,"Ġoriginated":12185,"Ġalignment":12186,"Ġexported":12187,"esc":12188,"Ġadjusted":12189,"Ġcomparisons":12190,"Ġglibc":12191,"ĠPeter":12192,"itter":12193,"Ġluck":12194,"Ġaiming":12195,"ĠClean":12196,"illing":12197,"standard":12198,"omp":12199,"Ġreproduce":12200,"Ġgrouped":12201,"agnetic":12202,"help":12203,"program":12204,"mic":12205,"ĠDA":12206,"Ġexplaining":12207,"XSS":12208,"Ġmeetings":12209,"ĠJapanese":12210,"Ġdetections":12211,"Ġinteroperability":12212,"ypes":12213,"Ġrepet":12214,"Ġmetal":12215,"Ġkeystrokes":12216,"Sign":12217,"section":12218,"ĠER":12219,"emu":12220,"Wr":12221,"Ġdefended":12222,"Ġoutdated":12223,"ĠRecon":12224,"Ġfog":12225,"domains":12226,"msg":12227,"Ġssh":12228,"osec":12229,"lessly":12230,"ĠROP":12231,"mo":12232,"Ġredirected":12233,"ĠMus":12234,"ĠFIGURe":12235,"ĠSections":12236,"Ġ59":12237,"ĠProfessional":12238,"Ġshop":12239,"eth":12240,"EFI":12241,"Ġshortest":12242,"ĠWatch":12243,"llipt":12244,"Ġteaching":12245,"Ġatoms":12246,"ĠECU":12247,"ĠPolice":12248,"FE":12249,"Ġcallback":12250,"ĠPrim":12251,"Ġstabil":12252,"Ġdistort":12253,"ĠSite":12254,"Ġperf":12255,"Ġexponentially":12256,"Ġproceeds":12257,"irmware":12258,"ĠPD":12259,"Ġlessons":12260,"Ġhomes":12261,"Ġprojected":12262,"Ġmotor":12263,"Ġmeets":12264,"ĠSingapore":12265,"inja":12266,"Ġtap":12267,"adequ":12268,"defense":12269,"ĠAudit":12270,"ĠInternal":12271,"quarters":12272,"Ġlights":12273,"tcp":12274,"ĠInfo":12275,"ĠLos":12276,"Ġbeacon":12277,"ĠBureau":12278,"Ġappoint":12279,"ĠReLU":12280,"bon":12281,"ividual":12282,"ĠRefer":12283,"ĠServers":12284,"oC":12285,"microsoft":12286,"aneous":12287,"Ġfabric":12288,"Ġtactic":12289,"report":12290,"Ġcart":12291,"Ġprofessor":12292,"rout":12293,"NT":12294,"ypass":12295,"AST":12296,"tx":12297,"ĠCVEs":12298,"Ġsuspic":12299,"ĠASLR":12300,"ORMATION":12301,"Ġbases":12302,"ĠDiv":12303,"Ġobstacles":12304,"sor":12305,"Ġdisks":12306,"ĠCollege":12307,"Ġsubgraph":12308,"ĠClearly":12309,"ĠSelf":12310,"Ġmolec":12311,"ĠGal":12312,"ĠSecondly":12313,"iw":12314,"plot":12315,"ĠTEE":12316,"Ġdeclass":12317,"Ġunprotected":12318,"Ġclouds":12319,"ĠBeing":12320,"Ġradius":12321,"aver":12322,"ĠSUSE":12323,"ĠAvoid":12324,"Ġoutage":12325,"Ġmisbe":12326,"Ġunsigned":12327,"ĠTechniques":12328,"supp":12329,"parser":12330,"Ġresolver":12331,"Ġstuck":12332,"ĠAFFECTED":12333,"ĠNum":12334,"Ġcharacterization":12335,"Ġconting":12336,"Ġdoors":12337,"Ġreleasing":12338,"Ġbytecode":12339,"ilder":12340,"Ġsynchronous":12341,"Of":12342,"Ġcultural":12343,"ĠWorking":12344,"Ġcollisions":12345,"ĠVolume":12346,"Ġdistinguishing":12347,"Gs":12348,"Ġbasics":12349,"Ġstem":12350,"private":12351,"Ġappearing":12352,"ĠGoodfellow":12353,"Ġtrials":12354,"stract":12355,"ĠKit":12356,"ĠPayPal":12357,"Ġencourages":12358,"ĠDEF":12359,"Ġanyway":12360,"cho":12361,"ĠTLB":12362,"ĠAtl":12363,"GN":12364,"Ġoscill":12365,"Ġinterfere":12366,"together":12367,"ĠObt":12368,"Ġhospitals":12369,"ĠLocate":12370,"Ġfluct":12371,"onical":12372,"commerce":12373,"Ġenormous":12374,"ĠRequired":12375,"Ġ/>":12376,"Upd":12377,"Ġfairness":12378,"Ġelectrom":12379,"ĠVir":12380,"Ġsniffer":12381,"Ġwalked":12382,"Ġmisleading":12383,"Fool":12384,"ometry":12385,"Cred":12386,"iates":12387,"ĠOlly":12388,"ĠGeneration":12389,"ĠPut":12390,"Ġhits":12391,"Ġimpersonation":12392,"Ġprinting":12393,"ĠChannel":12394,"Ġessence":12395,"ctl":12396,"Ġ1024":12397,"Ġavoidance":12398,"Ġ87":12399,"Ġanalyse":12400,"ĠCamp":12401,"idity":12402,"boot":12403,"Ġsurf":12404,"ĠGeorge":12405,"Ġrelational":12406,"Ġ84":12407,"Ġtwenty":12408,"agrams":12409,"Ġincorporates":12410,"docs":12411,"ĠHMI":12412,"Ġhal":12413,"ria":12414,"Ġsuited":12415,"avirus":12416,"Ġedition":12417,"Ġinfeasible":12418,"ĠCook":12419,"mysql":12420,"olar":12421,"Ġfollowers":12422,"More":12423,"Ġunused":12424,"Ġenumeration":12425,"Ġinterception":12426,"NA":12427,"115":12428,"Ġenumerate":12429,"ĠAustralian":12430,"Ġpresum":12431,"Ġcoff":12432,"Ġemulator":12433,"untime":12434,"Ġseam":12435,"ĠRadio":12436,"Ġinfluences":12437,"Ġissu":12438,"losing":12439,"Ġelaborate":12440,"Ġ67":12441,"Ġruby":12442,"Bl":12443,"dot":12444,"ĠGnu":12445,"Ġstegan":12446,"Ġrelig":12447,"iteria":12448,"lliptic":12449,"ocab":12450,"Ġtimed":12451,"ĠProgramming":12452,"ĠROC":12453,"Ġcharging":12454,"Ġsalt":12455,"Ġpic":12456,"ĠStatic":12457,"Ġpolar":12458,"Ġvisualize":12459,"Ġphilosoph":12460,"Ġlemma":12461,"aro":12462,"zz":12463,"Ġdecomp":12464,"omatic":12465,"ato":12466,"Ġtitled":12467,"Ġ89":12468,"ĠThreats":12469,"Ġsong":12470,"Ġic":12471,"ĠFund":12472,"AILS":12473,"Ġtutorial":12474,"Ġamongst":12475,"ĠSELECT":12476,"ogonal":12477,"ĠMANET":12478,"ĠWrite":12479,"Ġautomaton":12480,"Ġrotation":12481,"ĠModels":12482,"Ġdivers":12483,"game":12484,"ĠAnalytics":12485,"ORS":12486,"Ġprop":12487,"entially":12488,"github":12489,"################":12490,"ĠNor":12491,"Ġtow":12492,"End":12493,"Ġ62":12494,"Ġxi":12495,"ills":12496,"Ġvalidating":12497,"Scan":12498,"igg":12499,"205":12500,"Ġbrowse":12501,"Ġexpanding":12502,"ighter":12503,"stack":12504,"ĠLDAP":12505,"ĠURI":12506,"Ġwonder":12507,"coins":12508,"ui":12509,"Ġmur":12510,"prem":12511,"ano":12512,"mips":12513,"acity":12514,"rases":12515,"Ġeb":12516,"Ġillustration":12517,"Ġteacher":12518,"Ġrelied":12519,"ĠShadow":12520,"Ġgrammar":12521,"kb":12522,"Ġoverfitting":12523,"ĠSchem":12524,"ago":12525,"KEY":12526,"ĠWed":12527,"Ġsubstit":12528,"ĠSECURITY":12529,"ĠMex":12530,"constrained":12531,"Ġfloating":12532,"ĠWall":12533,"Ġdil":12534,"Ġsought":12535,"Ġsty":12536,"Ġtimestamps":12537,"Ġskew":12538,"ĠDemocr":12539,"adian":12540,".*|":12541,"ĠRuby":12542,"Ġconscious":12543,"Ġalias":12544,"Ġtranslates":12545,"Ġdiscour":12546,"Ġprofits":12547,"Ġchunks":12548,"anger":12549,"Ġterminology":12550,"Ġdeployments":12551,"Ġsurprise":12552,"IAL":12553,"tim":12554,"igma":12555,"Ġadvertisement":12556,"Ġomitted":12557,"front":12558,"Ġuncovered":12559,"Ġoverheads":12560,"iple":12561,"advert":12562,"Ġshifted":12563,"ĠEAX":12564,"ĠKr":12565,"ccessful":12566,"ĠBulletins":12567,"ĠHew":12568,"Ġconsuming":12569,"Ġhate":12570,"Ġbiometrics":12571,"Ġtheoretically":12572,"ĠCharacter":12573,"black":12574,"Ġqualified":12575,"Ġassistant":12576,"speed":12577,"GC":12578,"ĠCrime":12579,"Ġcrowd":12580,"['":12581,"Ġgeographic":12582,"Ġbalanced":12583,"ĠGreat":12584,"Ġmakers":12585,"ĠMarket":12586,"aze":12587,"actively":12588,"Ġskin":12589,"Ġsafeguards":12590,"Ġrevis":12591,"Ġgun":12592,"Ġbulletin":12593,"ĠSID":12594,"you":12595,"Ġmic":12596,"250":12597,"ĠVision":12598,"balanced":12599,"ĠKorean":12600,"ecom":12601,"ĠICT":12602,"Ġhttpd":12603,"ĠWil":12604,"Ġsupervisor":12605,"VPNs":12606,"Ġstrengths":12607,"Ġunchanged":12608,"del":12609,"Ġsnippet":12610,"Ġquote":12611,"Ġacknowledge":12612,"Intern":12613,"ĠBackTrack":12614,"ARPA":12615,"dy":12616,"ĠVerification":12617,"ĠBox":12618,"ĠDT":12619,"aste":12620,"ĠThomas":12621,"Ġcounters":12622,"Ġforged":12623,"Ġpersonality":12624,"Ġintegral":12625,"Ġanymore":12626,"ĠUnic":12627,"ĠWhenever":12628,"onavirus":12629,"Ġblogs":12630,"Ġproduc":12631,"Ġcontacted":12632,"Ġresides":12633,"Ġunrelated":12634,"lay":12635,"Ġmasquer":12636,"Ġsituational":12637,"Ġhabits":12638,"Ġpending":12639,"Ġtheme":12640,"mercial":12641,"Ġboards":12642,"Ġvisually":12643,"Ġending":12644,"Secure":12645,"Ġnumeric":12646,"istication":12647,"Ġaffili":12648,"Fuzz":12649,"document":12650,"frequency":12651,"Ġgateways":12652,"Ġeliminating":12653,"ĠSend":12654,"ppings":12655,"ĠAware":12656,"clusion":12657,"default":12658,"ARY":12659,"ĠRock":12660,"ĠPK":12661,"Ġsucceeds":12662,"ĠJun":12663,"ĠLinear":12664,"Ġnond":12665,"ĠComplete":12666,"idelity":12667,"Ġderivation":12668,"ĠOV":12669,"Ġvolunte":12670,"bedded":12671,"pad":12672,"ĠAssuming":12673,"generation":12674,"Ġconspir":12675,"Ġinconsistent":12676,"Ġunintended":12677,"ĠCluster":12678,"ĠHewlett":12679,"Class":12680,"Ġtainted":12681,"Ġ(,":12682,"Ġunbounded":12683,"Ġdeno":12684,"boards":12685,"Ġcrew":12686,"Ġnt":12687,"accessible":12688,"Ġoverwritten":12689,"Ġthumb":12690,"ĠPhone":12691,"anonym":12692,"Ġtradeoff":12693,"ĠSwed":12694,"Ġrevolution":12695,"nas":12696,"Ġ69":12697,"ĠÎ":12698,"Ġprogrammed":12699,"ĠKong":12700,"Ġdomestic":12701,"ĠIOC":12702,"2004":12703,"ĠSi":12704,"Ġunaware":12705,"Ġlicenses":12706,">.":12707,"arith":12708,"Ġhandy":12709,"Ġgang":12710,"Ġinterrupts":12711,"opensuse":12712,"Ġdrawing":12713,"ĠExcel":12714,"cyber":12715,"rence":12716,"Ġnaming":12717,"Ġarchives":12718,"ĠLikewise":12719,"Ġinvocation":12720,"dh":12721,"{\\":12722,"Ġmaximal":12723,"PRO":12724,"boxes":12725,"ĠWestern":12726,"Ġspeakers":12727,"Ġpredictor":12728,"ĠPRODUC":12729,"Ġimported":12730,"Ġsabotage":12731,"istan":12732,"Ġdimensional":12733,"Ġanalogous":12734,"Ġbucket":12735,"Ġhaven":12736,"Ġabused":12737,"Ġflagged":12738,"Ġ1994":12739,"\":":12740,"Ġreside":12741,"ĠAssistant":12742,"gre":12743,"Ġgrey":12744,"%\\":12745,"ĠDVD":12746,"Ġwarned":12747,"Ġcontributing":12748,"Ġpricing":12749,"Ġpowered":12750,"Ġstandalone":12751,"Ġfactory":12752,"Ġdestroyed":12753,"Ġorientation":12754,"Ġintensive":12755,"Ġhabit":12756,"Ġtoolkit":12757,"ĠISS":12758,"Ops":12759,"PL":12760,"ĠMethods":12761,"Ġ========================":12762,"Ġcompound":12763,"Ġinitiative":12764,"ĠStan":12765,"Ġduties":12766,"Ġconsolid":12767,"Ġ73":12768,"Ġdereference":12769,"ras":12770,"irectional":12771,"What":12772,"Ġentert":12773,"ĠDaniel":12774,"git":12775,"ona":12776,"\"),":12777,"Ġdirective":12778,"Ġpiv":12779,"Ġmissions":12780,"ĠBoard":12781,"ĠArticle":12782,"ouch":12783,"ressive":12784,"Ġscrut":12785,"dir":12786,"ĠWho":12787,"propag":12788,"Ġrendered":12789,"tag":12790,"ĠRelevant":12791,"Ġincremental":12792,"ĠROM":12793,"ĠTensor":12794,"ĠPCA":12795,"Ġdistract":12796,"Ġcope":12797,"Ġopenssl":12798,"Ġsuffered":12799,"Ġhair":12800,"Ġfalling":12801,"lable":12802,"Ġstatistically":12803,"Ġredirection":12804,"102":12805,"Ġoblivious":12806,"Ġtriple":12807,"Ġhostile":12808,"Exec":12809,"Ġcalculates":12810,"Ġreconstructed":12811,"Ġoverlapping":12812,"ĠWEP":12813,"prov":12814,"Ġdistinguished":12815,"Det":12816,"Ġdf":12817,"Ġstamp":12818,"Ġextern":12819,"ĠShare":12820,"mann":12821,"ORE":12822,"ME":12823,"Ġsanitised":12824,"Ġonion":12825,"erce":12826,"Ġpsychological":12827,"andal":12828,"ĠForest":12829,"Ġcold":12830,"address":12831,"ĠSar":12832,"Ġshortly":12833,"ĠSoviet":12834,"Ġreplication":12835,"Ġeveryday":12836,"Ġcoffee":12837,"ĠComprom":12838,"determ":12839,"LEASE":12840,"Ġeg":12841,"Ġvoid":12842,"grid":12843,"Ġviolence":12844,"Ġmaturity":12845,"compliant":12846,"ĠOWASP":12847,"Ġsuic":12848,"ĠSkype":12849,"ĠFuzz":12850,"Ġstrongest":12851,"ĠSwitch":12852,"Ġamplification":12853,"itt":12854,"inte":12855,"----------------------------":12856,"Ġuploading":12857,"Ġpressing":12858,"Ġ91":12859,"Ġavoids":12860,"Ġrestricting":12861,"Ġobligations":12862,"Ġunpatched":12863,"Ġbuttons":12864,"Ġmappings":12865,"rival":12866,"ĠGuid":12867,"eon":12868,"scope":12869,"ĠChief":12870,"Ġbogus":12871,"aspberry":12872,"Ġgiant":12873,"Ġadvis":12874,"ĠKnuth":12875,"ĠMAT":12876,"apse":12877,"103":12878,"Ġtape":12879,"mw":12880,"Ġpurchases":12881,"Ġexclude":12882,"Ġtalked":12883,"Ġexpense":12884,"Ġintra":12885,"Ġfeet":12886,"Ġbare":12887,"Ġoffsets":12888,"ocks":12889,"Ġtrem":12890,"ĠSpam":12891,"ĠDiscovery":12892,"ele":12893,"ilevel":12894,"Ġindices":12895,"ĠUnified":12896,"Ġnormalization":12897,"ĠCapt":12898,"ĠProfile":12899,"ĠSignal":12900,"Ġmislead":12901,"mand":12902,"Ġcryptanalysis":12903,"Ġenclaves":12904,"beit":12905,"Ġbeaut":12906,"ustic":12907,"Ġaccused":12908,"ĠDeterm":12909,"fm":12910,"ĠSecur":12911,"Ġnaive":12912,"Ġfle":12913,"accept":12914,"Ġrisky":12915,"ĠPlug":12916,"generic":12917,"Ġdecoded":12918,"Ġ61":12919,"Ġacknowledged":12920,"ĠMinistry":12921,"ĠStudio":12922,"Ġsynchronized":12923,"independent":12924,"Ġfacilitates":12925,"Ġconfirms":12926,"ĠFirstly":12927,"util":12928,"ĠVan":12929,"Ġmale":12930,"Ġnested":12931,"ĠQR":12932,"Ġpossession":12933,"gling":12934,"Ġgoverned":12935,"130":12936,"cm":12937,"BD":12938,"Ġprover":12939,"zy":12940,"Ġstationary":12941,"Ġsuffers":12942,"GL":12943,"Ġlocalized":12944,"Face":12945,"Ġbesides":12946,"Ġsophistication":12947,"rust":12948,"IZATION":12949,"Ġassignments":12950,"Ġmisses":12951,"ilst":12952,"Ġstub":12953,"Ġhardly":12954,"Ġcounterparts":12955,"Ġcommodity":12956,"ĠImproper":12957,"men":12958,"Ġpace":12959,"Ġgenerations":12960,"Ġpir":12961,"Locker":12962,"Ġconfront":12963,"Ġexcluded":12964,"Ġrid":12965,"Ġacadem":12966,"alties":12967,"Ġomit":12968,"Ġmillisec":12969,"Ġconcludes":12970,"Ġstd":12971,"Ġsubscribers":12972,"ĠTTL":12973,"Ġ('":12974,"Ġperformances":12975,"Ġselective":12976,"Ġerrata":12977,"Ġsurfaces":12978,"Ġeliminated":12979,"lad":12980,"Ġbirds":12981,"Ġnominal":12982,"Ġanswered":12983,"ĠDie":12984,"labeled":12985,"clic":12986,"ya":12987,"wares":12988,"Query":12989,"iquitous":12990,"Se":12991,"Ġforgery":12992,"Ġlinearly":12993,"></":12994,"Ġaltering":12995,"ĠStudy":12996,"Ġspectral":12997,"ĠNC":12998,"Ġengaging":12999,"Ġ_______________________________________________________________________":13000,"Ġearth":13001,"ua":13002,"Ġbrands":13003,"hr":13004,"itan":13005,"Ġ127":13006,"Ġminimization":13007,"Ġinsurer":13008,"hots":13009,"Ġwires":13010,"ĠQuick":13011,"ĠBinary":13012,"ĠJIT":13013,"Ġtrajectories":13014,"ĠMITRE":13015,"ĠPerl":13016,"\");":13017,"ĠOp":13018,"Ġmovies":13019,"ĠImplementation":13020,"Ġhire":13021,"ĠAEs":13022,"Ġerrone":13023,"ĠRNN":13024,"Ġamaz":13025,"Ġmicrocode":13026,"Ġrooms":13027,"ei":13028,"ĠJose":13029,"Ġaccidentally":13030,"Ġviolated":13031,"facing":13032,"ĠRPC":13033,"itically":13034,"Ġparking":13035,"ping":13036,"ĠElectrical":13037,"Ġwishes":13038,"Ġmerchant":13039,"Ġretraining":13040,"device":13041,"Ġsociet":13042,"ĠDMA":13043,"ĠLapl":13044,"when":13045,"Object":13046,"ĠAdministrator":13047,"600":13048,"ĠCAPTCHA":13049,"addr":13050,"Ġlanding":13051,"icker":13052,"ĠReader":13053,"Ġhiring":13054,"issions":13055,"Ġ81":13056,"bor":13057,"Ġburst":13058,"uples":13059,"Ġangles":13060,"ĠDefender":13061,"Ġtrunc":13062,"Ġsubmission":13063,"Ġsid":13064,"First":13065,"Ġprotest":13066,"bul":13067,"Ġjour":13068,"atility":13069,"Ġaband":13070,"readable":13071,"ĠIo":13072,"ĠSET":13073,"Ġfounder":13074,"Ġblur":13075,"Ġsockets":13076,"ĠRecomm":13077,"[.":13078,"Ġupcoming":13079,"Ġtom":13080,"PP":13081,"Ġdozens":13082,"Ġrain":13083,"architectures":13084,"ĠSpe":13085,"ĠSimulation":13086,"ĠWhats":13087,"Em":13088,"SR":13089,"hn":13090,"ĠGrant":13091,"kay":13092,"ĠEucl":13093,"Ġbalancing":13094,"ĠJoe":13095,"Ġ>>":13096,"Ġobstacle":13097,"Ġgrown":13098,"Ġaccessibility":13099,"ĠSoft":13100,"125":13101,"etya":13102,"Ġcampus":13103,"ĠTransform":13104,"jacking":13105,"Current":13106,"Ġscientist":13107,"TechRepublic":13108,"atz":13109,"ione":13110,"Ġbiases":13111,"ĠDETAILS":13112,"ĠAcad":13113,"ĠFreeBSD":13114,"umn":13115,"Ġdubbed":13116,"Aut":13117,"ĠINFORMATION":13118,"Ġcos":13119,"Ġhazard":13120,"Ġearn":13121,"Free":13122,"Ġtal":13123,"Ġlabs":13124,"EEP":13125,"Ġnecessity":13126,"Ġairport":13127,"Ġvo":13128,"Ġbulletins":13129,"Ġnewspaper":13130,"Ġresort":13131,"ĠApart":13132,"Ġinvoking":13133,"icking":13134,"verted":13135,"Ġcorporation":13136,"Ġraising":13137,"ĠDut":13138,"CESS":13139,"ĠFIN":13140,"Ġfits":13141,"Ġdrugs":13142,"Ġundefined":13143,"ĠSPEC":13144,"emporary":13145,"ĠRegistry":13146,"Ġfirefox":13147,"Ġconceal":13148,"rator":13149,"Ġsamba":13150,"Ġcoded":13151,"query":13152,"athan":13153,"Ġdegrade":13154,"witch":13155,"Message":13156,"120":13157,"ĠUsed":13158,"ĠNOP":13159,"Ġtimer":13160,"Ġintentional":13161,"Ġalphabet":13162,"ĠCrow":13163,"Ġdispatch":13164,"NI":13165,"Ġpc":13166,"Ġpipe":13167,"iche":13168,"Ġcaution":13169,"ĠHACK":13170,"vasive":13171,"ĠMap":13172,"pid":13173,"lete":13174,"Ġimperative":13175,"Ġrefined":13176,"auses":13177,"ĠObviously":13178,"ĠYear":13179,"Ġuncertain":13180,"ĠJack":13181,"powered":13182,"Fs":13183,"qt":13184,"Ġforb":13185,"Ġbarrier":13186,"ĠWebKit":13187,"ota":13188,"Ġdisag":13189,"Dec":13190,"Ġrestrictive":13191,"Ġmoments":13192,"ĠHR":13193,"Ġcod":13194,"Ġstatistic":13195,"Ġrootkits":13196,"Ġprotective":13197,"mm":13198,"Ġmonot":13199,"Ġbarriers":13200,"fall":13201,"Ġhistogram":13202,"gricult":13203,"174":13204,"asi":13205,"ĠStar":13206,"Access":13207,"Ġcorrespondence":13208,"Ġforming":13209,"Ġfunded":13210,"antly":13211,"entry":13212,"romium":13213,"Ġbegun":13214,"mult":13215,"vector":13216,"Ġcracked":13217,"Ġintentions":13218,"ĠPerson":13219,"Ġannotations":13220,"Ġclause":13221,"ĠSubject":13222,"ĠIdentification":13223,"ĠOverflow":13224,"iful":13225,"Ġcoupling":13226,"Ġforgot":13227,"Ġholistic":13228,"Dis":13229,"Ġtelecommunications":13230,"'re":13231,"152":13232,"ĠVi":13233,"Ġobserves":13234,"Ġconsumed":13235,"Ġwithdraw":13236,"Ġsurprised":13237,"calc":13238,"Fl":13239,"Ġbaselines":13240,"ĠPV":13241,"udge":13242,"Ġdrawback":13243,"8203":13244,"ĠFormat":13245,"istribution":13246,"openoffice":13247,"Ġrecruit":13248,"ĠKal":13249,"ppa":13250,"built":13251,"google":13252,"Ġcomfortable":13253,"Ġgrants":13254,"Ġworkplace":13255,"HR":13256,"Ġintend":13257,"Ġdiagnosis":13258,"Ġoccasionally":13259,"Ġinadequ":13260,"Ġsuddenly":13261,"SION":13262,"Ġmirror":13263,"Ġinitialize":13264,"current":13265,"za":13266,"Ġbright":13267,"Ġexhibits":13268,"Mon":13269,"Ġaudits":13270,"olf":13271,"endar":13272,"Ġrecovering":13273,"Ġthoroughly":13274,"Ġfired":13275,"ENCE":13276,"Ġclinical":13277,"ĠNY":13278,"Ġorthogonal":13279,"ĠGHz":13280,"ĠLTE":13281,"Ġcorrelate":13282,"DDoS":13283,"ĠScott":13284,"Ġimaging":13285,"oston":13286,"plit":13287,"Ġterminates":13288,"Ġdropper":13289,"Ġ79":13290,"ĠQuestion":13291,"Ġemulate":13292,"omaly":13293,"Ġintrinsic":13294,"Map":13295,"Ġcontributes":13296,"ĠCanadian":13297,"ĠIPsec":13298,"ercase":13299,"structured":13300,"ssh":13301,"ĠPac":13302,"Ġarrived":13303,"Ġspars":13304,"DLL":13305,"ĠMinimize":13306,"ĠWednes":13307,"ĠLoss":13308,"Ġofficially":13309,"audi":13310,"eller":13311,"ĠNLP":13312,"Ġhacks":13313,"ĠTA":13314,"Ġspl":13315,"Ġcmd":13316,"Ġaccuracies":13317,"cloud":13318,"ĠKu":13319,"ĠConst":13320,"Ġdemocr":13321,"Ġethics":13322,"ĠCare":13323,"Ġpod":13324,"Ġthermal":13325,"ĠTs":13326,"brev":13327,"Ġmicrophone":13328,"iang":13329,"Ġ+--------------------------------":13330,"Ġgeographical":13331,"usually":13332,"127":13333,"Ġpassph":13334,"Ġfooling":13335,"Ġ(%)":13336,"Ġelectronics":13337,"Ġreception":13338,"Ġassertion":13339,"ĠLarge":13340,"Eng":13341,"requis":13342,"number":13343,"ĠVideo":13344,"ĠPrivilege":13345,"Ġinformal":13346,"Ġwhereby":13347,"ĠStage":13348,"Ġinqu":13349,"Ġverb":13350,"Ġbypassed":13351,"Ġdestructive":13352,"TF":13353,"Ġpersu":13354,"Ġoversight":13355,"adec":13356,"ĠSetting":13357,"Ġextr":13358,"Ġpermanently":13359,"Ġhired":13360,"NR":13361,"Ġgrew":13362,"Ġendors":13363,"anes":13364,"Ġspreadshe":13365,"ĠInsp":13366,"Ġconvic":13367,"Ġregime":13368,"ĠExperimental":13369,"Get":13370,"Ġcriticized":13371,"oft":13372,"idean":13373,"afa":13374,"ĠTai":13375,"ĠGPG":13376,"ĠEstabl":13377,"Ġsrc":13378,"Ġcoal":13379,"ĠEdit":13380,"Ġmixture":13381,"ĠEs":13382,"ĠIF":13383,"Ġspeculation":13384,"cam":13385,"Ġbacked":13386,"iser":13387,"Ġmulticast":13388,"Ġbounding":13389,"Ġharass":13390,"ĠSubsequ":13391,"range":13392,"pector":13393,"Ġsaves":13394,"player":13395,"ĠQuery":13396,"SSH":13397,"Ġunlimited":13398,"Ġquestionna":13399,"ampered":13400,"Ġcompilers":13401,"ĠDLLs":13402,"ĠRegardless":13403,"Ġshutdown":13404,"ĠForensics":13405,"Ġsplitting":13406,"DH":13407,"ĠWednesday":13408,"ĠMajor":13409,"Ġwalking":13410,"Ġdisadvantage":13411,"Ġpayoff":13412,"oop":13413,"ĠSTL":13414,"Ġnoises":13415,"Ġinvestigator":13416,"codes":13417,"Ġvig":13418,"Ġslots":13419,"Ġ);":13420,"Ġ600":13421,"uctor":13422,"ĠPenTest":13423,"Droid":13424,"ĠTues":13425,"ĠUEFI":13426,"Ġconfused":13427,"ĠStructure":13428,"Ġbackdoored":13429,"Ġsavings":13430,"perties":13431,"appropriate":13432,"Ġtransmits":13433,"ainer":13434,"ĠContext":13435,"imum":13436,"Ġwouldn":13437,"ĠPOP":13438,"Request":13439,"signed":13440,"ĠObtaining":13441,"Ġworkstations":13442,"ective":13443,"ĠCalc":13444,"ĠCriteria":13445,"Ġmd":13446,"Ġcd":13447,"Ġnm":13448,"Ġclub":13449,"Ġalleg":13450,"Program":13451,"Car":13452,"Ġindexed":13453,"Ġciphertexts":13454,"track":13455,"ĠRo":13456,"ĠNTP":13457,"Ġtradem":13458,"ĠClinton":13459,"ĠFrank":13460,"Ġlistener":13461,"SY":13462,"Ġdisjoint":13463,"Ġevolutionary":13464,"ĠCryptography":13465,"Ġretrans":13466,"Ġdescriptor":13467,"ĠSchneider":13468,"Ġalt":13469,"ĠPrevention":13470,"Ġvocab":13471,"rike":13472,"Ġbreat":13473,"second":13474,"Ġreportedly":13475,"Ġbanner":13476,"Ġoverwhelming":13477,"Ġhorizon":13478,"ĠFROM":13479,"entoo":13480,"Ġsolves":13481,"ĠKE":13482,"Ġoccurrences":13483,"ĠConcept":13484,"Ġdelivers":13485,"kaspersky":13486,"Ġdiscrep":13487,"Ġadmitted":13488,"Ġmonetary":13489,"Ġbehaviours":13490,"Ġsentiment":13491,"Ġformalize":13492,"ĠAlong":13493,"Ġcutting":13494,"EB":13495,"Load":13496,"ĠWeak":13497,"both":13498,"ĠMuch":13499,"ells":13500,"personal":13501,"Sub":13502,"ĠHeart":13503,"Ġtracker":13504,"consuming":13505,"ulary":13506,"ĠNFS":13507,"ĠHEAD":13508,"Ġlex":13509,"Ġreform":13510,"Ġlogo":13511,"224":13512,"Ġautoencoder":13513,"Ġprogrammable":13514,"vs":13515,"ĠFC":13516,"Ġfinance":13517,"poofing":13518,"igger":13519,"Ġcha":13520,"Ġpooling":13521,"serve":13522,"ĠMix":13523,"My":13524,"MNIST":13525,"Ġadmit":13526,"Ġdamaging":13527,"KL":13528,"Ġmodulation":13529,"ĠXen":13530,"Ġvib":13531,"Ġsoftmax":13532,"Ġinline":13533,"Ġpools":13534,"ĠGnuPG":13535,"FFFF":13536,"Ġclever":13537,"ĠSant":13538,"Ġwaves":13539,"Ġdad":13540,"ĠLand":13541,"Ġappend":13542,"Ġlogistic":13543,"ĠEconomic":13544,"tiv":13545,"gas":13546,"ĠJon":13547,"Ġimplied":13548,"Ġtip":13549,"Rem":13550,"Ġwid":13551,"ĠCCP":13552,"Conn":13553,"Custom":13554,"Ġanalytic":13555,"Ġbear":13556,"ĠRepresent":13557,"Ġbeliefs":13558,"Ġevil":13559,"ractical":13560,"Ġinteracts":13561,"Image":13562,"ĠNASA":13563,"Trans":13564,"ĠCNNs":13565,"Ġtablets":13566,"gem":13567,"Ġenforces":13568,"Den":13569,"Ġepid":13570,"Ġquadratic":13571,"ĠAndrew":13572,"Ġmerged":13573,"ollary":13574,"Ġoperand":13575,"Ġtremend":13576,"Ġcommits":13577,"ĠNatural":13578,"ĠNiger":13579,"ĠBound":13580,"ĠComments":13581,"loaded":13582,"ĠTheory":13583,"ĠBU":13584,"Client":13585,"ĠExecutive":13586,"ĠConfidentiality":13587,"ĠSignature":13588,"Ġintruders":13589,"Ġpk":13590,"orders":13591,"grap":13592,"Ġphenomena":13593,"Bay":13594,"Ġposterior":13595,"Ġpublishers":13596,"SW":13597,"ĠFeatures":13598,"Ġportfol":13599,"profit":13600,"Ġseeds":13601,"Ġballot":13602,"ĠSep":13603,"rediction":13604,"ĠNorton":13605,"Ġshr":13606,"ogeneity":13607,"oul":13608,"Ġaco":13609,"Ġdispos":13610,"Ġincurs":13611,"Ġsubsystems":13612,"ĠTuesday":13613,"eral":13614,"Ġoptimizer":13615,"Ġcheat":13616,"ĠValidation":13617,".*|.*|":13618,"Ġwrapper":13619,"Ġcursor":13620,"focus":13621,"Ġmultimedia":13622,"Ġmarketplace":13623,"ISO":13624,"shtml":13625,"ĠQoS":13626,"Ġarmed":13627,"111":13628,"Ġhoney":13629,"Ġbold":13630,"proxy":13631,"Ġipt":13632,"209":13633,"Ġinjections":13634,"just":13635,"ĠVirusTotal":13636,"ĠChallenge":13637,"Bs":13638,":/":13639,"GT":13640,"Ġtransforms":13641,"Ġcam":13642,"Ġcompleting":13643,"Vulner":13644,"Ġpurchasing":13645,"application":13646,"note":13647,"Ġgreedy":13648,"Ġ((":13649,"ceptibility":13650,"ĠLead":13651,"iley":13652,"Ġreused":13653,"ĠMary":13654,"Ġfellow":13655,"sters":13656,"Ġmaximizing":13657,"px":13658,"112":13659,"forge":13660,"Ġplausible":13661,"ĠInv":13662,"Ġadvertisers":13663,"ĠDrive":13664,"away":13665,"fed":13666,"ĠWAR":13667,"variant":13668,"Ġdevoted":13669,"ĠLED":13670,"ALU":13671,"ĠLisp":13672,"Ġfundamentally":13673,"Ġguilt":13674,"malicious":13675,"hash":13676,"ĠMPC":13677,"118":13678,"mine":13679,"atories":13680,"ĠMatt":13681,"runner":13682,"Ġrealization":13683,"center":13684,"Ġthin":13685,"DSA":13686,"Ġsummer":13687,"Ġcreators":13688,"Spec":13689,"Ġhomomorphic":13690,"ĠSeverity":13691,"Site":13692,"friendly":13693,"OO":13694,"Ġinadvert":13695,"Ġmerge":13696,"Ġtraditionally":13697,"Ġsight":13698,"ĠAbstract":13699,"ĠTaking":13700,"Ġattracted":13701,"ĠSurvey":13702,"NE":13703,"Ġweakest":13704,"Ġcontractors":13705,"ĠHybrid":13706,"TIONS":13707,"Ġnu":13708,"everse":13709,"ĠWhatsApp":13710,"ĠMDP":13711,"Ġgeometric":13712,"ĠCort":13713,"Ġreplicate":13714,"ĠGuardian":13715,"ĠKim":13716,"Ġcoins":13717,"Ġmomentum":13718,"Ra":13719,"ĠFPGA":13720,"APT":13721,"aspx":13722,"Ġappliance":13723,"ĠMond":13724,"uced":13725,"RAS":13726,"ĠRegister":13727,"Ġmerg":13728,"bone":13729,"Network":13730,"adecimal":13731,"ĠProced":13732,"Ġmath":13733,"ĠTry":13734,"Ġ1960":13735,"Ġcul":13736,"ĠTer":13737,"herlands":13738,"team":13739,"ĠDest":13740,"Ġexposes":13741,"ĠThanks":13742,"ĠPrecision":13743,"Ġcarriers":13744,"Ġcompletes":13745,"ivari":13746,"apy":13747,"ĠActivity":13748,"Ġeap":13749,"ĠRestrict":13750,"Ġdevelops":13751,"valu":13752,"ĠAccept":13753,"hoc":13754,"keys":13755,"Ġoccas":13756,"Ġcoronavirus":13757,"Book":13758,"ĠBC":13759,"platform":13760,"ICATION":13761,"ĠACE":13762,"Ġadequately":13763,"Ġemotional":13764,"ĠDSS":13765,"spot":13766,"looking":13767,"Ġaltogether":13768,"ĠECUs":13769,"Ġstrike":13770,"ĠFIGURE":13771,"ĠNVD":13772,"zen":13773,"Ġattitude":13774,"Ġtraits":13775,"------":13776,"ĠTrade":13777,"Ġsubstation":13778,"ĠOAuth":13779,"rolling":13780,"Ġantennas":13781,"Sm":13782,"Ġ|------------+----------------":13783,"ĠTree":13784,"enterprise":13785,"ĠAgents":13786,"jo":13787,"ĠCISO":13788,"Ġconstructions":13789,"ortium":13790,"Po":13791,"Ġpursue":13792,"ĠRaspberry":13793,"izers":13794,"ello":13795,"Ġterminals":13796,"machine":13797,"Ġquantization":13798,"ectable":13799,"Physical":13800,"ĠED":13801,"Ġbroke":13802,"ĠTemporal":13803,"ĠITRC":13804,"Ġtuned":13805,"Ġdating":13806,"oster":13807,"Ġsett":13808,"Val":13809,"Ġpersonalized":13810,"Ġpushing":13811,"Ġprefixes":13812,"Ġthoughts":13813,"Ġliterally":13814,"Ġdisappear":13815,"ĠUE":13816,"Ġscenes":13817,"Ġcoherent":13818,"Address":13819,"ulty":13820,"ĠAk":13821,"ĠKar":13822,"Ġexplosion":13823,"Ġannotated":13824,"Ġowns":13825,"ĠHave":13826,"Ġimped":13827,"ĠOllyDbg":13828,"Ġcanonical":13829,"Ġ1993":13830,"ĠOthers":13831,"Ġlogins":13832,"irmed":13833,"ĠDisclosure":13834,"Ġpreview":13835,"Ġunsuccessful":13836,"Ġtransist":13837,"abytes":13838,"ĠSequ":13839,"relation":13840,"abel":13841,"Ġhealthy":13842,"Ġgrand":13843,"Although":13844,"Ġhighlighting":13845,"Ġjoining":13846,"ĠTaiwan":13847,"Ġelevated":13848,"Ġtie":13849,"Ġcontradict":13850,"ĠEIP":13851,"Ġelectromagnetic":13852,"ĠLy":13853,"Ġhorse":13854,"Ġquantities":13855,
[...]
